{
  "version": "1.0",
  "truncation": null,
  "padding": null,
  "added_tokens": [
    {
      "id": 0,
      "content": "<|endoftext|>",
      "single_word": false,
      "lstrip": false,
      "rstrip": false,
      "normalized": false,
      "special": true
    },
    {
      "id": 1,
      "content": "[PAD]",
      "single_word": false,
      "lstrip": false,
      "rstrip": false,
      "normalized": false,
      "special": true
    },
    {
      "id": 2,
      "content": "<user>",
      "single_word": false,
      "lstrip": false,
      "rstrip": false,
      "normalized": false,
      "special": true
    },
    {
      "id": 3,
      "content": "<bot>",
      "single_word": false,
      "lstrip": false,
      "rstrip": false,
      "normalized": false,
      "special": true
    }
  ],
  "normalizer": null,
  "pre_tokenizer": {
    "type": "ByteLevel",
    "add_prefix_space": false,
    "trim_offsets": true,
    "use_regex": true
  },
  "post_processor": {
    "type": "ByteLevel",
    "add_prefix_space": true,
    "trim_offsets": false,
    "use_regex": true
  },
  "decoder": {
    "type": "ByteLevel",
    "add_prefix_space": true,
    "trim_offsets": true,
    "use_regex": true
  },
  "model": {
    "type": "BPE",
    "dropout": null,
    "unk_token": null,
    "continuing_subword_prefix": null,
    "end_of_word_suffix": null,
    "fuse_unk": false,
    "byte_fallback": false,
    "vocab": {
      "<|endoftext|>": 0,
      "[PAD]": 1,
      "<user>": 2,
      "<bot>": 3,
      "!": 4,
      "\"": 5,
      "#": 6,
      "$": 7,
      "%": 8,
      "&": 9,
      "'": 10,
      "(": 11,
      ")": 12,
      "*": 13,
      "+": 14,
      ",": 15,
      "-": 16,
      ".": 17,
      "/": 18,
      "0": 19,
      "1": 20,
      "2": 21,
      "3": 22,
      "4": 23,
      "5": 24,
      "6": 25,
      "7": 26,
      "8": 27,
      "9": 28,
      ":": 29,
      ";": 30,
      "<": 31,
      "=": 32,
      ">": 33,
      "?": 34,
      "@": 35,
      "A": 36,
      "B": 37,
      "C": 38,
      "D": 39,
      "E": 40,
      "F": 41,
      "G": 42,
      "H": 43,
      "I": 44,
      "J": 45,
      "K": 46,
      "L": 47,
      "M": 48,
      "N": 49,
      "O": 50,
      "P": 51,
      "Q": 52,
      "R": 53,
      "S": 54,
      "T": 55,
      "U": 56,
      "V": 57,
      "W": 58,
      "X": 59,
      "Y": 60,
      "Z": 61,
      "[": 62,
      "\\": 63,
      "]": 64,
      "^": 65,
      "_": 66,
      "`": 67,
      "a": 68,
      "b": 69,
      "c": 70,
      "d": 71,
      "e": 72,
      "f": 73,
      "g": 74,
      "h": 75,
      "i": 76,
      "j": 77,
      "k": 78,
      "l": 79,
      "m": 80,
      "n": 81,
      "o": 82,
      "p": 83,
      "q": 84,
      "r": 85,
      "s": 86,
      "t": 87,
      "u": 88,
      "v": 89,
      "w": 90,
      "x": 91,
      "y": 92,
      "z": 93,
      "{": 94,
      "|": 95,
      "}": 96,
      "~": 97,
      "¡": 98,
      "¢": 99,
      "£": 100,
      "¤": 101,
      "¥": 102,
      "¦": 103,
      "§": 104,
      "¨": 105,
      "©": 106,
      "ª": 107,
      "«": 108,
      "¬": 109,
      "®": 110,
      "¯": 111,
      "°": 112,
      "±": 113,
      "²": 114,
      "³": 115,
      "´": 116,
      "µ": 117,
      "¶": 118,
      "·": 119,
      "¸": 120,
      "¹": 121,
      "º": 122,
      "»": 123,
      "¼": 124,
      "½": 125,
      "¾": 126,
      "¿": 127,
      "Â": 128,
      "Ã": 129,
      "Ä": 130,
      "Å": 131,
      "Æ": 132,
      "Ç": 133,
      "É": 134,
      "Ê": 135,
      "Ë": 136,
      "Ì": 137,
      "Î": 138,
      "Ï": 139,
      "Ð": 140,
      "Ñ": 141,
      "Ö": 142,
      "×": 143,
      "Ø": 144,
      "Ù": 145,
      "Ú": 146,
      "Û": 147,
      "à": 148,
      "á": 149,
      "â": 150,
      "ã": 151,
      "ä": 152,
      "å": 153,
      "æ": 154,
      "ç": 155,
      "è": 156,
      "é": 157,
      "ê": 158,
      "ë": 159,
      "ì": 160,
      "í": 161,
      "î": 162,
      "ï": 163,
      "ð": 164,
      "ĉ": 165,
      "Ċ": 166,
      "Č": 167,
      "č": 168,
      "Ġ": 169,
      "ġ": 170,
      "Ģ": 171,
      "ģ": 172,
      "Ĥ": 173,
      "ĥ": 174,
      "Ħ": 175,
      "ħ": 176,
      "Ĩ": 177,
      "ĩ": 178,
      "Ī": 179,
      "ī": 180,
      "Ĭ": 181,
      "ĭ": 182,
      "Į": 183,
      "į": 184,
      "İ": 185,
      "ı": 186,
      "Ĳ": 187,
      "ĳ": 188,
      "Ĵ": 189,
      "ĵ": 190,
      "Ķ": 191,
      "ķ": 192,
      "ĸ": 193,
      "Ĺ": 194,
      "ĺ": 195,
      "Ļ": 196,
      "ļ": 197,
      "Ľ": 198,
      "ľ": 199,
      "Ŀ": 200,
      "ŀ": 201,
      "Ł": 202,
      "ł": 203,
      "Ń": 204,
      "ĠĠ": 205,
      "Ġt": 206,
      "Ġa": 207,
      "in": 208,
      "he": 209,
      "re": 210,
      "ĠĠĠĠ": 211,
      "on": 212,
      "Ġthe": 213,
      "at": 214,
      "er": 215,
      "Ġs": 216,
      "en": 217,
      "Ġo": 218,
      "Ġc": 219,
      "Ġw": 220,
      "it": 221,
      "is": 222,
      "or": 223,
      "es": 224,
      "al": 225,
      "ed": 226,
      "an": 227,
      "Ġp": 228,
      "Ġf": 229,
      "Ġb": 230,
      "Ġan": 231,
      "ing": 232,
      "Ġin": 233,
      "Ġof": 234,
      "ar": 235,
      "ion": 236,
      "--": 237,
      "ou": 238,
      "Ġm": 239,
      "Ġd": 240,
      "ic": 241,
      "Ġto": 242,
      "le": 243,
      "ĠĠĠĠĠĠĠĠ": 244,
      "Ġand": 245,
      "as": 246,
      "ro": 247,
      "Ġth": 248,
      "ent": 249,
      "ct": 250,
      "Ġh": 251,
      "et": 252,
      "Ġre": 253,
      "st": 254,
      "Ġn": 255,
      "om": 256,
      "el": 257,
      "Ġe": 258,
      "il": 259,
      "Ġl": 260,
      "id": 261,
      "im": 262,
      "ig": 263,
      "ot": 264,
      "ve": 265,
      "Ġis": 266,
      "Ġ(": 267,
      "----": 268,
      "ut": 269,
      "Ġg": 270,
      "ĠT": 271,
      "am": 272,
      "ĠĠĠ": 273,
      "ol": 274,
      "ation": 275,
      "ĠI": 276,
      "se": 277,
      "ce": 278,
      "ly": 279,
      "âĢ": 280,
      "Ġfor": 281,
      "ur": 282,
      "Ġbe": 283,
      "ow": 284,
      "ĠS": 285,
      "Ġthat": 286,
      "Ġu": 287,
      "ra": 288,
      "Ġst": 289,
      "Ġon": 290,
      "ch": 291,
      "ĠA": 292,
      "ver": 293,
      "Ġ1": 294,
      "ĠC": 295,
      "if": 296,
      "ul": 297,
      "ith": 298,
      "Ġcon": 299,
      "ay": 300,
      "ad": 301,
      "Ġwith": 302,
      "ĠĠĠĠĠĠĠĠĠĠĠĠĠĠĠĠ": 303,
      "Ġ$": 304,
      "od": 305,
      "Ġ\"": 306,
      "Ġas": 307,
      "ir": 308,
      "Ġy": 309,
      "00": 310,
      "ter": 311,
      "==": 312,
      "Ġpro": 313,
      "ate": 314,
      "pe": 315,
      "Ġwe": 316,
      "um": 317,
      "Ġit": 318,
      "her": 319,
      "ab": 320,
      "ri": 321,
      "Ġal": 322,
      "Ġv": 323,
      "nd": 324,
      "Ġ2": 325,
      "ĠM": 326,
      "ge": 327,
      "Ġwh": 328,
      "res": 329,
      "pp": 330,
      "te": 331,
      "Ġde": 332,
      "qu": 333,
      "ĠP": 334,
      "end": 335,
      "Ġ\\": 336,
      "ment": 337,
      "--------": 338,
      "Ġ=": 339,
      "ist": 340,
      "est": 341,
      "Ġex": 342,
      "ĠThe": 343,
      "**": 344,
      "os": 345,
      "ac": 346,
      "Ġyou": 347,
      "ĠB": 348,
      "ant": 349,
      "Ġcom": 350,
      "Ġwas": 351,
      "us": 352,
      "Ġ-": 353,
      "Ġor": 354,
      "oc": 355,
      "Ġare": 356,
      "op": 357,
      "ht": 358,
      "Ġsu": 359,
      "ers": 360,
      "ess": 361,
      "iv": 362,
      "th": 363,
      "un": 364,
      "Ġhe": 365,
      "ĠF": 366,
      "ity": 367,
      "Ġby": 368,
      "Ġat": 369,
      "ĠD": 370,
      "Ġr": 371,
      "Ġse": 372,
      "ore": 373,
      "ld": 374,
      "ain": 375,
      "ction": 376,
      "rom": 377,
      "ĊĠĠĠĠ": 378,
      "ĠH": 379,
      "ill": 380,
      "ĠW": 381,
      "and": 382,
      "Ġnot": 383,
      "ĊĠĠĠ": 384,
      "nt": 385,
      "ke": 386,
      "Ġ0": 387,
      "ive": 388,
      "ĠR": 389,
      "Ġha": 390,
      "Ġne": 391,
      "em": 392,
      "_{": 393,
      "ort": 394,
      "ĠL": 395,
      "ĠN": 396,
      "art": 397,
      "ud": 398,
      "âĢĻ": 399,
      "Ġthis": 400,
      "pt": 401,
      "Ġfrom": 402,
      "pl": 403,
      "ial": 404,
      "ight": 405,
      "ies": 406,
      "ure": 407,
      "Ġsh": 408,
      "Ġ*": 409,
      "ine": 410,
      "ĠG": 411,
      "Ġhave": 412,
      "fe": 413,
      "Ġch": 414,
      "ated": 415,
      "ĠE": 416,
      "ell": 417,
      ").": 418,
      "all": 419,
      "our": 420,
      "xt": 421,
      "ould": 422,
      ");": 423,
      "red": 424,
      "{\\": 425,
      "per": 426,
      "Ġle": 427,
      "og": 428,
      "ame": 429,
      "'s": 430,
      "ath": 431,
      "ical": 432,
      "ag": 433,
      "Ġ3": 434,
      "iz": 435,
      "ust": 436,
      "====": 437,
      "ĊĠĠĠĠĠĠĠĠ": 438,
      "Ġ+": 439,
      "rou": 440,
      "Ġcan": 441,
      "ome": 442,
      "ue": 443,
      "ich": 444,
      "ĠO": 445,
      "ult": 446,
      "cl": 447,
      "Ġus": 448,
      "Ġres": 449,
      "able": 450,
      ".\"": 451,
      "ase": 452,
      "age": 453,
      "Ġj": 454,
      "ib": 455,
      "01": 456,
      "act": 457,
      "Ġwhe": 458,
      "out": 459,
      "Ġab": 460,
      "ost": 461,
      "Ġ{": 462,
      "}}": 463,
      "ĊĠĠĠĠĠĠĠ": 464,
      "ie": 465,
      "ard": 466,
      "ide": 467,
      "Ġcl": 468,
      "ans": 469,
      "ther": 470,
      "The": 471,
      "ub": 472,
      "Ġim": 473,
      "Ġcomp": 474,
      "ign": 475,
      "ack": 476,
      "ĠâĢ": 477,
      "Ġwere": 478,
      "Ġk": 479,
      "ĊĠ": 480,
      "orm": 481,
      "ast": 482,
      "Ġpl": 483,
      "of": 484,
      "ap": 485,
      "ĠU": 486,
      "ition": 487,
      "ind": 488,
      "Ġall": 489,
      "Ġad": 490,
      "Ġdo": 491,
      "ass": 492,
      "Ġ[": 493,
      "Ġcont": 494,
      "ĠJ": 495,
      "Ġme": 496,
      "ph": 497,
      "ime": 498,
      "ip": 499,
      "con": 500,
      "ary": 501,
      "----------------": 502,
      "Ġhas": 503,
      "du": 504,
      "Ġ4": 505,
      "are": 506,
      "ĠIn": 507,
      "ĠĠĠĠĠĠĠĠĠĠĠĠĠĠĠĠĠĠĠĠĠĠĠĠĠĠĠĠĠĠĠĠ": 508,
      "ak": 509,
      "Ġwhich": 510,
      "Ġint": 511,
      "ice": 512,
      "Ġbut": 513,
      "int": 514,
      "ĉĉ": 515,
      "ence": 516,
      "),": 517,
      "Ġtr": 518,
      "Ġwor": 519,
      "cc": 520,
      "text": 521,
      "one": 522,
      "Ġwill": 523,
      "ations": 524,
      "ous": 525,
      "ress": 526,
      "Ġdis": 527,
      "=\"": 528,
      "ile": 529,
      "..": 530,
      "ens": 531,
      "Ġif": 532,
      "Ġ&": 533,
      "ok": 534,
      "ff": 535,
      "Ġ<": 536,
      "ty": 537,
      "Ġout": 538,
      "ne": 539,
      "ance": 540,
      "ong": 541,
      "ose": 542,
      "Ġ$\\": 543,
      "ep": 544,
      "Ġ'": 545,
      "Ġgo": 546,
      "Ġ5": 547,
      "av": 548,
      "ents": 549,
      "Ġen": 550,
      "//": 551,
      "^{": 552,
      "Ġper": 553,
      "au": 554,
      "ally": 555,
      "ru": 556,
      "port": 557,
      "ions": 558,
      "ĠTh": 559,
      "gh": 560,
      "ace": 561,
      "Ġone": 562,
      "Ġun": 563,
      "math": 564,
      "Ġthey": 565,
      "ang": 566,
      "ely": 567,
      "so": 568,
      "ord": 569,
      "ory": 570,
      "ber": 571,
      "Ġapp": 572,
      "ia": 573,
      "Ġev": 574,
      "ach": 575,
      "ear": 576,
      "Ġmore": 577,
      "ect": 578,
      "ĠK": 579,
      "Ġar": 580,
      "ire": 581,
      "form": 582,
      "Ġtheir": 583,
      "de": 584,
      "ail": 585,
      "âĢĿ": 586,
      "Ġ}": 587,
      "ors": 588,
      "ree": 589,
      "Ġhis": 590,
      "ry": 591,
      "lic": 592,
      "Ġup": 593,
      "Ġqu": 594,
      "ite": 595,
      "Âł": 596,
      "ata": 597,
      "ys": 598,
      "ref": 599,
      "Ġother": 600,
      "ake": 601,
      "}$": 602,
      "ĠĠĠĠĠĠĠ": 603,
      "fere": 604,
      "very": 605,
      "Ġpart": 606,
      "[@": 607,
      "ll": 608,
      "urn": 609,
      "vel": 610,
      "own": 611,
      "ount": 612,
      "Ġag": 613,
      "Ġli": 614,
      "we": 615,
      "cre": 616,
      "Ġso": 617,
      "ĠSt": 618,
      "com": 619,
      "ates": 620,
      "ĊĠĠĠĠĠĠĠĠĠĠĠ": 621,
      "ound": 622,
      "Ġalso": 623,
      "Ġsp": 624,
      "Ġbeen": 625,
      "Ġpre": 626,
      "10": 627,
      "ms": 628,
      "erv": 629,
      "\\]": 630,
      "Ġyour": 631,
      "ck": 632,
      "Ġno": 633,
      "Ġwho": 634,
      "Ġthere": 635,
      "ma": 636,
      "Ġman": 637,
      "Ġhad": 638,
      "hat": 639,
      "Ġ19": 640,
      "Ġwould": 641,
      "ook": 642,
      "Ġass": 643,
      "low": 644,
      "nder": 645,
      "Ġob": 646,
      "Ġwhen": 647,
      "ific": 648,
      "Ġ6": 649,
      "row": 650,
      "Ġany": 651,
      "ject": 652,
      "Ġabout": 653,
      "ring": 654,
      "reat": 655,
      "ĠâĢľ": 656,
      "Ġthan": 657,
      "wo": 658,
      "Ġcomm": 659,
      "eth": 660,
      "ple": 661,
      "ĠV": 662,
      "Ġdif": 663,
      "ict": 664,
      "clud": 665,
      "Ġtime": 666,
      "pect": 667,
      "In": 668,
      "Ġsa": 669,
      "Ġbet": 670,
      "vers": 671,
      "lo": 672,
      "Ġgen": 673,
      "Ġnew": 674,
      "Ġstud": 675,
      "Ġmy": 676,
      "========": 677,
      "ces": 678,
      "Ġits": 679,
      "Ġdef": 680,
      "ink": 681,
      "Ġte": 682,
      "Ġsome": 683,
      "Ġinter": 684,
      "12": 685,
      "ode": 686,
      "19": 687,
      "Ġsy": 688,
      "lect": 689,
      "Ġcons": 690,
      "Ġwork": 691,
      "##": 692,
      "Ġsub": 693,
      "irst": 694,
      "Ġsc": 695,
      "|>": 696,
      "get": 697,
      "rib": 698,
      "endof": 699,
      "endoftext": 700,
      "<|": 701,
      "fter": 702,
      "Ġour": 703,
      "ari": 704,
      "ove": 705,
      "fect": 706,
      "Ġover": 707,
      "ays": 708,
      "ause": 709,
      "Ġam": 710,
      "pec": 711,
      "ps": 712,
      "ĊĠĠĠĠĠ": 713,
      "ative": 714,
      "ild": 715,
      "ied": 716,
      "'t": 717,
      "ft": 718,
      "Ġret": 719,
      "ced": 720,
      "))": 721,
      "Ġfe": 722,
      "__": 723,
      "Ġget": 724,
      "Ġkn": 725,
      "ings": 726,
      "ick": 727,
      "Ġunder": 728,
      "Ġdes": 729,
      "ock": 730,
      "iss": 731,
      "Ġoff": 732,
      "Ġrec": 733,
      "Ġmod": 734,
      "Ġpos": 735,
      "Ġacc": 736,
      "Ġpe": 737,
      "ĠY": 738,
      "Ġonly": 739,
      "Ġrel": 740,
      "ater": 741,
      "Ġact": 742,
      "Ġtwo": 743,
      "Ġbec": 744,
      "Ġinto": 745,
      "pon": 746,
      "old": 747,
      "ual": 748,
      "}\\": 749,
      "Ġval": 750,
      "ĠIt": 751,
      "Ġmay": 752,
      "ark": 753,
      "11": 754,
      "ular": 755,
      "ert": 756,
      "Ġ7": 757,
      "Ġro": 758,
      "Ġind": 759,
      "Ġwhat": 760,
      "ĠCh": 761,
      "ov": 762,
      "dition": 763,
      "elf": 764,
      "Ġlike": 765,
      "iew": 766,
      "unction": 767,
      "oint": 768,
      "</": 769,
      "Ġyear": 770,
      "Ġem": 771,
      "ĊĊ": 772,
      "****": 773,
      "Ġtrans": 774,
      "Ġhig": 775,
      "Ġjust": 776,
      "Ġ8": 777,
      "Ġsuch": 778,
      "cess": 779,
      "ments": 780,
      "Ġdiffere": 781,
      "fig": 782,
      "Ġinv": 783,
      "Ġher": 784,
      "pro": 785,
      "ĠWe": 786,
      "Ġcol": 787,
      "ĠThis": 788,
      "erm": 789,
      "(\\": 790,
      "ased": 791,
      "ef": 792,
      "ating": 793,
      "Ġuse": 794,
      "Ġreg": 795,
      "Ġpres": 796,
      "Ġra": 797,
      "ize": 798,
      "ex": 799,
      "Ġthem": 800,
      "St": 801,
      "Ġthese": 802,
      "ption": 803,
      "hed": 804,
      "der": 805,
      "the": 806,
      "stem": 807,
      "Ġfirst": 808,
      "Ġ201": 809,
      "ta": 810,
      "Ġ9": 811,
      "ween": 812,
      "Ġtra": 813,
      "Ġset": 814,
      "ec": 815,
      "ient": 816,
      "itt": 817,
      "\",": 818,
      "ish": 819,
      "Ġwhere": 820,
      "Ġ10": 821,
      "Ġresult": 822,
      "Ġneed": 823,
      "Ġsign": 824,
      "Ġph": 825,
      "ian": 826,
      "ople": 827,
      "ident": 828,
      "ob": 829,
      "Ġpr": 830,
      "ix": 831,
      "olog": 832,
      "Ġconst": 833,
      "Ġdet": 834,
      "oth": 835,
      "Ġco": 836,
      "type": 837,
      "Ġsaid": 838,
      "Ġhow": 839,
      "Ġbetween": 840,
      "ility": 841,
      "Ġpat": 842,
      ")$": 843,
      "Ġafter": 844,
      "Ġprov": 845,
      "ution": 846,
      "ffect": 847,
      "ss": 848,
      "Ċĉĉ": 849,
      "ange": 850,
      "round": 851,
      "Ġ\\[": 852,
      "cy": 853,
      "Ġpol": 854,
      "ram": 855,
      "ble": 856,
      "ont": 857,
      "Ġcould": 858,
      "pos": 859,
      "ise": 860,
      "cal": 861,
      "ĊĠĠĠĠĠĠĠĠĠĠĠĠĠĠĠ": 862,
      "ollow": 863,
      "](": 864,
      "Ġthen": 865,
      "rm": 866,
      "tern": 867,
      "()": 868,
      "ough": 869,
      "ublic": 870,
      "ype": 871,
      "Ġinclud": 872,
      "Ġbl": 873,
      "iel": 874,
      "0000": 875,
      "ible": 876,
      "25": 877,
      "ĠHe": 878,
      "ious": 879,
      "Ġrem": 880,
      "eg": 881,
      "::": 882,
      "){": 883,
      "ool": 884,
      ".,": 885,
      "Ġdata": 886,
      "Ġback": 887,
      "Ġform": 888,
      "_{\\": 889,
      "Ġusing": 890,
      "15": 891,
      "Ġused": 892,
      "ER": 893,
      "Ġsupp": 894,
      "Ġreturn": 895,
      "Ġpeople": 896,
      "Ġdist": 897,
      "Ġfact": 898,
      "ues": 899,
      "right": 900,
      "Ġsim": 901,
      "Ġshe": 902,
      "Ġknow": 903,
      "ics": 904,
      "Ġshow": 905,
      "ons": 906,
      "up": 907,
      "20": 908,
      "li": 909,
      "ren": 910,
      "ities": 911,
      "les": 912,
      "Ġtest": 913,
      "err": 914,
      "its": 915,
      "ax": 916,
      "Ġbecause": 917,
      "Ġfollow": 918,
      "rac": 919,
      "ited": 920,
      "Ġcor": 921,
      "inal": 922,
      "Ġshould": 923,
      "put": 924,
      "ull": 925,
      "ourt": 926,
      "Ġrequ": 927,
      "Ġnum": 928,
      "ever": 929,
      "--------------------------------": 930,
      "ield": 931,
      "},": 932,
      "aw": 933,
      "Ġcell": 934,
      "Ġclass": 935,
      "Ġ[@": 936,
      "Ġspec": 937,
      "ning": 938,
      "ĊĠĠĠĠĠĠĠĠĠĠĠĠĠĠĠĠ": 939,
      "Ġgener": 940,
      "Ġsystem": 941,
      "ank": 942,
      "rough": 943,
      "Ġsee": 944,
      "Ġdid": 945,
      "Ġchar": 946,
      "22": 947,
      "Ġmost": 948,
      "14": 949,
      "Ġfunction": 950,
      "Ġright": 951,
      "Ġi": 952,
      "ĠUn": 953,
      "ures": 954,
      "press": 955,
      "Ġx": 956,
      "Ġsur": 957,
      "ower": 958,
      "set": 959,
      "roup": 960,
      "13": 961,
      "ĠĠĠĠĠ": 962,
      "als": 963,
      "Ġsm": 964,
      "Ġend": 965,
      "Ġatt": 966,
      "oy": 967,
      "000": 968,
      "ger": 969,
      "ade": 970,
      "Ġwell": 971,
      "ful": 972,
      "ined": 973,
      "Ġbu": 974,
      "Ġac": 975,
      "ized": 976,
      "Ġinst": 977,
      "hen": 978,
      "Ġstate": 979,
      "ract": 980,
      "pr": 981,
      "Ġloc": 982,
      "arch": 983,
      "to": 984,
      "Ġdifferent": 985,
      "imes": 986,
      "23": 987,
      "\">": 988,
      "Ġext": 989,
      "ork": 990,
      "Ġprodu": 991,
      "16": 992,
      "',": 993,
      "uring": 994,
      "Ġ/": 995,
      "cond": 996,
      "ruct": 997,
      "ants": 998,
      "ational": 999,
      "ator": 1000,
      "ically": 1001,
      "ĊĊĠĠĠ": 1002,
      "Ġdoes": 1003,
      "ĠĠĠĠĠĠ": 1004,
      "Ġagain": 1005,
      "Ġthrough": 1006,
      "Ġcase": 1007,
      "Th": 1008,
      "Ġeach": 1009,
      "uch": 1010,
      "],": 1011,
      "Ġeffect": 1012,
      "\"}": 1013,
      "riv": 1014,
      "rit": 1015,
      "Ġhigh": 1016,
      "wn": 1017,
      "ON": 1018,
      "ins": 1019,
      "lu": 1020,
      "rol": 1021,
      "Ġeven": 1022,
      "Ġhim": 1023,
      "vent": 1024,
      "18": 1025,
      "mer": 1026,
      "ars": 1027,
      "Ġinte": 1028,
      "Ġ_": 1029,
      "We": 1030,
      "ric": 1031,
      "Ġcur": 1032,
      "oci": 1033,
      "str": 1034,
      "Ġadd": 1035,
      "ew": 1036,
      "frac": 1037,
      "(\"": 1038,
      "bb": 1039,
      "ood": 1040,
      "line": 1041,
      "cri": 1042,
      "Ġpoint": 1043,
      "Ġmake": 1044,
      "Ġvari": 1045,
      "Ġevery": 1046,
      "other": 1047,
      "Ġ.": 1048,
      "nce": 1049,
      "ox": 1050,
      "Ġfind": 1051,
      "ases": 1052,
      "ethod": 1053,
      "cent": 1054,
      "over": 1055,
      "che": 1056,
      "igned": 1057,
      "par": 1058,
      "Ġsame": 1059,
      "17": 1060,
      "Ġincre": 1061,
      "Ġanal": 1062,
      "Ġent": 1063,
      "24": 1064,
      "->": 1065,
      "IN": 1066,
      "Ġway": 1067,
      "Ġap": 1068,
      "Ġwant": 1069,
      "Ġlook": 1070,
      "ug": 1071,
      "upp": 1072,
      "AT": 1073,
      "ĠĠĠĠĠĠĠĠĠĠĠĠĠĠĠĠĠĠĠĠĠĠĠĠĠĠĠĠĠĠĠĠĠĠĠĠĠĠĠĠĠĠĠĠĠĠĠĠĠĠĠĠĠĠĠĠĠĠĠĠĠĠĠĠ": 1074,
      "](#": 1075,
      ",\\": 1076,
      "ily": 1077,
      "und": 1078,
      "uth": 1079,
      "Ġboth": 1080,
      "velop": 1081,
      "Ġcall": 1082,
      "ines": 1083,
      "let": 1084,
      "Ġthose": 1085,
      "$\\": 1086,
      "Ġhere": 1087,
      "Ġ//": 1088,
      "ctions": 1089,
      "oid": 1090,
      "ife": 1091,
      "rent": 1092,
      "atic": 1093,
      "ense": 1094,
      "ward": 1095,
      "sp": 1096,
      "Ġke": 1097,
      "ute": 1098,
      "ample": 1099,
      "Ġ@": 1100,
      "Ġvery": 1101,
      "Ċĉ": 1102,
      "]\\]": 1103,
      "Ġ200": 1104,
      "?\"": 1105,
      "Ġnow": 1106,
      "Ġmin": 1107,
      "rest": 1108,
      "Ġfil": 1109,
      "Ġbeing": 1110,
      "io": 1111,
      "Ġmat": 1112,
      "tr": 1113,
      "]{": 1114,
      "...": 1115,
      "yp": 1116,
      "201": 1117,
      "Ġdon": 1118,
      "ĠâĢĵ": 1119,
      "ients": 1120,
      "Ġstudy": 1121,
      "Ġappro": 1122,
      "Ġpartic": 1123,
      "ason": 1124,
      "Ġbel": 1125,
      "read": 1126,
      "day": 1127,
      "ince": 1128,
      "Ġtri": 1129,
      "Ġmon": 1130,
      "app": 1131,
      "AR": 1132,
      "ray": 1133,
      "Ġfound": 1134,
      "Ġplay": 1135,
      "ting": 1136,
      "}(": 1137,
      "ature": 1138,
      "Ġcount": 1139,
      "Ġexper": 1140,
      "ĠSe": 1141,
      "ism": 1142,
      "Ġpar": 1143,
      "ices": 1144,
      "Ġel": 1145,
      "val": 1146,
      "fore": 1147,
      "view": 1148,
      "Ġyears": 1149,
      "formation": 1150,
      "ified": 1151,
      "Ġmem": 1152,
      "Ġpers": 1153,
      "alth": 1154,
      "Ġser": 1155,
      "gg": 1156,
      "irect": 1157,
      "NA": 1158,
      "ĠLet": 1159,
      "ES": 1160,
      "Ġmany": 1161,
      "air": 1162,
      "Ġlong": 1163,
      "Ġdec": 1164,
      "ateg": 1165,
      "Ġhel": 1166,
      ".<|": 1167,
      "Ġvalue": 1168,
      "ek": 1169,
      "cept": 1170,
      "ng": 1171,
      "Ġlevel": 1172,
      "}{": 1173,
      "Ġrespon": 1174,
      "Ġthink": 1175,
      "Ġmed": 1176,
      "tain": 1177,
      "ared": 1178,
      "mathcal": 1179,
      "uc": 1180,
      "32": 1181,
      "Ġorder": 1182,
      "ĠFor": 1183,
      "Ġgiv": 1184,
      "led": 1185,
      "ages": 1186,
      "Ġstr": 1187,
      "ization": 1188,
      "What": 1189,
      "Ġwhile": 1190,
      "(-": 1191,
      "Ġreport": 1192,
      "$.": 1193,
      "Ġnumber": 1194,
      "Ġdi": 1195,
      "ave": 1196,
      "Ġgu": 1197,
      "30": 1198,
      "ĠAs": 1199,
      "Ġpublic": 1200,
      "Ġins": 1201,
      "50": 1202,
      "Ġche": 1203,
      "Ġmodel": 1204,
      "$,": 1205,
      "cul": 1206,
      "ner": 1207,
      "Ġ:": 1208,
      "ĠRe": 1209,
      "Ġbefore": 1210,
      "Ġz": 1211,
      "ively": 1212,
      "lement": 1213,
      "Ġop": 1214,
      "Ġ\\[[@": 1215,
      "Ġequ": 1216,
      "min": 1217,
      "Ġdisc": 1218,
      "ify": 1219,
      "ided": 1220,
      "aking": 1221,
      "ĠCom": 1222,
      "Ġrep": 1223,
      "Ġprocess": 1224,
      "Ġdevelop": 1225,
      "Ġref": 1226,
      "Ġread": 1227,
      "ash": 1228,
      "ven": 1229,
      "ody": 1230,
      "ired": 1231,
      "Ġcar": 1232,
      "Ġlar": 1233,
      "Ġsecond": 1234,
      "Ġmuch": 1235,
      "Ġgood": 1236,
      ".âĢĿ": 1237,
      "Ġpresent": 1238,
      "Ġinf": 1239,
      "Ġcommun": 1240,
      "mon": 1241,
      "://": 1242,
      "Ġposs": 1243,
      "hip": 1244,
      "Ġdown": 1245,
      "Ġown": 1246,
      "ole": 1247,
      "Ġ16": 1248,
      "eng": 1249,
      "man": 1250,
      "Ġmade": 1251,
      "ness": 1252,
      "Ġcourt": 1253,
      "abel": 1254,
      "ality": 1255,
      "rt": 1256,
      "();": 1257,
      "left": 1258,
      "ved": 1259,
      "Ex": 1260,
      "yl": 1261,
      "Ġthree": 1262,
      "ially": 1263,
      "ns": 1264,
      "ists": 1265,
      "Ġstart": 1266,
      "pha": 1267,
      "EN": 1268,
      "ually": 1269,
      "ency": 1270,
      "ision": 1271,
      "Ġant": 1272,
      "ource": 1273,
      "way": 1274,
      "Ġprote": 1275,
      "ah": 1276,
      "Ġprog": 1277,
      "amb": 1278,
      "ffic": 1279,
      "Ġ,": 1280,
      "bf": 1281,
      "\\[": 1282,
      "Ġ20": 1283,
      "Ġline": 1284,
      "Ġsupport": 1285,
      "^{\\": 1286,
      "Ġserv": 1287,
      "Ġcre": 1288,
      "Ġ*/": 1289,
      "Ġhelp": 1290,
      "chool": 1291,
      "uss": 1292,
      "Re": 1293,
      "Ġmethod": 1294,
      "erg": 1295,
      "Ġgroup": 1296,
      "********": 1297,
      "Ġnon": 1298,
      "ĠIf": 1299,
      "tem": 1300,
      "co": 1301,
      "Ġimport": 1302,
      "Ġsmall": 1303,
      "}^{": 1304,
      "cer": 1305,
      "âĢī": 1306,
      "name": 1307,
      "ider": 1308,
      "ĠPro": 1309,
      "eta": 1310,
      "Ġduring": 1311,
      "Ġhand": 1312,
      "ght": 1313,
      "Ġgreat": 1314,
      "arly": 1315,
      "med": 1316,
      "33": 1317,
      "Let": 1318,
      "not": 1319,
      "IT": 1320,
      "Ġproble": 1321,
      "ton": 1322,
      "ĠAl": 1323,
      "me": 1324,
      "Ġlast": 1325,
      "CR": 1326,
      "ule": 1327,
      "mathrm": 1328,
      "be": 1329,
      "Ġsignific": 1330,
      "It": 1331,
      "itive": 1332,
      "ather": 1333,
      "plic": 1334,
      "idence": 1335,
      "Ġgra": 1336,
      "Ġsol": 1337,
      "ional": 1338,
      "ĠHow": 1339,
      "Ġ#": 1340,
      "Ġ12": 1341,
      "Con": 1342,
      "ale": 1343,
      "Ġest": 1344,
      "Ġwithout": 1345,
      "Ġlet": 1346,
      "####": 1347,
      "Ġpatients": 1348,
      "ots": 1349,
      "ane": 1350,
      "Ġed": 1351,
      "ID": 1352,
      "Ġconf": 1353,
      "gan": 1354,
      "ters": 1355,
      "40": 1356,
      "ĠAnd": 1357,
      ")\\": 1358,
      "Ġarg": 1359,
      "acter": 1360,
      "Ġdep": 1361,
      "Ġident": 1362,
      "Ġoper": 1363,
      "chn": 1364,
      "Ġcou": 1365,
      "tp": 1366,
      "Ġactiv": 1367,
      "ral": 1368,
      "Ġcontrol": 1369,
      "ames": 1370,
      "Ġname": 1371,
      "alpha": 1372,
      "ross": 1373,
      "Ġexpress": 1374,
      "ĠAn": 1375,
      "================": 1376,
      "Fig": 1377,
      "Ġ18": 1378,
      "Ġchild": 1379,
      "Ġappe": 1380,
      "---": 1381,
      "serv": 1382,
      "Ġtreat": 1383,
      "OR": 1384,
      "alk": 1385,
      "ysis": 1386,
      "Ġet": 1387,
      "Ġiss": 1388,
      "land": 1389,
      "less": 1390,
      "hes": 1391,
      ",\"": 1392,
      "Ġtake": 1393,
      "ĊĠĠ": 1394,
      "amp": 1395,
      "Ġagainst": 1396,
      "Ġperform": 1397,
      "Ġrun": 1398,
      "bl": 1399,
      "ron": 1400,
      "error": 1401,
      "ument": 1402,
      "ret": 1403,
      "sh": 1404,
      "irc": 1405,
      "Ġpost": 1406,
      "CT": 1407,
      "Ġsay": 1408,
      "Ġresults": 1409,
      "Ġsignificant": 1410,
      "Ġcle": 1411,
      "Ġinformation": 1412,
      "amma": 1413,
      "ability": 1414,
      "60": 1415,
      "99": 1416,
      "ga": 1417,
      "Ġlead": 1418,
      "ault": 1419,
      "ination": 1420,
      "Ġav": 1421,
      "any": 1422,
      "da": 1423,
      "Ġ15": 1424,
      "Ġproper": 1425,
      "Ġ|": 1426,
      "Ġmust": 1427,
      "Ġfollowing": 1428,
      "].": 1429,
      "ving": 1430,
      "Ġcondition": 1431,
      "ission": 1432,
      "aim": 1433,
      "ulation": 1434,
      "ĠZ": 1435,
      "Ġself": 1436,
      "('": 1437,
      "Ġcells": 1438,
      "ĠTr": 1439,
      "SE": 1440,
      "work": 1441,
      "}_{": 1442,
      "This": 1443,
      "atch": 1444,
      "Ġfin": 1445,
      "ration": 1446,
      "ets": 1447,
      "dd": 1448,
      "Ġworld": 1449,
      "Ġ**": 1450,
      "gen": 1451,
      "200": 1452,
      "Ġpower": 1453,
      "Ġredu": 1454,
      "angle": 1455,
      "Ġstill": 1456,
      "urther": 1457,
      "28": 1458,
      "ior": 1459,
      "ital": 1460,
      "ouse": 1461,
      "Ġcent": 1462,
      "opy": 1463,
      "Ġallow": 1464,
      "ST": 1465,
      "ho": 1466,
      "ten": 1467,
      "ĠÂ": 1468,
      "ym": 1469,
      "Ġmark": 1470,
      "Ġwithin": 1471,
      "ww": 1472,
      "vious": 1473,
      "Ġtype": 1474,
      "Ġfl": 1475,
      "66": 1476,
      "ĠX": 1477,
      "Ġsom": 1478,
      "Ġquest": 1479,
      "ĠQ": 1480,
      "cur": 1481,
      "Ġstand": 1482,
      "def": 1483,
      ")/": 1484,
      "35": 1485,
      "Ġmain": 1486,
      "ĠBut": 1487,
      "ology": 1488,
      "21": 1489,
      "ts": 1490,
      "Ġdirect": 1491,
      "Ġpur": 1492,
      "Ġcontin": 1493,
      "Ġmeas": 1494,
      "Ġcurrent": 1495,
      "Ġpath": 1496,
      "Ġlim": 1497,
      "Ġinterest": 1498,
      "eral": 1499,
      "Ġperson": 1500,
      "ential": 1501,
      "agn": 1502,
      "34": 1503,
      "ann": 1504,
      "ĠDe": 1505,
      "aj": 1506,
      "ention": 1507,
      "crib": 1508,
      "ural": 1509,
      "70": 1510,
      "Ġfam": 1511,
      "Ġmult": 1512,
      "Ġexpl": 1513,
      "LE": 1514,
      "ately": 1515,
      "AN": 1516,
      "'m": 1517,
      "for": 1518,
      "ience": 1519,
      "He": 1520,
      ",âĢĿ": 1521,
      "ĠNew": 1522,
      "Pro": 1523,
      "Ġcare": 1524,
      "Ġgover": 1525,
      "ording": 1526,
      "âĢľ": 1527,
      "]{}": 1528,
      "____": 1529,
      "anc": 1530,
      "ivers": 1531,
      "Ġ14": 1532,
      "Ġlocal": 1533,
      "Ġca": 1534,
      "Ġfile": 1535,
      "Ġday": 1536,
      "meric": 1537,
      "Ġlife": 1538,
      "omega": 1539,
      "Ġdeterm": 1540,
      "ives": 1541,
      "ides": 1542,
      "):": 1543,
      "ĠYou": 1544,
      "80": 1545,
      "Ġ$$\\": 1546,
      "aterial": 1547,
      "Ġwr": 1548,
      "Ġaddition": 1549,
      "âĢĵ": 1550,
      "ote": 1551,
      "resent": 1552,
      "ither": 1553,
      "Ġhum": 1554,
      "Ġgoing": 1555,
      "Ġhealth": 1556,
      "eter": 1557,
      "Ġlo": 1558,
      "ently": 1559,
      "Ġsince": 1560,
      "Ġfield": 1561,
      "Ġweek": 1562,
      "Ġlaw": 1563,
      "ĠWh": 1564,
      "elta": 1565,
      "ves": 1566,
      "igma": 1567,
      "ished": 1568,
      "Ġinc": 1569,
      "~~": 1570,
      "Ġgiven": 1571,
      "ambda": 1572,
      "Ġopen": 1573,
      "Ġanother": 1574,
      "mathbb": 1575,
      "ser": 1576,
      "Ġpass": 1577,
      "ploy": 1578,
      "64": 1579,
      "=\\": 1580,
      "version": 1581,
      "Ġtry": 1582,
      "Ġinvest": 1583,
      "reg": 1584,
      "part": 1585,
      "akes": 1586,
      "oh": 1587,
      "Ġelect": 1588,
      "Ch": 1589,
      "rel": 1590,
      "Ġaround": 1591,
      "Ġrespect": 1592,
      "Ġcontain": 1593,
      "Ġschool": 1594,
      "29": 1595,
      "bers": 1596,
      "duct": 1597,
      "ĠĠĠĠĠĠĠĠĠĠĠĠĠĠĠĠĠĠĠĠĠĠĠĠ": 1598,
      "cript": 1599,
      "Ġbas": 1600,
      "ier": 1601,
      "rid": 1602,
      "ium": 1603,
      "75": 1604,
      "oot": 1605,
      "Ġexample": 1606,
      "Ġassoci": 1607,
      "ĊĊĠ": 1608,
      "ĠHowever": 1609,
      "AL": 1610,
      "ways": 1611,
      "aligned": 1612,
      "Ġcap": 1613,
      "Ġreal": 1614,
      "You": 1615,
      "Ġstat": 1616,
      "Ġgovern": 1617,
      "Ġincluding": 1618,
      "yn": 1619,
      "Ġtoo": 1620,
      "ds": 1621,
      "]\\].": 1622,
      "face": 1623,
      "ples": 1624,
      "ured": 1625,
      "Ġopt": 1626,
      "Ġrece": 1627,
      "ived": 1628,
      "Ġ199": 1629,
      "ml": 1630,
      "05": 1631,
      "inf": 1632,
      "Ġmet": 1633,
      "ĠThey": 1634,
      "ertain": 1635,
      "Ġdev": 1636,
      "Ġdiv": 1637,
      "ĠIs": 1638,
      "27": 1639,
      "Ġless": 1640,
      "ribut": 1641,
      "Ġobserv": 1642,
      "igh": 1643,
      "Ġclaim": 1644,
      "omen": 1645,
      "yt": 1646,
      "Ġreally": 1647,
      "ety": 1648,
      "mm": 1649,
      "ategory": 1650,
      "Ġfail": 1651,
      "\":": 1652,
      "Ġapplic": 1653,
      "Ġtechn": 1654,
      "39": 1655,
      "alcul": 1656,
      "self": 1657,
      "Ġmean": 1658,
      "Ġsing": 1659,
      "Ġanalysis": 1660,
      "Ġfour": 1661,
      "Ġimportant": 1662,
      "roll": 1663,
      "ggest": 1664,
      "Ġsuggest": 1665,
      "Ġhome": 1666,
      "ged": 1667,
      "sc": 1668,
      "Ġprogram": 1669,
      "ably": 1670,
      "];": 1671,
      "ining": 1672,
      "Ġcr": 1673,
      "38": 1674,
      "Ġocc": 1675,
      "Ġtop": 1676,
      "Name": 1677,
      "ask": 1678,
      "Ġhapp": 1679,
      "Ġstruct": 1680,
      "Ġlow": 1681,
      "Ġchang": 1682,
      "arent": 1683,
      "ams": 1684,
      "ĠAmeric": 1685,
      "Ġpop": 1686,
      "Ġbre": 1687,
      "lex": 1688,
      "37": 1689,
      "iqu": 1690,
      "$$": 1691,
      "String": 1692,
      "Ġmight": 1693,
      "iness": 1694,
      "raph": 1695,
      "vert": 1696,
      "label": 1697,
      "requ": 1698,
      "Ġbased": 1699,
      "ĠSh": 1700,
      "Ġindic": 1701,
      "Ġevidence": 1702,
      "'re": 1703,
      "stand": 1704,
      "search": 1705,
      "oss": 1706,
      "Ġbeh": 1707,
      "arn": 1708,
      "Ġadv": 1709,
      ")*": 1710,
      "ĠInd": 1711,
      "lease": 1712,
      "ething": 1713,
      "Ġremain": 1714,
      "ĠCon": 1715,
      "ware": 1716,
      "sec": 1717,
      "Ġart": 1718,
      "rop": 1719,
      "00000000": 1720,
      "here": 1721,
      "Ġchange": 1722,
      "Ġvis": 1723,
      "Ġbi": 1724,
      "sw": 1725,
      "Ġobtain": 1726,
      "Ġlist": 1727,
      "Ġgrow": 1728,
      "Ġhead": 1729,
      "Ġve": 1730,
      "65": 1731,
      "[\\": 1732,
      "ilde": 1733,
      "epend": 1734,
      "AS": 1735,
      "Ġfew": 1736,
      "ought": 1737,
      "Ġ--": 1738,
      "Ġprof": 1739,
      "Ġ17": 1740,
      "ery": 1741,
      "ength": 1742,
      "sum": 1743,
      "ised": 1744,
      "ird": 1745,
      "inc": 1746,
      "Ġplace": 1747,
      "':": 1748,
      "Ġbo": 1749,
      "ury": 1750,
      "egin": 1751,
      "Ġfr": 1752,
      "phi": 1753,
      "45": 1754,
      "Ġleft": 1755,
      "ference": 1756,
      "ding": 1757,
      "Ġdel": 1758,
      "Ġgot": 1759,
      "Ġseem": 1760,
      "ĠNo": 1761,
      "Ġ{#": 1762,
      "mod": 1763,
      "ittle": 1764,
      "Ġbus": 1765,
      "Ġpot": 1766,
      "ump": 1767,
      "Ġmonth": 1768,
      "Ġobject": 1769,
      "ik": 1770,
      "Ġbest": 1771,
      "Ġproduct": 1772,
      "To": 1773,
      "ĠWhat": 1774,
      "Ġ11": 1775,
      "ĠThere": 1776,
      "Ġtreatment": 1777,
      "{{\\": 1778,
      "Ġ==": 1779,
      "olum": 1780,
      "alse": 1781,
      "rap": 1782,
      "wid": 1783,
      "iff": 1784,
      "conom": 1785,
      "Ġparticular": 1786,
      "oft": 1787,
      "Ġput": 1788,
      "icro": 1789,
      "Ġbetter": 1790,
      "Ġproblem": 1791,
      "arm": 1792,
      "Ġter": 1793,
      "action": 1794,
      "arget": 1795,
      "Ġspe": 1796,
      "ends": 1797,
      "../": 1798,
      "opt": 1799,
      "Ġ)": 1800,
      "ED": 1801,
      "az": 1802,
      "âĢĶ": 1803,
      "Ġgr": 1804,
      "isk": 1805,
      "time": 1806,
      "Ġcommon": 1807,
      "att": 1808,
      "aint": 1809,
      "ĠCl": 1810,
      "Ġlarge": 1811,
      "mun": 1812,
      "ivid": 1813,
      "IS": 1814,
      "ern": 1815,
      "abl": 1816,
      "lection": 1817,
      "âĪ": 1818,
      "Ġauth": 1819,
      "ilon": 1820,
      "85": 1821,
      "Ġprob": 1822,
      "sq": 1823,
      "Ġsl": 1824,
      "Ġthings": 1825,
      "arg": 1826,
      "Ġwhether": 1827,
      "Ġask": 1828,
      "ene": 1829,
      "Ġconne": 1830,
      "var": 1831,
      "Ġbig": 1832,
      "Ġabove": 1833,
      "ilar": 1834,
      "Ġeas": 1835,
      "Ġtyp": 1836,
      "Ġlight": 1837,
      "begin": 1838,
      "enc": 1839,
      "Ġrepresent": 1840,
      "Ġsomething": 1841,
      "ĠEx": 1842,
      "Ġpossible": 1843,
      "Ġimp": 1844,
      "pi": 1845,
      "Ġopp": 1846,
      "Ġ</": 1847,
      "ext": 1848,
      "Ġdescrib": 1849,
      "Ġfree": 1850,
      "Ġsize": 1851,
      "}+": 1852,
      "ĠPh": 1853,
      "thing": 1854,
      "Ġelse": 1855,
      "36": 1856,
      "ift": 1857,
      "Ġsit": 1858,
      "ification": 1859,
      "ended": 1860,
      "ries": 1861,
      "Ġbelie": 1862,
      "IC": 1863,
      "Ġcode": 1864,
      "els": 1865,
      "used": 1866,
      "Ġinvol": 1867,
      "Type": 1868,
      "ond": 1869,
      "ending": 1870,
      "Ġavail": 1871,
      "ĠUnited": 1872,
      "26": 1873,
      "div": 1874,
      "iron": 1875,
      "eps": 1876,
      "ĊĠĠĠĠĠĠĠĠĠ": 1877,
      "As": 1878,
      "Ġview": 1879,
      "Ċĉĉĉ": 1880,
      "55": 1881,
      "ocial": 1882,
      "ĠLe": 1883,
      "Ġcharacter": 1884,
      "aps": 1885,
      "Ġstudies": 1886,
      "Ġimpro": 1887,
      "ormal": 1888,
      "arrow": 1889,
      "by": 1890,
      "iod": 1891,
      "Ġtot": 1892,
      "Com": 1893,
      "hib": 1894,
      "Ġ30": 1895,
      "data": 1896,
      "Ġleg": 1897,
      "Ġposition": 1898,
      "endant": 1899,
      "Ġhy": 1900,
      "ream": 1901,
      "Ġbuild": 1902,
      "Data": 1903,
      "ott": 1904,
      "ession": 1905,
      "clus": 1906,
      "ĠâĢĶ": 1907,
      "ĊĊĠĠĠĠĠĠĠ": 1908,
      "}$$": 1909,
      "Ġconsider": 1910,
      "})": 1911,
      "Ġsk": 1912,
      "uck": 1913,
      "Ġdue": 1914,
      "refore": 1915,
      "Cl": 1916,
      "Ġpa": 1917,
      "por": 1918,
      "Ġleast": 1919,
      "Ġnext": 1920,
      "Res": 1921,
      "aring": 1922,
      "http": 1923,
      "Ġmov": 1924,
      "Ġide": 1925,
      "ception": 1926,
      "Ġreason": 1927,
      "89": 1928,
      "84": 1929,
      "osed": 1930,
      "sub": 1931,
      "ological": 1932,
      "cription": 1933,
      "ajor": 1934,
      "Ġtem": 1935,
      "sigma": 1936,
      "Ġturn": 1937,
      "ground": 1938,
      "Ġaut": 1939,
      "Ġlittle": 1940,
      "nal": 1941,
      "Ġden": 1942,
      "ĠTo": 1943,
      "Ġhist": 1944,
      "ush": 1945,
      "back": 1946,
      "ccess": 1947,
      "ĠAt": 1948,
      "Ġerror": 1949,
      "Ġinit": 1950,
      "Ġpriv": 1951,
      "Ġexpect": 1952,
      "Ġdiff": 1953,
      "clude": 1954,
      "Id": 1955,
      "Ġshown": 1956,
      "ividual": 1957,
      "Ġchildren": 1958,
      "For": 1959,
      "rist": 1960,
      "Ġrecord": 1961,
      "Ġgive": 1962,
      "ĠSo": 1963,
      "msg": 1964,
      "And": 1965,
      "Ġwater": 1966,
      "Ġalways": 1967,
      "essage": 1968,
      "Ġhuman": 1969,
      "^{-": 1970,
      "67": 1971,
      "Ġnever": 1972,
      "Ġprevious": 1973,
      "Ġtrial": 1974,
      "AC": 1975,
      "RO": 1976,
      "Ġmot": 1977,
      "Ġprom": 1978,
      "rict": 1979,
      "roups": 1980,
      "Ġgeneral": 1981,
      "Ġdra": 1982,
      "Ġrest": 1983,
      "mb": 1984,
      "Ġcome": 1985,
      "ĠGod": 1986,
      "Ġbro": 1987,
      "Ġgovernment": 1988,
      "04": 1989,
      "31": 1990,
      "ators": 1991,
      "ĠState": 1992,
      "Ġold": 1993,
      "respon": 1994,
      "Ġtrue": 1995,
      "uro": 1996,
      "Ġeither": 1997,
      "iol": 1998,
      "amples": 1999,
      "ĠAll": 2000,
      "oney": 2001,
      "atory": 2002,
      "List": 2003,
      "Ġpay": 2004,
      "br": 2005,
      "Ġpub": 2006,
      "ĠStates": 2007,
      "Ġparam": 2008,
      "bs": 2009,
      "AP": 2010,
      "Ġsuper": 2011,
      "Ġexp": 2012,
      "etic": 2013,
      "Ġcost": 2014,
      "ats": 2015,
      "RE": 2016,
      "ĊĠĠĠĠĠĠĠĠĠĠĠĠĠĠĠĠĠĠĠ": 2017,
      "load": 2018,
      "^\\": 2019,
      "orn": 2020,
      "Ġquestion": 2021,
      "Ġhigher": 2022,
      "Ġcheck": 2023,
      "ctor": 2024,
      "add": 2025,
      "ĠThese": 2026,
      "Ġterms": 2027,
      "If": 2028,
      "ĠĠĠĠĠĠĠĠĠĠĠ": 2029,
      "\")": 2030,
      "Ġsequ": 2031,
      "Ġavailable": 2032,
      "ances": 2033,
      "Ġfurther": 2034,
      "LL": 2035,
      "Ġassum": 2036,
      "Ġspecific": 2037,
      "lob": 2038,
      "Ġreview": 2039,
      "lambda": 2040,
      "test": 2041,
      "Category": 2042,
      "Ġable": 2043,
      "Ġgame": 2044,
      "95": 2045,
      "Ġsever": 2046,
      "mu": 2047,
      "Ġprovide": 2048,
      "Ġorig": 2049,
      "lim": 2050,
      "Ġes": 2051,
      "100": 2052,
      "Ġoffic": 2053,
      "bu": 2054,
      "ergy": 2055,
      "Ġorgan": 2056,
      "Ġtext": 2057,
      "Ġdom": 2058,
      "ava": 2059,
      "Ġsimilar": 2060,
      "Ġ25": 2061,
      "fficient": 2062,
      "Ġvalues": 2063,
      "Ġhaving": 2064,
      "Ġindividual": 2065,
      "new": 2066,
      "Ġperiod": 2067,
      "ental": 2068,
      "org": 2069,
      "Ġrad": 2070,
      "Ġlog": 2071,
      "Ġcho": 2072,
      "Ġmove": 2073,
      "illion": 2074,
      "Ġlik": 2075,
      "ĠOn": 2076,
      "Ġcases": 2077,
      "ION": 2078,
      "_\\": 2079,
      "ĠUS": 2080,
      "Ġemploy": 2081,
      "Ġder": 2082,
      "verse": 2083,
      "Ġcomb": 2084,
      "Ġdays": 2085,
      "osp": 2086,
      "Ġquant": 2087,
      "Ġcommunity": 2088,
      "play": 2089,
      "Ġsingle": 2090,
      "ead": 2091,
      "ĠSp": 2092,
      "čĊ": 2093,
      "Ġhard": 2094,
      "!\"": 2095,
      "Ġmajor": 2096,
      "uppose": 2097,
      "itted": 2098,
      "cont": 2099,
      "Wh": 2100,
      "ĠApp": 2101,
      "though": 2102,
      "ources": 2103,
      "ope": 2104,
      "Ġsum": 2105,
      "Ġunt": 2106,
      "Ġ${\\": 2107,
      "Ġvoid": 2108,
      "Ġknown": 2109,
      "07": 2110,
      "Ġstrong": 2111,
      "Ġ24": 2112,
      "Ġprim": 2113,
      "Ġsw": 2114,
      "Ġspace": 2115,
      "But": 2116,
      "Ġteam": 2117,
      "Ġlevels": 2118,
      "Ġexpression": 2119,
      "this": 2120,
      "class": 2121,
      "AD": 2122,
      "iple": 2123,
      "Ġrisk": 2124,
      "iversity": 2125,
      "icle": 2126,
      "import": 2127,
      "Ġwhy": 2128,
      "Ġ>": 2129,
      "Ġcour": 2130,
      "cd": 2131,
      "son": 2132,
      "Ġside": 2133,
      "nces": 2134,
      "ĠPl": 2135,
      "Ġstandard": 2136,
      "ĠAd": 2137,
      "Ġarea": 2138,
      "Ġbase": 2139,
      "Ġcalled": 2140,
      "Ġ!": 2141,
      "place": 2142,
      "Ġunderstand": 2143,
      "ina": 2144,
      "Ġ13": 2145,
      "Ġabs": 2146,
      "Ġtotal": 2147,
      "ready": 2148,
      "lev": 2149,
      "Ġmeans": 2150,
      "87": 2151,
      "++": 2152,
      "Ġtimes": 2153,
      "Ġplan": 2154,
      "Ġben": 2155,
      "ibility": 2156,
      "Ġfamily": 2157,
      "Ġaccess": 2158,
      "Ġfull": 2159,
      "Ġterm": 2160,
      "urs": 2161,
      "Ġkeep": 2162,
      "Ġč": 2163,
      "Ġfeel": 2164,
      "âĪĴ": 2165,
      "yle": 2166,
      "Ġreported": 2167,
      "Ġassociated": 2168,
      "Ġwar": 2169,
      "ĠCourt": 2170,
      "off": 2171,
      "ĠRes": 2172,
      "ued": 2173,
      "Ġproject": 2174,
      "Ġdise": 2175,
      "ering": 2176,
      "Ġhold": 2177,
      "Ġshort": 2178,
      "06": 2179,
      "Ċĉĉĉĉ": 2180,
      "Ġ$(": 2181,
      "af": 2182,
      "Ġphys": 2183,
      "ences": 2184,
      "Ġwon": 2185,
      "asing": 2186,
      "Ġresponse": 2187,
      "08": 2188,
      "Ġjud": 2189,
      "sqrt": 2190,
      "Tr": 2191,
      "Se": 2192,
      "Ġeconom": 2193,
      "ror": 2194,
      "Ġwomen": 2195,
      "ĠShe": 2196,
      "Ġdiscuss": 2197,
      "Ġthough": 2198,
      "lected": 2199,
      "partial": 2200,
      "viron": 2201,
      "iction": 2202,
      "mission": 2203,
      "itle": 2204,
      "Ġenergy": 2205,
      "Ġtarget": 2206,
      "Ġamong": 2207,
      "Ġseveral": 2208,
      "Ġ/*": 2209,
      "Ġ`": 2210,
      "use": 2211,
      "Ġneg": 2212,
      "Ġcrit": 2213,
      "Ġhowever": 2214,
      "date": 2215,
      "iving": 2216,
      "gamma": 2217,
      "Ġexist": 2218,
      "Ġpositive": 2219,
      "table": 2220,
      "Ġtre": 2221,
      "gin": 2222,
      "Ġcomput": 2223,
      "Ġaction": 2224,
      "Ġbusiness": 2225,
      "47": 2226,
      "96": 2227,
      "rad": 2228,
      "Ġrate": 2229,
      "beta": 2230,
      "indow": 2231,
      "mit": 2232,
      "Ġfinal": 2233,
      "ising": 2234,
      "Ġlot": 2235,
      "mathbf": 2236,
      "go": 2237,
      "cle": 2238,
      "Ġdesign": 2239,
      "Ġflu": 2240,
      "ler": 2241,
      "Ġspect": 2242,
      "oun": 2243,
      "Ġfac": 2244,
      "Ġpolit": 2245,
      "ape": 2246,
      "Ġsure": 2247,
      "ension": 2248,
      "side": 2249,
      "Ġ{\\": 2250,
      "Ġ([": 2251,
      "iting": 2252,
      "Ġcertain": 2253,
      "aster": 2254,
      "ĠÐ": 2255,
      "'ve": 2256,
      "Ġgroups": 2257,
      "ney": 2258,
      "ograph": 2259,
      "Ġ100": 2260,
      "Ġrelations": 2261,
      "rodu": 2262,
      "Ġstring": 2263,
      "aken": 2264,
      "ĠThat": 2265,
      "Ġissue": 2266,
      "88": 2267,
      "pone": 2268,
      "ĠNid": 2269,
      "arthe": 2270,
      "oper": 2271,
      "Ġinvestig": 2272,
      "Ġgl": 2273,
      "Ġcirc": 2274,
      "alf": 2275,
      "Ġpract": 2276,
      "Ġoften": 2277,
      "position": 2278,
      "Ġfactors": 2279,
      "Ġalready": 2280,
      "bar": 2281,
      "\");": 2282,
      "Ġfund": 2283,
      "sequ": 2284,
      "Ġeng": 2285,
      "Ġalong": 2286,
      "ocument": 2287,
      "ĠSc": 2288,
      "ĠAr": 2289,
      "ĠĠĠĠĠĠĠĠĠ": 2290,
      "itor": 2291,
      "09": 2292,
      "Ġconditions": 2293,
      "Ġlater": 2294,
      "Ġkind": 2295,
      "ĠWhen": 2296,
      "imal": 2297,
      "oll": 2298,
      "Ġexperim": 2299,
      "Ġbody": 2300,
      "atures": 2301,
      "Ġfar": 2302,
      "etwork": 2303,
      "II": 2304,
      "varthe": 2305,
      "verage": 2306,
      "----------------------------------------------------------------": 2307,
      "vartheta": 2308,
      "olution": 2309,
      "Ġdem": 2310,
      "Ġrequired": 2311,
      "Ã©": 2312,
      "Ġpress": 2313,
      "ibr": 2314,
      "Ġresearch": 2315,
      "ges": 2316,
      "Ġann": 2317,
      "ored": 2318,
      "Ġmaterial": 2319,
      "Ġpercent": 2320,
      "ET": 2321,
      "Ġage": 2322,
      "Ġbr": 2323,
      "ey": 2324,
      "ĊĠĠĠĠĠĠ": 2325,
      "An": 2326,
      "key": 2327,
      "posed": 2328,
      "ison": 2329,
      "Ġcountry": 2330,
      "Ġ([@": 2331,
      "chan": 2332,
      "Ġfore": 2333,
      "lete": 2334,
      "ĠĠĠĠĠĠĠĠĠĠ": 2335,
      "Ġlower": 2336,
      "Ġimage": 2337,
      "ache": 2338,
      "97": 2339,
      "outh": 2340,
      "Ġrequire": 2341,
      "]).": 2342,
      "Ġthing": 2343,
      "umber": 2344,
      "****************": 2345,
      "GL": 2346,
      "ribution": 2347,
      "MP": 2348,
      "Ġcannot": 2349,
      "Ġcompon": 2350,
      "Ġsubject": 2351,
      "acy": 2352,
      "delta": 2353,
      "Ġdone": 2354,
      "Ġmen": 2355,
      "Ġpred": 2356,
      "rug": 2357,
      "Ġsocial": 2358,
      "atus": 2359,
      "68": 2360,
      "idd": 2361,
      "Ġamount": 2362,
      "UT": 2363,
      "ands": 2364,
      "Ġsays": 2365,
      "Ġkey": 2366,
      "Ġinj": 2367,
      "-\\": 2368,
      "pm": 2369,
      "Ġstudents": 2370,
      "42": 2371,
      "Ġuntil": 2372,
      "_{[\\": 2373,
      "Ġdevelopment": 2374,
      "IP": 2375,
      "Ġaff": 2376,
      "rem": 2377,
      "Ġcompared": 2378,
      "Ġeffects": 2379,
      "Ġtell": 2380,
      "lood": 2381,
      "gr": 2382,
      "Ġaway": 2383,
      "Ġsource": 2384,
      "Ġmax": 2385,
      "Ġprovided": 2386,
      "Ġcourse": 2387,
      "Ġvir": 2388,
      "equ": 2389,
      "pped": 2390,
      "ĠChrist": 2391,
      "Ġmoney": 2392,
      "Ġviol": 2393,
      "Ġnecess": 2394,
      "Ġsuccess": 2395,
      "Ġdeg": 2396,
      "ians": 2397,
      "Ġcreate": 2398,
      "Ar": 2399,
      "Ġtalk": 2400,
      "stit": 2401,
      "Ġactivity": 2402,
      "log": 2403,
      "Ġenc": 2404,
      "cted": 2405,
      "ayer": 2406,
      "Ġfrequ": 2407,
      "ung": 2408,
      "ustom": 2409,
      "Ġcontent": 2410,
      "Ġthought": 2411,
      "ĠFr": 2412,
      "Ġevent": 2413,
      "Ġsent": 2414,
      "Ġmaking": 2415,
      "Ġupon": 2416,
      "vironment": 2417,
      "na": 2418,
      "uation": 2419,
      "90": 2420,
      "Ġport": 2421,
      "Ġinclude": 2422,
      "uture": 2423,
      "ival": 2424,
      "Ġ50": 2425,
      "Ġ=>": 2426,
      "mp": 2427,
      "Ġaddress": 2428,
      "Ġlink": 2429,
      "Ġid": 2430,
      "DE": 2431,
      "Ġ%": 2432,
      "Ġmut": 2433,
      "ables": 2434,
      "Ġjob": 2435,
      "Ġbackground": 2436,
      "Ġexc": 2437,
      "Ġpotential": 2438,
      "Ġaccording": 2439,
      "uff": 2440,
      "ique": 2441,
      "string": 2442,
      "Ġthird": 2443,
      "oph": 2444,
      "Ġincrease": 2445,
      "Ġrange": 2446,
      "Ġincreased": 2447,
      "Ġestim": 2448,
      "Ġobserved": 2449,
      "Set": 2450,
      "word": 2451,
      "ystem": 2452,
      "Ġbook": 2453,
      "Ġtoget": 2454,
      "Ġtogether": 2455,
      "Is": 2456,
      "Ġhom": 2457,
      "rior": 2458,
      "ilit": 2459,
      "Ġversion": 2460,
      "IG": 2461,
      "rangle": 2462,
      "ĠJoh": 2463,
      ".)": 2464,
      "OP": 2465,
      "ĠCo": 2466,
      "44": 2467,
      "rho": 2468,
      "Ġlove": 2469,
      "ection": 2470,
      "')": 2471,
      "Ġaccount": 2472,
      "><": 2473,
      "rain": 2474,
      "Ġseen": 2475,
      "AG": 2476,
      "ours": 2477,
      "eq": 2478,
      "inter": 2479,
      "Ġothers": 2480,
      "Ġrespons": 2481,
      "Ġfri": 2482,
      "Ġnormal": 2483,
      "Col": 2484,
      "eb": 2485,
      "Ġtold": 2486,
      "ley": 2487,
      "Ġagree": 2488,
      "Ġcult": 2489,
      "arc": 2490,
      "ogn": 2491,
      "Ġbecome": 2492,
      "size": 2493,
      "head": 2494,
      "Ġsection": 2495,
      "Ġworking": 2496,
      "Ġdoesn": 2497,
      "}}\\": 2498,
      "Ġdetail": 2499,
      "Ġblock": 2500,
      "Ġsepar": 2501,
      "ĠGen": 2502,
      "Ġfoc": 2503,
      "Ġsat": 2504,
      "Ġpast": 2505,
      "icy": 2506,
      "ĠTH": 2507,
      "Ġenough": 2508,
      "Ġmicro": 2509,
      "ivity": 2510,
      "*~": 2511,
      "Ġey": 2512,
      "Ġrequest": 2513,
      "Ġdefendant": 2514,
      "Ġq": 2515,
      "At": 2516,
      "Ġbound": 2517,
      "âĢ¦": 2518,
      "Ġdidn": 2519,
      "Ġprivate": 2520,
      "Ġservice": 2521,
      "ixed": 2522,
      "comm": 2523,
      "Ġmor": 2524,
      "ortun": 2525,
      "ules": 2526,
      "ĠUniversity": 2527,
      "Ġparticip": 2528,
      "aces": 2529,
      "ĠOr": 2530,
      "icense": 2531,
      "ores": 2532,
      "wide": 2533,
      "'ll": 2534,
      "Ġclos": 2535,
      "Ġrole": 2536,
      "ister": 2537,
      "\\_": 2538,
      "Ġinde": 2539,
      "angu": 2540,
      "Ġair": 2541,
      "Ġfactor": 2542,
      ")':": 2543,
      "ids": 2544,
      "ĠTe": 2545,
      "unc": 2546,
      "iation": 2547,
      "Ġflow": 2548,
      "Ġloss": 2549,
      "ried": 2550,
      "CH": 2551,
      "imum": 2552,
      "Ġmom": 2553,
      "Ġhappen": 2554,
      "86": 2555,
      "ino": 2556,
      "ĠÎ": 2557,
      "Ġlikely": 2558,
      "77": 2559,
      "ling": 2560,
      "erc": 2561,
      "Ġchanges": 2562,
      "RA": 2563,
      "icult": 2564,
      "Ġuser": 2565,
      "Ġcomplet": 2566,
      "Ġpoints": 2567,
      "}^": 2568,
      "Ġfive": 2569,
      "theta": 2570,
      "Cont": 2571,
      "Ġseason": 2572,
      "Ġcorrespon": 2573,
      "reed": 2574,
      "Ġearly": 2575,
      "ches": 2576,
      "irm": 2577,
      "Ġbenef": 2578,
      "ties": 2579,
      "rim": 2580,
      "lobal": 2581,
      "Ġapplication": 2582,
      "Ġacross": 2583,
      "Ġmembers": 2584,
      "Ġobtained": 2585,
      "Ġ(-": 2586,
      "ered": 2587,
      "Ġbit": 2588,
      "ires": 2589,
      "Ġht": 2590,
      "ENT": 2591,
      "eters": 2592,
      "\"}).": 2593,
      "osis": 2594,
      "infty": 2595,
      "Ġauthor": 2596,
      "col": 2597,
      "Ġdoing": 2598,
      "leg": 2599,
      "Ġpack": 2600,
      "Ġclin": 2601,
      "uration": 2602,
      "03": 2603,
      "hem": 2604,
      "Ġpo": 2605,
      "App": 2606,
      "iter": 2607,
      "ternal": 2608,
      "------------": 2609,
      "Ġsens": 2610,
      "Al": 2611,
      "ĠSee": 2612,
      "Ġ(*": 2613,
      "Ġrather": 2614,
      "Ġmeet": 2615,
      "orth": 2616,
      "ĠFig": 2617,
      "olve": 2618,
      "cret": 2619,
      "Ġincluded": 2620,
      "ependent": 2621,
      "www": 2622,
      "Ġconduct": 2623,
      "ĠDef": 2624,
      "Ġsignal": 2625,
      "istic": 2626,
      "xim": 2627,
      "ĠĠĠĠĠĠĠĠĠĠĠĠĠĠĠĠĠĠĠĠĠĠĠĠĠĠĠĠĠĠĠĠĠĠĠĠĠĠĠĠĠĠĠĠĠĠĠĠĠĠĠĠĠĠĠĠĠĠĠĠĠĠĠĠĠĠĠĠĠĠĠĠĠĠĠĠĠĠĠĠĠĠĠĠĠĠĠĠĠĠĠĠĠĠĠĠĠĠĠĠĠĠĠĠĠĠĠĠĠĠĠĠĠĠĠĠĠĠĠĠĠĠĠĠĠĠĠĠ": 2628,
      "ocal": 2629,
      "ĠRep": 2630,
      "Ġdetect": 2631,
      "pat": 2632,
      "On": 2633,
      "gment": 2634,
      "itud": 2635,
      "Ġapproach": 2636,
      "No": 2637,
      "my": 2638,
      "ories": 2639,
      "rect": 2640,
      "Ġdecre": 2641,
      "psilon": 2642,
      "ĠâĢĺ": 2643,
      "../../": 2644,
      "ceed": 2645,
      "/*": 2646,
      "abor": 2647,
      "inary": 2648,
      "rec": 2649,
      "Ġexam": 2650,
      "Ġmeasure": 2651,
      "iver": 2652,
      "ply": 2653,
      "order": 2654,
      "dro": 2655,
      "no": 2656,
      "tempt": 2657,
      "ĠAmerican": 2658,
      "oftware": 2659,
      "48": 2660,
      "iles": 2661,
      "ĠWith": 2662,
      "Ġanti": 2663,
      "Ġeduc": 2664,
      "Gamma": 2665,
      "So": 2666,
      "ony": 2667,
      "utes": 2668,
      "ideo": 2669,
      "}$,": 2670,
      "Ġactually": 2671,
      "Ġclear": 2672,
      "ender": 2673,
      "Ġmarket": 2674,
      "Ġsamples": 2675,
      "Ġeval": 2676,
      "Ġdefined": 2677,
      "Ġshows": 2678,
      "cular": 2679,
      "Ġsite": 2680,
      "medi": 2681,
      "Val": 2682,
      "const": 2683,
      "Ġrelationship": 2684,
      "des": 2685,
      "Ġspecial": 2686,
      "IL": 2687,
      "most": 2688,
      "path": 2689,
      "}$.": 2690,
      "ball": 2691,
      "init": 2692,
      "Ġdifficult": 2693,
      "Ġsal": 2694,
      "Ġdou": 2695,
      "Ġdescribed": 2696,
      "urope": 2697,
      "}(\\": 2698,
      "times": 2699,
      "Ġcross": 2700,
      "Ġphot": 2701,
      "OT": 2702,
      "code": 2703,
      "tilde": 2704,
      "Sh": 2705,
      "jit": 2706,
      "Ġbelow": 2707,
      "bo": 2708,
      "andom": 2709,
      "Ġperformed": 2710,
      "chie": 2711,
      "Ġmonths": 2712,
      "Ġinput": 2713,
      "alculate": 2714,
      "There": 2715,
      "How": 2716,
      "}{\\": 2717,
      "ĠIN": 2718,
      "ained": 2719,
      "Ġfalse": 2720,
      "Ġestabl": 2721,
      "UR": 2722,
      "tps": 2723,
      "Ġvarious": 2724,
      "Ġmultiple": 2725,
      "fer": 2726,
      "yz": 2727,
      "Ġtable": 2728,
      "ĠMore": 2729,
      "reen": 2730,
      "Ġ...": 2731,
      "Figure": 2732,
      "wh": 2733,
      "Ġmass": 2734,
      "vare": 2735,
      "year": 2736,
      "ĊĠĠĠĠĠĠĠĠĠĠĠĠĠĠĠĠĠĠĠĠĠĠĠĠĠĠĠĠĠĠĠĠ": 2737,
      "Ġfood": 2738,
      "izing": 2739,
      "Ġland": 2740,
      "Ġbehav": 2741,
      "\";": 2742,
      "Ġcy": 2743,
      "Ġmagn": 2744,
      "Ġexec": 2745,
      "Ġmechan": 2746,
      "Ġtoday": 2747,
      "Ġdeath": 2748,
      "ĠBe": 2749,
      "ĠMay": 2750,
      "49": 2751,
      "cing": 2752,
      "Ġsystems": 2753,
      "Ġcomplex": 2754,
      "Ġaffect": 2755,
      "Ġstructure": 2756,
      "uit": 2757,
      "aut": 2758,
      "Ġproperty": 2759,
      "Ġdisease": 2760,
      "td": 2761,
      "Ð¾": 2762,
      "Ġfuture": 2763,
      "ĠCol": 2764,
      "Ġconcer": 2765,
      "ones": 2766,
      "elves": 2767,
      "Ġla": 2768,
      "ogen": 2769,
      "Ġfilm": 2770,
      "une": 2771,
      "artment": 2772,
      "Ġsurface": 2773,
      "File": 2774,
      "Ph": 2775,
      "hold": 2776,
      "Ġdri": 2777,
      "leq": 2778,
      "Ð°": 2779,
      "Ġfra": 2780,
      "uf": 2781,
      "}_": 2782,
      "omet": 2783,
      "wards": 2784,
      "Ġsignificantly": 2785,
      "Ġmakes": 2786,
      "ĠCan": 2787,
      "Ġdemon": 2788,
      "ĠOne": 2789,
      "Ġrespectively": 2790,
      "OS": 2791,
      "Ġred": 2792,
      "Ġprotein": 2793,
      "Ġimmun": 2794,
      "Ġconsist": 2795,
      "varepsilon": 2796,
      "Im": 2797,
      "Ġscre": 2798,
      "Ġcut": 2799,
      "Ġstri": 2800,
      "Ġpatient": 2801,
      "Ġnull": 2802,
      "ME": 2803,
      "02": 2804,
      "Ġwa": 2805,
      "69": 2806,
      "],[@": 2807,
      "%)": 2808,
      "big": 2809,
      "Ġnight": 2810,
      "ĠĊ": 2811,
      "ega": 2812,
      "Ġregard": 2813,
      "Ġshowed": 2814,
      "include": 2815,
      "Ġdeb": 2816,
      "Ġear": 2817,
      "ĠCal": 2818,
      "Ġitem": 2819,
      "Ġexperience": 2820,
      "Ġmiss": 2821,
      "Ġenvironment": 2822,
      "Ġmatter": 2823,
      "*,": 2824,
      "using": 2825,
      "lementary": 2826,
      "Ġep": 2827,
      "RNA": 2828,
      "Ġfig": 2829,
      "Ġemb": 2830,
      "Ġintrodu": 2831,
      "Ġhref": 2832,
      "Ġdifference": 2833,
      "value": 2834,
      "roid": 2835,
      "ĠAN": 2836,
      "pecially": 2837,
      "+\\": 2838,
      "Ġcause": 2839,
      "odes": 2840,
      "ĠĠĠĠĠĠĠĠĠĠĠĠ": 2841,
      "Ġnetwork": 2842,
      "aged": 2843,
      "Ġblood": 2844,
      "mber": 2845,
      "miss": 2846,
      "Ġur": 2847,
      "atter": 2848,
      "Ġmethods": 2849,
      "js": 2850,
      "now": 2851,
      "Ġ21": 2852,
      "Ġattempt": 2853,
      "atal": 2854,
      "Ġever": 2855,
      "Ġdivided": 2856,
      "Ġonce": 2857,
      "></": 2858,
      "Ġlines": 2859,
      "Ġweight": 2860,
      "ĠThen": 2861,
      "Ġgrowth": 2862,
      "}}$": 2863,
      "itch": 2864,
      "ING": 2865,
      "Ġoutput": 2866,
      "Ġprior": 2867,
      "ĠEurope": 2868,
      "Test": 2869,
      "enn": 2870,
      "ĠĠĠĠĠĠĠĠĠĠĠĠĠ": 2871,
      "Ġhouse": 2872,
      "Ġhalf": 2873,
      "Ġcompany": 2874,
      "Int": 2875,
      "bib": 2876,
      "Ġsearch": 2877,
      "ensity": 2878,
      "ĠAss": 2879,
      "return": 2880,
      "hing": 2881,
      "lam": 2882,
      "rix": 2883,
      "Ġpick": 2884,
      "ĠCount": 2885,
      "agement": 2886,
      "Ġlooking": 2887,
      "Ġwhole": 2888,
      "Ġtaken": 2889,
      "Ġinhib": 2890,
      "Ġassess": 2891,
      "ĠBl": 2892,
      "ication": 2893,
      "ĠMar": 2894,
      "istance": 2895,
      "Ġcompet": 2896,
      "define": 2897,
      "Get": 2898,
      "gl": 2899,
      "}=": 2900,
      "čĊĠĠĠ": 2901,
      "Ġvol": 2902,
      "Ġdemonstr": 2903,
      "Ġtook": 2904,
      "41": 2905,
      "onal": 2906,
      "Ġ\\\\": 2907,
      "________": 2908,
      "ai": 2909,
      "};": 2910,
      "Ġtum": 2911,
      "based": 2912,
      "Ġachie": 2913,
      "Ġele": 2914,
      "Ġsimple": 2915,
      "Ġimprove": 2916,
      "plement": 2917,
      "Ġnat": 2918,
      "comes": 2919,
      "Ġcame": 2920,
      "Ġyet": 2921,
      "aff": 2922,
      "anguage": 2923,
      "Ġtherefore": 2924,
      "Ġblack": 2925,
      "Ġsolution": 2926,
      "html": 2927,
      "clusion": 2928,
      "Ġdecl": 2929,
      "idered": 2930,
      "lying": 2931,
      "ledge": 2932,
      "Ġlimit": 2933,
      "aintiff": 2934,
      "Ġbelieve": 2935,
      "Table": 2936,
      "Ġwrit": 2937,
      "rial": 2938,
      "pper": 2939,
      "Ġregion": 2940,
      "43": 2941,
      "rs": 2942,
      "}]": 2943,
      "Ġdeal": 2944,
      "ains": 2945,
      "LA": 2946,
      "Ġbar": 2947,
      "Ġproblems": 2948,
      "Ġbreak": 2949,
      "Ġdepend": 2950,
      "46": 2951,
      "Ġground": 2952,
      "ĠEng": 2953,
      "Ġclose": 2954,
      "Ġroom": 2955,
      "|\\": 2956,
      "Ġ);": 2957,
      "Ġsample": 2958,
      "ĠMan": 2959,
      "ops": 2960,
      "Ġhistory": 2961,
      "Ġtw": 2962,
      "Ġcamp": 2963,
      "ĠPat": 2964,
      "Ġsex": 2965,
      "Ġadmin": 2966,
      "Ġbring": 2967,
      "iding": 2968,
      "uments": 2969,
      "ruction": 2970,
      "}+(": 2971,
      "Ob": 2972,
      "gest": 2973,
      "Ġindu": 2974,
      "rc": 2975,
      "82": 2976,
      "Ġconsidered": 2977,
      "Ġservices": 2978,
      "CC": 2979,
      "Ġcard": 2980,
      "Ġbegin": 2981,
      "ager": 2982,
      "vec": 2983,
      "*(": 2984,
      "dom": 2985,
      "supp": 2986,
      "Ġcity": 2987,
      "Ġpattern": 2988,
      "ilt": 2989,
      "Ġadditional": 2990,
      "ero": 2991,
      "Ps": 2992,
      "wise": 2993,
      "Ġdrug": 2994,
      "ks": 2995,
      "ĠAfter": 2996,
      "Ġparent": 2997,
      "Ġpaper": 2998,
      "come": 2999,
      "util": 3000,
      "Ġ&&": 3001,
      "Ġneeds": 3002,
      "Ġnear": 3003,
      "param": 3004,
      "illed": 3005,
      "62": 3006,
      "Ġstates": 3007,
      "Ġrat": 3008,
      "Ġdat": 3009,
      "Ġrights": 3010,
      "Ġconcent": 3011,
      "().": 3012,
      "mega": 3013,
      "see": 3014,
      "vention": 3015,
      "Ġwid": 3016,
      "Ġreve": 3017,
      "Ġload": 3018,
      "fl": 3019,
      "pping": 3020,
      "ression": 3021,
      "do": 3022,
      "raw": 3023,
      "Ġreceived": 3024,
      "Ġappl": 3025,
      "mitted": 3026,
      "Ġmillion": 3027,
      "sim": 3028,
      "ols": 3029,
      "Ġcountries": 3030,
      "down": 3031,
      "Ġwin": 3032,
      "Ġsix": 3033,
      "Ġvar": 3034,
      "rror": 3035,
      "where": 3036,
      "Ġgetting": 3037,
      "IV": 3038,
      "tered": 3039,
      "Ġassert": 3040,
      "sl": 3041,
      "Ġattack": 3042,
      "Ġfav": 3043,
      "Ġang": 3044,
      "state": 3045,
      "Ġneeded": 3046,
      "Ġwent": 3047,
      "ucle": 3048,
      "cm": 3049,
      "nu": 3050,
      "ederal": 3051,
      "ĠCent": 3052,
      "Ġrelated": 3053,
      "width": 3054,
      "pose": 3055,
      "uses": 3056,
      "field": 3057,
      "bit": 3058,
      "utions": 3059,
      "Ġtax": 3060,
      "Ġdistrict": 3061,
      "Ġdam": 3062,
      "lege": 3063,
      "Ġoccur": 3064,
      "57": 3065,
      "Ġill": 3066,
      "Ġsubst": 3067,
      ")**": 3068,
      "Ġbank": 3069,
      "Ġcalcul": 3070,
      "ĠOb": 3071,
      "All": 3072,
      "Ġmind": 3073,
      "ĠĠĠĠĠĠĠĠĠĠĠĠĠĠĠ": 3074,
      "orld": 3075,
      "Ġdecision": 3076,
      "Ġansw": 3077,
      "Ġphase": 3078,
      "Ġvia": 3079,
      "En": 3080,
      "001": 3081,
      "Ġox": 3082,
      "Ġcoll": 3083,
      "ises": 3084,
      "ached": 3085,
      "ensive": 3086,
      "aced": 3087,
      "cdot": 3088,
      "])": 3089,
      "function": 3090,
      "langle": 3091,
      "ĠNot": 3092,
      "Ġchall": 3093,
      "Ġitself": 3094,
      "Ġtrying": 3095,
      "Ġdig": 3096,
      "Ġaccept": 3097,
      "Ġrecent": 3098,
      "array": 3099,
      "aging": 3100,
      "81": 3101,
      "By": 3102,
      "Omega": 3103,
      "hood": 3104,
      "Ġexact": 3105,
      "Ġentire": 3106,
      "ĠBy": 3107,
      "Ġpan": 3108,
      "AB": 3109,
      "73": 3110,
      "isc": 3111,
      "Ġseries": 3112,
      "![": 3113,
      "AM": 3114,
      "Ġthus": 3115,
      "Ġprint": 3116,
      "ev": 3117,
      "Ġmar": 3118,
      "Ġpolice": 3119,
      "Ind": 3120,
      "body": 3121,
      "prime": 3122,
      "59": 3123,
      "like": 3124,
      "Ġ$$": 3125,
      "ounds": 3126,
      "Ġmedia": 3127,
      "ls": 3128,
      "trans": 3129,
      "Ġpopulation": 3130,
      "olume": 3131,
      "Ġespecially": 3132,
      "Ġmi": 3133,
      "Ġ(\\": 3134,
      "\\'": 3135,
      "That": 3136,
      "Ġcontext": 3137,
      "QL": 3138,
      "non": 3139,
      "ulated": 3140,
      "Ġquality": 3141,
      "Ġpubl": 3142,
      "ros": 3143,
      "Ġproduction": 3144,
      "US": 3145,
      "Ġ40": 3146,
      "Ġadded": 3147,
      "Ġcancer": 3148,
      "ĠSte": 3149,
      "Ġyoung": 3150,
      "ills": 3151,
      "book": 3152,
      "pre": 3153,
      "CO": 3154,
      "Ġissues": 3155,
      "ĠYork": 3156,
      "Ġoriginal": 3157,
      "Un": 3158,
      "Ġmus": 3159,
      "Ġdire": 3160,
      "ĊĠĠĠĠĠĠĠĠĠĠĠĠĠĠĠĠĠĠĠĠĠĠĠ": 3161,
      "just": 3162,
      "Ġinfe": 3163,
      "ĠCO": 3164,
      "istics": 3165,
      "sm": 3166,
      "atively": 3167,
      "ĠMed": 3168,
      "quad": 3169,
      "View": 3170,
      "Ġstory": 3171,
      "ague": 3172,
      "Ġeff": 3173,
      "Ġlength": 3174,
      "Ġdr": 3175,
      "ilities": 3176,
      "Ġdefine": 3177,
      "Ġbasis": 3178,
      "char": 3179,
      "ĠBo": 3180,
      "Ġcompl": 3181,
      "ĠCar": 3182,
      "Ġinflu": 3183,
      "Ġseems": 3184,
      "Ġperformance": 3185,
      "ĠMc": 3186,
      "itting": 3187,
      ")(": 3188,
      "isf": 3189,
      "Ġnecessary": 3190,
      "ites": 3191,
      "Ġlive": 3192,
      "Ġcorrel": 3193,
      "earch": 3194,
      "Ġdevice": 3195,
      "Ġimpact": 3196,
      "lor": 3197,
      "Ġsimply": 3198,
      "file": 3199,
      "with": 3200,
      "ÂłÂł": 3201,
      "With": 3202,
      "oad": 3203,
      "Ġcustom": 3204,
      "anced": 3205,
      "itten": 3206,
      "Ġinitial": 3207,
      "ĠMy": 3208,
      "TR": 3209,
      "bor": 3210,
      "Ġerr": 3211,
      "Ġasked": 3212,
      "ales": 3213,
      "static": 3214,
      "54": 3215,
      "ĠÂ§": 3216,
      "Ðµ": 3217,
      "Ġconfig": 3218,
      ".\\": 3219,
      "Ġproced": 3220,
      "more": 3221,
      "Ġce": 3222,
      "ATE": 3223,
      "oke": 3224,
      "Ġinstead": 3225,
      "56": 3226,
      "ĠPol": 3227,
      "pression": 3228,
      "ults": 3229,
      "ensure": 3230,
      "79": 3231,
      "ober": 3232,
      "ĠPart": 3233,
      "Ġpage": 3234,
      "Ġflo": 3235,
      "uly": 3236,
      "Ġimplement": 3237,
      "MA": 3238,
      "Ġ22": 3239,
      "Ġcomplete": 3240,
      "CA": 3241,
      "ike": 3242,
      "lation": 3243,
      "net": 3244,
      "Ġgene": 3245,
      "rapy": 3246,
      "apt": 3247,
      "oman": 3248,
      "list": 3249,
      "aled": 3250,
      "fully": 3251,
      "ospital": 3252,
      "Ġnothing": 3253,
      "Ġfeatures": 3254,
      ")}": 3255,
      "Ġdefault": 3256,
      "Ġinvolved": 3257,
      "76": 3258,
      "Ġanything": 3259,
      "Ġprimary": 3260,
      "ÑĤ": 3261,
      "ãģ": 3262,
      "ening": 3263,
      "Ġ28": 3264,
      "Ġtemper": 3265,
      "ĠDNA": 3266,
      "Ġidea": 3267,
      "MS": 3268,
      "Ġtaking": 3269,
      "Ġbad": 3270,
      "ribute": 3271,
      "0000000000000000": 3272,
      "Ġste": 3273,
      "ĠCor": 3274,
      "Ġcontact": 3275,
      "Ġhost": 3276,
      "ember": 3277,
      "Ġincreasing": 3278,
      "Ġeasy": 3279,
      "Ġmoment": 3280,
      "tau": 3281,
      "lier": 3282,
      "98": 3283,
      "uel": 3284,
      "Ġdest": 3285,
      "Ġheart": 3286,
      "Ġface": 3287,
      "Ġpolitical": 3288,
      "ying": 3289,
      "Ġstep": 3290,
      "Ġformer": 3291,
      "Ġ!=": 3292,
      "ĠPres": 3293,
      "web": 3294,
      "span": 3295,
      "Ġsequence": 3296,
      "ii": 3297,
      "etilde": 3298,
      "widetilde": 3299,
      "Ġindex": 3300,
      "Ġstarted": 3301,
      "Delta": 3302,
      "Ġmessage": 3303,
      "Ġworks": 3304,
      "ributed": 3305,
      "map": 3306,
      "uper": 3307,
      "Ġcopy": 3308,
      "Ġdocument": 3309,
      "ĠĠĠĠĠĠĠĠĠĠĠĠĠĠ": 3310,
      "ĠAS": 3311,
      ")$.": 3312,
      "arr": 3313,
      "ĠPa": 3314,
      "Ġver": 3315,
      "Ġindust": 3316,
      "Or": 3317,
      "Ġess": 3318,
      "astic": 3319,
      "oding": 3320,
      "Ġeffort": 3321,
      "Ġlearn": 3322,
      "Ġoutside": 3323,
      "rightarrow": 3324,
      "Ġaverage": 3325,
      "plicit": 3326,
      "fo": 3327,
      "ulations": 3328,
      "from": 3329,
      "Mod": 3330,
      "Ġtypes": 3331,
      "Ġfem": 3332,
      "Ġclinical": 3333,
      "EC": 3334,
      "Ġsus": 3335,
      "Ġconstit": 3336,
      "check": 3337,
      "Ġstatus": 3338,
      "Ġsense": 3339,
      "ecause": 3340,
      "ĠThus": 3341,
      "curity": 3342,
      "Ġprovides": 3343,
      "Ġalmost": 3344,
      "Ġconsum": 3345,
      "Ġ__": 3346,
      "Ġrandom": 3347,
      "Ġcompar": 3348,
      "Ġevents": 3349,
      "Ġpret": 3350,
      "ama": 3351,
      "erson": 3352,
      "ellant": 3353,
      "inding": 3354,
      "Ġrecogn": 3355,
      "._": 3356,
      "Ġprobably": 3357,
      "Ġderiv": 3358,
      "Ġdistribution": 3359,
      "Ġautom": 3360,
      "Ġconv": 3361,
      "ĠAct": 3362,
      "002": 3363,
      "Ġ<<": 3364,
      "_{{\\": 3365,
      "Ġappear": 3366,
      "ronic": 3367,
      "fr": 3368,
      "53": 3369,
      "58": 3370,
      "UN": 3371,
      "hers": 3372,
      "Ġvalid": 3373,
      "gu": 3374,
      "ili": 3375,
      "Ġ26": 3376,
      "inition": 3377,
      "ĠMon": 3378,
      "PS": 3379,
      "oms": 3380,
      "Ġparty": 3381,
      "reet": 3382,
      "));": 3383,
      "ĠMin": 3384,
      "Ġheld": 3385,
      "ĠJohn": 3386,
      "Value": 3387,
      "ging": 3388,
      "Ġund": 3389,
      "EX": 3390,
      "Ġonline": 3391,
      "Ġcreated": 3392,
      "ĠNational": 3393,
      "ccording": 3394,
      "Ġsomeone": 3395,
      "chi": 3396,
      "Ġvict": 3397,
      "Ġremov": 3398,
      "Ġweeks": 3399,
      "Ġ\"\"": 3400,
      "ĠPar": 3401,
      "Ġcolor": 3402,
      "hel": 3403,
      "ief": 3404,
      "$-": 3405,
      "94": 3406,
      "box": 3407,
      "start": 3408,
      "================================": 3409,
      "Ġsoci": 3410,
      "ĠIm": 3411,
      "Ġcorrect": 3412,
      "pri": 3413,
      "########": 3414,
      "ee": 3415,
      "Ġhope": 3416,
      "Ġstatement": 3417,
      "ĠCounty": 3418,
      "arest": 3419,
      "Ġ27": 3420,
      "}}(": 3421,
      "widehat": 3422,
      "arily": 3423,
      "iddle": 3424,
      "Ġdifferences": 3425,
      "Ad": 3426,
      "inally": 3427,
      "Ġmach": 3428,
      "Ġapproxim": 3429,
      "rack": 3430,
      "Ġquick": 3431,
      "urch": 3432,
      "Ġcolum": 3433,
      "Ġparameters": 3434,
      "ancial": 3435,
      "ynam": 3436,
      "Ġstrateg": 3437,
      "When": 3438,
      "Ġreplace": 3439,
      "Ġcomes": 3440,
      "Ġidentified": 3441,
      "Of": 3442,
      "gor": 3443,
      "Ġcreat": 3444,
      "IR": 3445,
      "Â±": 3446,
      "group": 3447,
      "light": 3448,
      "Ġhours": 3449,
      "Ġgames": 3450,
      "ched": 3451,
      "rew": 3452,
      "Ġpresented": 3453,
      "Ġgreater": 3454,
      "((": 3455,
      "Ġrule": 3456,
      "Ġcred": 3457,
      "Ġsett": 3458,
      "Ġdeveloped": 3459,
      "Ġnational": 3460,
      "ĠTrump": 3461,
      "LO": 3462,
      "MO": 3463,
      "aving": 3464,
      "Ġsatisf": 3465,
      "ĠSim": 3466,
      "ffer": 3467,
      "lt": 3468,
      "imens": 3469,
      "Qu": 3470,
      "Ġfunctions": 3471,
      "Ġchem": 3472,
      "Ġmodels": 3473,
      "uk": 3474,
      "Ġareas": 3475,
      "\\|": 3476,
      "ĠString": 3477,
      "ĠSuppose": 3478,
      "ube": 3479,
      "Ġpressure": 3480,
      "cap": 3481,
      "osph": 3482,
      "Ġwrong": 3483,
      "\\\\": 3484,
      "sy": 3485,
      "erred": 3486,
      "asons": 3487,
      "Ġcontr": 3488,
      "iven": 3489,
      "Ġrot": 3490,
      "Ġrev": 3491,
      "Ġexpected": 3492,
      "#:": 3493,
      "Ġstra": 3494,
      "Ġdegree": 3495,
      "ĠLicense": 3496,
      "Ġnews": 3497,
      "oin": 3498,
      "zy": 3499,
      "IF": 3500,
      "Ġforce": 3501,
      "itude": 3502,
      "CS": 3503,
      "Ġlonger": 3504,
      "Ġmotion": 3505,
      "Ġnearest": 3506,
      "ĠIntern": 3507,
      "...\"": 3508,
      "Ġproducts": 3509,
      "Ġphysical": 3510,
      "Pl": 3511,
      "but": 3512,
      "Ġmember": 3513,
      "Ġwhite": 3514,
      "Ġglobal": 3515,
      "Ġrates": 3516,
      "fered": 3517,
      "Ġprinc": 3518,
      "Context": 3519,
      "Ġnatural": 3520,
      "My": 3521,
      "raft": 3522,
      "Ġdiagn": 3523,
      "ĠDep": 3524,
      "ĠJan": 3525,
      "Web": 3526,
      "Ġdetermine": 3527,
      "Ġdate": 3528,
      "aries": 3529,
      "Ġplayers": 3530,
      "Ġful": 3531,
      "Ġfront": 3532,
      "Error": 3533,
      "]{},": 3534,
      "Ġisol": 3535,
      "void": 3536,
      "item": 3537,
      "Ġelement": 3538,
      "ĠDo": 3539,
      "ĠOR": 3540,
      "Ġ2010": 3541,
      "Ġcontinue": 3542,
      "ĠDist": 3543,
      "Ġselect": 3544,
      "Ġpolicy": 3545,
      "pack": 3546,
      "Ġofficial": 3547,
      "actions": 3548,
      "osition": 3549,
      "Ġprevent": 3550,
      "Ġlack": 3551,
      "Ġquite": 3552,
      "Ġrunning": 3553,
      "Ġpersonal": 3554,
      "Suppose": 3555,
      "pite": 3556,
      "ĠInt": 3557,
      "ĠCont": 3558,
      "Ġevalu": 3559,
      "orph": 3560,
      "Ġcontinu": 3561,
      "Ġsoftware": 3562,
      "Ġlanguage": 3563,
      "mselves": 3564,
      "91": 3565,
      "ULL": 3566,
      "ster": 3567,
      "ocr": 3568,
      "ĠGu": 3569,
      "tee": 3570,
      "rown": 3571,
      "otic": 3572,
      "Ġhydro": 3573,
      "ervice": 3574,
      "ĠOur": 3575,
      "overed": 3576,
      "Ġmemory": 3577,
      "Ġfall": 3578,
      "section": 3579,
      "Ġ[*": 3580,
      "rows": 3581,
      "Par": 3582,
      "Ġwalk": 3583,
      "Ġorg": 3584,
      "ĠOF": 3585,
      "Ġpresence": 3586,
      "Ġeducation": 3587,
      "Ġelements": 3588,
      "čĊč": 3589,
      "Ġfollows": 3590,
      "enced": 3591,
      "olic": 3592,
      "Ġcontroll": 3593,
      "^{(": 3594,
      "encies": 3595,
      "'d": 3596,
      "51": 3597,
      "63": 3598,
      "Ġ23": 3599,
      "Ġunit": 3600,
      "rant": 3601,
      "Ġâ": 3602,
      "Ġeffective": 3603,
      "istration": 3604,
      "acc": 3605,
      "java": 3606,
      "Ġthemselves": 3607,
      "ĠAm": 3608,
      "ĠMr": 3609,
      "Ġanalyz": 3610,
      "Ġquestions": 3611,
      "atives": 3612,
      "ĠAg": 3613,
      "Ġnegative": 3614,
      "($": 3615,
      "ij": 3616,
      "ĠEn": 3617,
      "Ġarray": 3618,
      "Ġcal": 3619,
      "Ġextra": 3620,
      "Ġcorresponding": 3621,
      "IM": 3622,
      "hy": 3623,
      "mat": 3624,
      "ĠSouth": 3625,
      "Ġability": 3626,
      "~~~~": 3627,
      "ana": 3628,
      "92": 3629,
      "cast": 3630,
      "Ġgenes": 3631,
      "Ġargument": 3632,
      "Sim": 3633,
      "amed": 3634,
      "Ġvideo": 3635,
      "Ġcoun": 3636,
      "Ġlimited": 3637,
      "Ġpredict": 3638,
      "Ġpresident": 3639,
      "print": 3640,
      "Ġproperties": 3641,
      ">>": 3642,
      "Form": 3643,
      "74": 3644,
      "83": 3645,
      "Ġinstall": 3646,
      "circ": 3647,
      "link": 3648,
      "iet": 3649,
      "oma": 3650,
      "Ġwords": 3651,
      "gorith": 3652,
      "rupt": 3653,
      "Ġtransfer": 3654,
      "Ġeverything": 3655,
      "Ġmedical": 3656,
      "Ġweak": 3657,
      "Exp": 3658,
      "Ġarticle": 3659,
      "Ġquantum": 3660,
      "Ġimpl": 3661,
      "Ġdisplay": 3662,
      "max": 3663,
      "Ġinside": 3664,
      "ech": 3665,
      "ĠAf": 3666,
      "abase": 3667,
      "Ġtraining": 3668,
      "ĠQu": 3669,
      "Ġopportun": 3670,
      ")-": 3671,
      "]}+(": 3672,
      "Ġdetermined": 3673,
      "mary": 3674,
      "Ġfixed": 3675,
      "ĠPr": 3676,
      "Ġexists": 3677,
      "Ġknowledge": 3678,
      "orem": 3679,
      "Ġincludes": 3680,
      "ashing": 3681,
      "nsel": 3682,
      "CG": 3683,
      "ese": 3684,
      "Ġsem": 3685,
      "het": 3686,
      "ously": 3687,
      "pret": 3688,
      "pen": 3689,
      "ĠAP": 3690,
      "Ġprot": 3691,
      "Ġbuilding": 3692,
      "rite": 3693,
      "ottom": 3694,
      "uild": 3695,
      "Ġsqu": 3696,
      "Ġfire": 3697,
      "ĠFurther": 3698,
      "Ġwritten": 3699,
      "ĠTHE": 3700,
      "())": 3701,
      "https": 3702,
      "Ġcontract": 3703,
      "ips": 3704,
      "Exception": 3705,
      "eration": 3706,
      "Ġfoot": 3707,
      "elt": 3708,
      "Ġisn": 3709,
      "Ġsufficient": 3710,
      "Ġframe": 3711,
      "Ġbehind": 3712,
      "Ġminutes": 3713,
      "Ġapplied": 3714,
      "lig": 3715,
      "inst": 3716,
      "user": 3717,
      "Ġir": 3718,
      "ĠWorld": 3719,
      "Ġsurv": 3720,
      "change": 3721,
      "Ġ},": 3722,
      "Ġpain": 3723,
      "ĠWar": 3724,
      "eline": 3725,
      "ĠGe": 3726,
      "Ġconstruct": 3727,
      "Ġreduced": 3728,
      "CL": 3729,
      "52": 3730,
      "Ġrecomm": 3731,
      "ards": 3732,
      "Ġoffer": 3733,
      "Ġconstant": 3734,
      "Ġforward": 3735,
      "Ġstatic": 3736,
      "**(-": 3737,
      "ĠPresident": 3738,
      "Add": 3739,
      "Ġfun": 3740,
      "Ġstd": 3741,
      "Ġ60": 3742,
      "Ġmatch": 3743,
      "Ġwrite": 3744,
      "base": 3745,
      "ha": 3746,
      "imate": 3747,
      "Ġdistance": 3748,
      "ners": 3749,
      "Ġmode": 3750,
      "ĠPe": 3751,
      "Ġrelative": 3752,
      "());": 3753,
      "78": 3754,
      "Path": 3755,
      "Ġmilit": 3756,
      "Ġreference": 3757,
      "term": 3758,
      "psi": 3759,
      "Ġdirectly": 3760,
      "Ġwebs": 3761,
      "ĠInc": 3762,
      "}^{\\": 3763,
      "Ġstop": 3764,
      "Ġaccom": 3765,
      "Ġpoly": 3766,
      "Ġ\\<": 3767,
      "Ġtitle": 3768,
      "pan": 3769,
      "Ġago": 3770,
      "ditional": 3771,
      ")$,": 3772,
      "Ġwindow": 3773,
      "ett": 3774,
      "ĠSm": 3775,
      "index": 3776,
      "\\].": 3777,
      "epsilon": 3778,
      "ĠNe": 3779,
      "Ġclaims": 3780,
      "anks": 3781,
      "Key": 3782,
      "urb": 3783,
      "Ġsmaller": 3784,
      "Ġ29": 3785,
      "^*": 3786,
      "gra": 3787,
      "public": 3788,
      "unch": 3789,
      "xi": 3790,
      "Ġfavor": 3791,
      "FF": 3792,
      "itation": 3793,
      "Ġindependent": 3794,
      "Ġnumbers": 3795,
      "Ġwanted": 3796,
      "Ġpair": 3797,
      "Ġmaintain": 3798,
      "71": 3799,
      "ae": 3800,
      "rote": 3801,
      "Ġspeed": 3802,
      "Ġeconomic": 3803,
      "NID": 3804,
      "py": 3805,
      "ĠAust": 3806,
      "ferences": 3807,
      "Ġcontains": 3808,
      "ĠAb": 3809,
      "Ġsubstant": 3810,
      "Ġgas": 3811,
      "Ġbecame": 3812,
      "ethyl": 3813,
      "oe": 3814,
      "pty": 3815,
      "ffi": 3816,
      "aves": 3817,
      "Ġantib": 3818,
      "(),": 3819,
      "hern": 3820,
      "Not": 3821,
      "New": 3822,
      "Ġoption": 3823,
      "Ġnucle": 3824,
      "Ġparticularly": 3825,
      "overline": 3826,
      "Ġtask": 3827,
      "Ġstay": 3828,
      "ĠHere": 3829,
      "Ġinstance": 3830,
      "Ġbehavior": 3831,
      "vere": 3832,
      "ĠSer": 3833,
      "ĠJust": 3834,
      "ĠJune": 3835,
      "maz": 3836,
      "copy": 3837,
      "Ġmap": 3838,
      "ĠÃ": 3839,
      "CP": 3840,
      "Ġcand": 3841,
      "icon": 3842,
      "stream": 3843,
      "uster": 3844,
      "Ġanswer": 3845,
      "Ġtakes": 3846,
      "ĠPhys": 3847,
      "unt": 3848,
      "Ġprime": 3849,
      "ils": 3850,
      "ĠFirst": 3851,
      "Ġbroad": 3852,
      ")=": 3853,
      "Ed": 3854,
      "sing": 3855,
      "oud": 3856,
      "ITY": 3857,
      "Ġdraw": 3858,
      "vey": 3859,
      "Ġleave": 3860,
      "Ġsaw": 3861,
      "From": 3862,
      "ĠSome": 3863,
      "Object": 3864,
      "call": 3865,
      "era": 3866,
      "Ġsecurity": 3867,
      "Ġcover": 3868,
      "Ġpreviously": 3869,
      "ĠMe": 3870,
      "Ġplaintiff": 3871,
      "ĠâĪĴ": 3872,
      "msgid": 3873,
      "msgstr": 3874,
      "ran": 3875,
      "ows": 3876,
      "Ġprep": 3877,
      "72": 3878,
      "ĠWill": 3879,
      "Ġactive": 3880,
      "De": 3881,
      "Text": 3882,
      "ĠSystem": 3883,
      "ĠBar": 3884,
      "izes": 3885,
      "levant": 3886,
      "Ġnote": 3887,
      "Ġshare": 3888,
      "Ġjit": 3889,
      "augh": 3890,
      "Ġclean": 3891,
      "SA": 3892,
      "aign": 3893,
      "Ġfollowed": 3894,
      "point": 3895,
      "ĊĊĠĠĠĠĠĠĠĠĠĠĠ": 3896,
      "ĠTherefore": 3897,
      "Ġ(\\[": 3898,
      "Ġaltern": 3899,
      "Ġacid": 3900,
      "ĠWhile": 3901,
      "Ġcomponent": 3902,
      "ĠSince": 3903,
      "Ġwhose": 3904,
      "ivil": 3905,
      "Ġshall": 3906,
      "ports": 3907,
      ".$$": 3908,
      "gt": 3909,
      "ĠAp": 3910,
      "Ġnotice": 3911,
      "Ġword": 3912,
      "Ġlayer": 3913,
      "ament": 3914,
      "inated": 3915,
      "Ġlarger": 3916,
      "Ġtemperature": 3917,
      "EE": 3918,
      "usion": 3919,
      "Ġeveryone": 3920,
      "*.": 3921,
      "Ġnames": 3922,
      "Ġgoal": 3923,
      "61": 3924,
      "Ġ->": 3925,
      "Ġidentify": 3926,
      "}_{\\": 3927,
      "spec": 3928,
      "uary": 3929,
      "Ð¸": 3930,
      "Ġtruth": 3931,
      "Ġrecently": 3932,
      "Ġappropri": 3933,
      "Ġcomponents": 3934,
      "isions": 3935,
      "Ġcommand": 3936,
      "Ġdriv": 3937,
      "Ġfailure": 3938,
      "Ġopin": 3939,
      "Ġavoid": 3940,
      "isms": 3941,
      "ĠÂ±": 3942,
      "lish": 3943,
      "Ġimmedi": 3944,
      "Ġcoming": 3945,
      "Ġoptions": 3946,
      "Ġpublished": 3947,
      "Â°": 3948,
      "roph": 3949,
      "âĢ²": 3950,
      "/(": 3951,
      "bx": 3952,
      "hest": 3953,
      "Ġsil": 3954,
      "Ġge": 3955,
      "Ġgun": 3956,
      "*]{}": 3957,
      "cell": 3958,
      "Ġfindings": 3959,
      "Ġnature": 3960,
      "Ġalle": 3961,
      "quest": 3962,
      "Ġenh": 3963,
      "Ġlost": 3964,
      "ĠID": 3965,
      "Ġappeal": 3966,
      "\".": 3967,
      "range": 3968,
      "Ġwatch": 3969,
      "Ġmention": 3970,
      "Ġlate": 3971,
      "ĠStud": 3972,
      "Ġ2016": 3973,
      "ĠčĊĠĠĠĠĠ": 3974,
      "ded": 3975,
      "Ġ?": 3976,
      "ĠII": 3977,
      "Ġcompan": 3978,
      "Ġsche": 3979,
      ")*(": 3980,
      "Ġusually": 3981,
      "Ġ2012": 3982,
      "Ġinstit": 3983,
      "Ġengine": 3984,
      "Ġfrequency": 3985,
      "Ġvers": 3986,
      "Ġpie": 3987,
      "Ġallows": 3988,
      "style": 3989,
      "irmed": 3990,
      "ĠDav": 3991,
      "Ġsynt": 3992,
      "oo": 3993,
      "Ġtheory": 3994,
      "atform": 3995,
      "rief": 3996,
      "Ġmanagement": 3997,
      "Ġlinear": 3998,
      "Ġdirection": 3999,
      "');": 4000,
      "Ġalthough": 4001,
      "aining": 4002,
      "ĠHis": 4003,
      "Ġspin": 4004,
      "Ġprec": 4005,
      "Ġmeasured": 4006,
      "Ġpractice": 4007,
      "*-": 4008,
      "elling": 4009,
      "ĠJud": 4010,
      "Ġfinancial": 4011,
      "Ġdomain": 4012,
      "\\])": 4013,
      "Ġpurpose": 4014,
      "Ġcosts": 4015,
      "itness": 4016,
      "Ġexcept": 4017,
      "pling": 4018,
      "Ġresid": 4019,
      "Ġways": 4020,
      "struct": 4021,
      "Ġlabel": 4022,
      "Ġneigh": 4023,
      "reng": 4024,
      "Ġrequires": 4025,
      "Ġintegr": 4026,
      "su": 4027,
      "Ġ----------------": 4028,
      "93": 4029,
      "Ġhospital": 4030,
      "Ġproposed": 4031,
      "peat": 4032,
      "cules": 4033,
      "';": 4034,
      "Ġinn": 4035,
      "Ġliving": 4036,
      "Ġstress": 4037,
      "textbf": 4038,
      "Ġfederal": 4039,
      "Ġusers": 4040,
      "Ġpoor": 4041,
      "ester": 4042,
      "Ġball": 4043,
      "Ġanyone": 4044,
      "Ġaccur": 4045,
      "rum": 4046,
      "ĠEd": 4047,
      "Ġtried": 4048,
      "ĠRepublic": 4049,
      "dis": 4050,
      "eah": 4051,
      "joy": 4052,
      "ĠDes": 4053,
      "ML": 4054,
      "ĠChina": 4055,
      "^[@": 4056,
      "Ġtiss": 4057,
      "Ġmole": 4058,
      "iring": 4059,
      "Ġpet": 4060,
      "Ġhyp": 4061,
      "ĠDem": 4062,
      "Ġfocus": 4063,
      "DO": 4064,
      "EL": 4065,
      "Ġbur": 4066,
      "Ġinvention": 4067,
      "Ġhttp": 4068,
      "open": 4069,
      "Ġheav": 4070,
      "Ġfiles": 4071,
      "Ġprotect": 4072,
      "Ġcounsel": 4073,
      "ĠAmerica": 4074,
      "Ġaud": 4075,
      "Ġhot": 4076,
      "Ġgrant": 4077,
      "db": 4078,
      "Ġrelease": 4079,
      "ĠApr": 4080,
      "Ġyield": 4081,
      "**(": 4082,
      "Ġgenerally": 4083,
      "Ġcenter": 4084,
      "CON": 4085,
      "Def": 4086,
      "Ġsort": 4087,
      "Ġemerg": 4088,
      "Ġ///": 4089,
      "ĠSen": 4090,
      "ĠCity": 4091,
      "Ġauthors": 4092,
      "Ġpretty": 4093,
      "EG": 4094,
      "Ġoil": 4095,
      "Ġbir": 4096,
      "plify": 4097,
      "Ġapply": 4098,
      "Ġcurrently": 4099,
      "Ġfailed": 4100,
      "DS": 4101,
      "Ġax": 4102,
      "Ġfast": 4103,
      "Ġcomment": 4104,
      "Ġearlier": 4105,
      "Ġderivative": 4106,
      "Ġpref": 4107,
      "Ġbox": 4108,
      "Ġexperi": 4109,
      "Ġindividuals": 4110,
      "]^": 4111,
      "Ġinform": 4112,
      "Ġmother": 4113,
      "Ġled": 4114,
      "Ġstyle": 4115,
      "Ñģ": 4116,
      "Ġmis": 4117,
      "Ġfriend": 4118,
      "Ġproceed": 4119,
      "plate": 4120,
      "Ġscale": 4121,
      "Ġappears": 4122,
      "ibrary": 4123,
      "Ġgave": 4124,
      "ĠIS": 4125,
      "ĠMac": 4126,
      "Ġfeed": 4127,
      "Ġoffice": 4128,
      "Ġoperation": 4129,
      "Code": 4130,
      "Ġserver": 4131,
      "Ġetc": 4132,
      "Ġpromot": 4133,
      "Ġalone": 4134,
      "Ġtreated": 4135,
      "Man": 4136,
      "script": 4137,
      "Ġslow": 4138,
      "Ġgraph": 4139,
      "Ġreasons": 4140,
      "ersion": 4141,
      "Ġparts": 4142,
      "Ġcommit": 4143,
      "ham": 4144,
      "met": 4145,
      "haps": 4146,
      "pective": 4147,
      "Ġdesigned": 4148,
      "Ġdouble": 4149,
      "run": 4150,
      "inate": 4151,
      "Ġhit": 4152,
      "ĠRuss": 4153,
      "Ġ32": 4154,
      "Ġboard": 4155,
      "HT": 4156,
      "bt": 4157,
      "Ġfight": 4158,
      "object": 4159,
      "Ġplayer": 4160,
      "Ġsituation": 4161,
      "One": 4162,
      "iency": 4163,
      "arter": 4164,
      "Ġmodule": 4165,
      "Ġequal": 4166,
      "Ġinfection": 4167,
      "Kit": 4168,
      "Ġ($": 4169,
      "geq": 4170,
      "ĠReg": 4171,
      "ibly": 4172,
      "Ġattention": 4173,
      "Ġallowed": 4174,
      "HO": 4175,
      "Ġcommunities": 4176,
      "ĠAlthough": 4177,
      "ournal": 4178,
      "Ġrap": 4179,
      "Ġreduction": 4180,
      "that": 4181,
      "Ġ2013": 4182,
      "Ġgives": 4183,
      "ography": 4184,
      "ĠHar": 4185,
      "Ġdetails": 4186,
      "ĠGeneral": 4187,
      "čĊĠĠĠĠĠĠĠ": 4188,
      "Ġfeature": 4189,
      "Ġreading": 4190,
      "Ġtechnology": 4191,
      "overy": 4192,
      "entially": 4193,
      "que": 4194,
      "Ġstudent": 4195,
      "ishing": 4196,
      "She": 4197,
      "cpp": 4198,
      "ener": 4199,
      "Ġmid": 4200,
      "icles": 4201,
      "Ġalgorith": 4202,
      "Ġtests": 4203,
      "},\\": 4204,
      "Ġprofess": 4205,
      "Arg": 4206,
      "!!": 4207,
      "BC": 4208,
      "Ġbal": 4209,
      "Ġcentral": 4210,
      "cos": 4211,
      "Ġlay": 4212,
      "Ġsaying": 4213,
      "ufact": 4214,
      "NO": 4215,
      "ula": 4216,
      "orage": 4217,
      "aches": 4218,
      "ags": 4219,
      "cope": 4220,
      "Ġgenerated": 4221,
      "Ġcomputer": 4222,
      "Ġcircum": 4223,
      "uge": 4224,
      "Ġliter": 4225,
      "}},": 4226,
      "Ġspecies": 4227,
      "Ġ/>": 4228,
      "kn": 4229,
      "Ġcook": 4230,
      "ario": 4231,
      "Ġpen": 4232,
      "Ġanim": 4233,
      "Ġrele": 4234,
      "Supp": 4235,
      "Ġcontrast": 4236,
      "Ġhearing": 4237,
      "olumn": 4238,
      "ĠCir": 4239,
      "Ġord": 4240,
      "ocol": 4241,
      "ogle": 4242,
      "comp": 4243,
      "Ġhighly": 4244,
      "FA": 4245,
      "Le": 4246,
      "PR": 4247,
      "Ġratio": 4248,
      "Ġ2017": 4249,
      "Ġequival": 4250,
      "info": 4251,
      "Ġhor": 4252,
      "ĠMarch": 4253,
      "plug": 4254,
      "Ġroot": 4255,
      "Ġcharge": 4256,
      "Ġthreat": 4257,
      "igen": 4258,
      "Ġvolume": 4259,
      "Ġmatrix": 4260,
      "Ġconnection": 4261,
      "ĠPer": 4262,
      "Ġchoice": 4263,
      "Ġveh": 4264,
      "NS": 4265,
      "Bbb": 4266,
      "Des": 4267,
      "Ġstage": 4268,
      "lin": 4269,
      "sin": 4270,
      "zz": 4271,
      "Ġ2011": 4272,
      "Ġcandid": 4273,
      "VER": 4274,
      "count": 4275,
      "ken": 4276,
      "Ġreach": 4277,
      "Ġinternal": 4278,
      "Ġcollect": 4279,
      "Ġfriends": 4280,
      "ä¹": 4281,
      "Ġtumor": 4282,
      "Ġmilitary": 4283,
      "length": 4284,
      "mail": 4285,
      "px": 4286,
      "){#": 4287,
      "Ġfinding": 4288,
      "Ġexactly": 4289,
      "vis": 4290,
      "uted": 4291,
      "Ġlocation": 4292,
      "Ġserious": 4293,
      "ux": 4294,
      "ĠTrans": 4295,
      "Class": 4296,
      "Ġcampaign": 4297,
      "Calculate": 4298,
      "material": 4299,
      "pc": 4300,
      "ades": 4301,
      "ocs": 4302,
      "Ġ31": 4303,
      "======": 4304,
      "Ġ2018": 4305,
      "Sub": 4306,
      "Ġpict": 4307,
      "ĠTable": 4308,
      "ĠMod": 4309,
      "Ġexpressed": 4310,
      "TP": 4311,
      "band": 4312,
      "Ġcry": 4313,
      "ĠNorth": 4314,
      "coming": 4315,
      "Ġdefinition": 4316,
      "Ġcontaining": 4317,
      "Ass": 4318,
      "perty": 4319,
      "pace": 4320,
      "alle": 4321,
      "ĊĊĊ": 4322,
      "CD": 4323,
      "ÑĢ": 4324,
      "Ġjur": 4325,
      "den": 4326,
      "\\],": 4327,
      "ĠHealth": 4328,
      "Ġmulti": 4329,
      ".[": 4330,
      "TH": 4331,
      "ancy": 4332,
      "Ġcaused": 4333,
      "True": 4334,
      "top": 4335,
      "oura": 4336,
      "Ġ&\\": 4337,
      "Ġoverall": 4338,
      "Ġspeak": 4339,
      "aur": 4340,
      "Ġrelevant": 4341,
      "ĊĠĠĠĠĠĠĠĠĠĠĠĠĠ": 4342,
      "hesis": 4343,
      "Ġcapt": 4344,
      "related": 4345,
      "Ġexperiments": 4346,
      "ĠAfric": 4347,
      "can": 4348,
      "Ġple": 4349,
      "Ġstreng": 4350,
      "ĠBrit": 4351,
      "Ġuseful": 4352,
      "ÂŃ": 4353,
      "Ġaim": 4354,
      "Ġgir": 4355,
      "ĠFe": 4356,
      "Ġhimself": 4357,
      "Ġfilter": 4358,
      "ĠSub": 4359,
      "ĠĠĠĠĠĠĠĠĠĠĠĠĠĠĠĠĠ": 4360,
      "Ġneut": 4361,
      "Ġintern": 4362,
      "Ġagreement": 4363,
      "kit": 4364,
      "Ġdynam": 4365,
      "iber": 4366,
      "Ġsaf": 4367,
      "Ġtrack": 4368,
      "Ġidentity": 4369,
      "ming": 4370,
      "Ġunderstanding": 4371,
      "Now": 4372,
      "Ġ||": 4373,
      "Ġphen": 4374,
      "Ġvector": 4375,
      "Ġfigure": 4376,
      "Ġsle": 4377,
      "urance": 4378,
      "Ġsetting": 4379,
      "Ġprice": 4380,
      "ytes": 4381,
      "ifically": 4382,
      "ĠList": 4383,
      "Ġunique": 4384,
      "Ġvisit": 4385,
      "ĠApril": 4386,
      "Do": 4387,
      "Ġdeep": 4388,
      "ĠGo": 4389,
      "Ġimm": 4390,
      "Ġproduced": 4391,
      "Ġdevices": 4392,
      "Ġlegal": 4393,
      "ĠRed": 4394,
      "Ġimages": 4395,
      "UL": 4396,
      "ĠHouse": 4397,
      "Ġrelig": 4398,
      "uthor": 4399,
      "Ġeye": 4400,
      "alt": 4401,
      "ĠTra": 4402,
      "ĠFrom": 4403,
      "bon": 4404,
      "Ġuses": 4405,
      "}}}": 4406,
      "Ġinteraction": 4407,
      "Ġperfect": 4408,
      "reme": 4409,
      "ocation": 4410,
      "actor": 4411,
      "Ġqual": 4412,
      "Ġregular": 4413,
      "Ġreduce": 4414,
      "Ġlat": 4415,
      "ĠJanuary": 4416,
      "\\*": 4417,
      "They": 4418,
      "Ġplas": 4419,
      "Ġampl": 4420,
      "Ġsupported": 4421,
      "Ġvictim": 4422,
      "fra": 4423,
      "Ġsources": 4424,
      "itable": 4425,
      "isco": 4426,
      "ĠSchool": 4427,
      "Ġselected": 4428,
      "Ġfields": 4429,
      "ĠDistrict": 4430,
      "Ġwoman": 4431,
      "Ġrestr": 4432,
      "Ġvariables": 4433,
      "space": 4434,
      "Ġfully": 4435,
      "ned": 4436,
      "source": 4437,
      "cluded": 4438,
      "Ġsites": 4439,
      "pol": 4440,
      "ĠOct": 4441,
      "Oh": 4442,
      "Ġhon": 4443,
      "Ġstated": 4444,
      "config": 4445,
      "ails": 4446,
      "Ġsoon": 4447,
      "Ġparameter": 4448,
      "ris": 4449,
      "Ġ]": 4450,
      "Ġlock": 4451,
      "odies": 4452,
      "nonumber": 4453,
      "Ġjury": 4454,
      "Ġ2014": 4455,
      "Ġshowing": 4456,
      "fil": 4457,
      "Ġpsy": 4458,
      "Ġeasily": 4459,
      "nes": 4460,
      "ĠCD": 4461,
      "ada": 4462,
      "ĠGerm": 4463,
      "ĠOf": 4464,
      "Ġenjoy": 4465,
      "block": 4466,
      "ĠRev": 4467,
      "Ġcritical": 4468,
      "Ġwebsite": 4469,
      "cin": 4470,
      "------": 4471,
      "Ġindustry": 4472,
      "Ġcompanies": 4473,
      "yond": 4474,
      "rought": 4475,
      "Ġletter": 4476,
      "Ġtim": 4477,
      "ĠSch": 4478,
      "ĠSuper": 4479,
      "Ġstock": 4480,
      "Ġaspect": 4481,
      "Ġcolumn": 4482,
      "ouch": 4483,
      "ĠAng": 4484,
      "Ġvot": 4485,
      "Ġcontribut": 4486,
      "ĠMoreover": 4487,
      "ashington": 4488,
      "PL": 4489,
      "\\<": 4490,
      "bra": 4491,
      "arning": 4492,
      "Ġacqu": 4493,
      "lang": 4494,
      "Ġsound": 4495,
      "Ġweb": 4496,
      "gram": 4497,
      "oring": 4498,
      "Ġappropriate": 4499,
      "itter": 4500,
      "lick": 4501,
      "Ġ2008": 4502,
      "Ġcapital": 4503,
      "Index": 4504,
      "Over": 4505,
      "ĠNULL": 4506,
      "Ġsym": 4507,
      "Ġeyes": 4508,
      "Ġparticipants": 4509,
      "Ġmer": 4510,
      "ulate": 4511,
      "SC": 4512,
      "iated": 4513,
      "Ġbegan": 4514,
      "ĠAug": 4515,
      "Ġoptical": 4516,
      "osing": 4517,
      "ĠNow": 4518,
      "anger": 4519,
      "Ġseek": 4520,
      "Ġcomplic": 4521,
      "Ġcommunication": 4522,
      "host": 4523,
      "ptr": 4524,
      "Ġ35": 4525,
      "Ġprocessing": 4526,
      "Ġjudgment": 4527,
      "Fe": 4528,
      "Ġdensity": 4529,
      "Ġprop": 4530,
      "uman": 4531,
      "illing": 4532,
      "ĠWest": 4533,
      "Ġinterview": 4534,
      "Config": 4535,
      "Ġcapac": 4536,
      "Ġhyper": 4537,
      "Ġestablished": 4538,
      "Ġrevealed": 4539,
      "DA": 4540,
      "Ġplease": 4541,
      "Ġvariable": 4542,
      "Ġmess": 4543,
      "Ġbeyond": 4544,
      "Ġchanged": 4545,
      "estern": 4546,
      "ĠId": 4547,
      "Ġleading": 4548,
      "Ġconsistent": 4549,
      "Ġfa": 4550,
      "Ġfine": 4551,
      "ĠGr": 4552,
      "Ġsubsequ": 4553,
      "Ġsurpr": 4554,
      "Ġchoose": 4555,
      "%;": 4556,
      "eria": 4557,
      "Ġtowards": 4558,
      "Ġstaff": 4559,
      "racy": 4560,
      "Ġprogress": 4561,
      "ridge": 4562,
      "ĠDepartment": 4563,
      "ius": 4564,
      "reak": 4565,
      "Ġdrive": 4566,
      "ios": 4567,
      "iform": 4568,
      "abled": 4569,
      "Ġhighest": 4570,
      "Ġabsol": 4571,
      "CE": 4572,
      "Ġbacter": 4573,
      "AE": 4574,
      "Ġmaximum": 4575,
      "input": 4576,
      "Ġstim": 4577,
      "annel": 4578,
      "Ġcat": 4579,
      "Info": 4580,
      "Ġactivities": 4581,
      "Ġchalleng": 4582,
      ")]": 4583,
      "inct": 4584,
      "ĠRNA": 4585,
      "2019": 4586,
      "lock": 4587,
      "local": 4588,
      "ĊĊĠĠĠĠĠ": 4589,
      "Ġbed": 4590,
      "Ġnor": 4591,
      "ĠData": 4592,
      "Ġ[**": 4593,
      "oken": 4594,
      "Ġpurch": 4595,
      "ĠAustral": 4596,
      "cil": 4597,
      "Ġvo": 4598,
      "Ġwrote": 4599,
      "Ġbuilt": 4600,
      "appa": 4601,
      "Ġgiving": 4602,
      "orney": 4603,
      "Ġeffic": 4604,
      "ĠTw": 4605,
      "Ġzero": 4606,
      "ĠAlso": 4607,
      "Ġschools": 4608,
      "Ð¾Ð": 4609,
      "WebKit": 4610,
      "Ġfather": 4611,
      "Ġnation": 4612,
      "ĠTest": 4613,
      "ĠDr": 4614,
      "Ġleaders": 4615,
      "ze": 4616,
      "Ġjustice": 4617,
      "Ġphosph": 4618,
      "iam": 4619,
      "Ġeth": 4620,
      "ĠFeb": 4621,
      "Ġcompletely": 4622,
      "Ġliqu": 4623,
      "bi": 4624,
      "Ġwife": 4625,
      "ights": 4626,
      "Ġactual": 4627,
      "GLX": 4628,
      "ĠÎ¼": 4629,
      "enge": 4630,
      "Ġband": 4631,
      "Ġexerc": 4632,
      "xy": 4633,
      "omy": 4634,
      "otimes": 4635,
      "ĠSy": 4636,
      "Ġones": 4637,
      "Ġlocated": 4638,
      "Item": 4639,
      "case": 4640,
      "ride": 4641,
      "Ġaw": 4642,
      "Ġmag": 4643,
      "rot": 4644,
      "Ġwasn": 4645,
      "Psi": 4646,
      "df": 4647,
      "ĠĠĠĠĠĠĠĠĠĠĠĠĠĠĠĠĠĠ": 4648,
      "ĠDet": 4649,
      "Ġdoor": 4650,
      "Ġbuy": 4651,
      "Ġcarried": 4652,
      "Ġarrest": 4653,
      "Ġconnected": 4654,
      "Build": 4655,
      "[^": 4656,
      "Ġwall": 4657,
      "status": 4658,
      "Ġlabor": 4659,
      "Ġult": 4660,
      "Ġproof": 4661,
      "Ġmanufact": 4662,
      "Ġinterpret": 4663,
      "Ġcollege": 4664,
      "âĢĥ": 4665,
      "Ġuns": 4666,
      "='": 4667,
      "ãĥ": 4668,
      "ctors": 4669,
      "Ġstru": 4670,
      "result": 4671,
      "Ġdead": 4672,
      "thon": 4673,
      "Ġcounter": 4674,
      "ä¹¡": 4675,
      "Ct": 4676,
      "heck": 4677,
      "Ġ45": 4678,
      "Ġworked": 4679,
      "######": 4680,
      "Ġsociety": 4681,
      "Ġrow": 4682,
      "ĠCons": 4683,
      "Ġinteresting": 4684,
      "Ġremains": 4685,
      "build": 4686,
      "Ġculture": 4687,
      "PE": 4688,
      "utive": 4689,
      "Ġreports": 4690,
      "Ġmeaning": 4691,
      "Ġmachine": 4692,
      "Time": 4693,
      "iate": 4694,
      "lay": 4695,
      "icip": 4696,
      "////": 4697,
      "FL": 4698,
      "Ġcam": 4699,
      "Ġ$(\\": 4700,
      "Ġscore": 4701,
      "Ġreceive": 4702,
      "Event": 4703,
      "imony": 4704,
      "ĠPublic": 4705,
      "istry": 4706,
      "Ġclosed": 4707,
      "obile": 4708,
      "Ġblog": 4709,
      "]\\],": 4710,
      "Ġcouple": 4711,
      "Ġbasic": 4712,
      "ĠIsland": 4713,
      "och": 4714,
      "rate": 4715,
      "Ġmice": 4716,
      "Ġhar": 4717,
      "Ġgreen": 4718,
      "Ġtransform": 4719,
      "Ġclearly": 4720,
      "Ġconsequ": 4721,
      "Ġroad": 4722,
      "Ġprocedure": 4723,
      "ait": 4724,
      "Ġhair": 4725,
      "olds": 4726,
      "Out": 4727,
      "fort": 4728,
      "Ġcast": 4729,
      "Ġdetected": 4730,
      "Ġitems": 4731,
      "Ġsq": 4732,
      "Ġvs": 4733,
      "Ġrules": 4734,
      "Ġreflect": 4735,
      "Ġmajority": 4736,
      "Ġwriting": 4737,
      "Ġson": 4738,
      "Ġinteger": 4739,
      "ĠWhich": 4740,
      "Be": 4741,
      "Ġcyt": 4742,
      "Ġhear": 4743,
      "enses": 4744,
      "aily": 4745,
      "ĠVal": 4746,
      "ovember": 4747,
      "Ġwidth": 4748,
      "gy": 4749,
      "ky": 4750,
      "amin": 4751,
      "ader": 4752,
      "force": 4753,
      "Ġachieve": 4754,
      "&\\": 4755,
      "aling": 4756,
      "oles": 4757,
      "}}_{": 4758,
      "Ġresulting": 4759,
      "rence": 4760,
      "ãĤ": 4761,
      "Ġensure": 4762,
      "Ġbrought": 4763,
      "rier": 4764,
      "Ġtrust": 4765,
      "Ġscient": 4766,
      "Ġtransition": 4767,
      "Ġlooks": 4768,
      "Up": 4769,
      "Ġlives": 4770,
      "Ġbecomes": 4771,
      "conne": 4772,
      "Ġtrade": 4773,
      "ĠAny": 4774,
      "Ġapplications": 4775,
      "Simplify": 4776,
      "irit": 4777,
      "current": 4778,
      "node": 4779,
      "Ġdim": 4780,
      "plit": 4781,
      "Ġ80": 4782,
      "Which": 4783,
      "********************************": 4784,
      "ĠEuropean": 4785,
      "EM": 4786,
      "scal": 4787,
      "Ġsteps": 4788,
      "Ġprove": 4789,
      "Ġnoted": 4790,
      "Size": 4791,
      "Ġmys": 4792,
      "ĠBecause": 4793,
      "ĠWashington": 4794,
      "....": 4795,
      "Ġrelatively": 4796,
      "Ġmorning": 4797,
      "ĠJuly": 4798,
      "Ġobvious": 4799,
      "Ġ95": 4800,
      "attle": 4801,
      "bur": 4802,
      "Ġworth": 4803,
      "Ġviolence": 4804,
      "webkit": 4805,
      ".[@": 4806,
      "ees": 4807,
      "free": 4808,
      "ened": 4809,
      "Ġtoward": 4810,
      "ĠMich": 4811,
      "Ġregions": 4812,
      "RAF": 4813,
      "cor": 4814,
      "Ġ37": 4815,
      "Ġresistance": 4816,
      "active": 4817,
      "Ġdiscl": 4818,
      "Ġconserv": 4819,
      "Ġrob": 4820,
      "supplementary": 4821,
      "enu": 4822,
      "itory": 4823,
      "Ġbeaut": 4824,
      "ĠSec": 4825,
      "umb": 4826,
      "anged": 4827,
      "rench": 4828,
      "BS": 4829,
      "ĠMark": 4830,
      "Ġbelong": 4831,
      "ESS": 4832,
      "Ġreplacement": 4833,
      "After": 4834,
      "Ser": 4835,
      "flo": 4836,
      "Ġpull": 4837,
      "Ġround": 4838,
      "efore": 4839,
      "First": 4840,
      "Ġforms": 4841,
      "Ġotherwise": 4842,
      "Ġadvant": 4843,
      "Ġseparate": 4844,
      ")^": 4845,
      "}-": 4846,
      "ventional": 4847,
      "ĠIndia": 4848,
      "atically": 4849,
      "Ġ((": 4850,
      "apan": 4851,
      "Ġworkers": 4852,
      "undred": 4853,
      "Ġconflic": 4854,
      "Ġslight": 4855,
      "icted": 4856,
      "Ġ2015": 4857,
      "Ġ2009": 4858,
      "Ġprograms": 4859,
      "Ġopinion": 4860,
      "vari": 4861,
      "erve": 4862,
      "opl": 4863,
      "Ġindicate": 4864,
      "Ġmovement": 4865,
      "\"><": 4866,
      "Ġsn": 4867,
      "Ġbottom": 4868,
      "Ġgoes": 4869,
      "Ġindicated": 4870,
      "mole": 4871,
      "xf": 4872,
      "ä¸": 4873,
      "Ġaware": 4874,
      "atin": 4875,
      "ĠAdd": 4876,
      "resh": 4877,
      "Ġsec": 4878,
      "apter": 4879,
      "Ġremember": 4880,
      "Ġsomet": 4881,
      ".$": 4882,
      "ki": 4883,
      "itro": 4884,
      "Ġkin": 4885,
      "overn": 4886,
      "Ġcarry": 4887,
      "Ġdro": 4888,
      "race": 4889,
      "Ġtravel": 4890,
      "DB": 4891,
      "Ġfair": 4892,
      "izer": 4893,
      "Ġmodern": 4894,
      "Ġwave": 4895,
      "Ġdark": 4896,
      "Ġlov": 4897,
      "Ġcareer": 4898,
      "Ġanalyzed": 4899,
      "jection": 4900,
      "Ġfuel": 4901,
      "Ġeight": 4902,
      "ĠLa": 4903,
      "Ġinteg": 4904,
      "Ġpopular": 4905,
      "Ġpaid": 4906,
      "Ġwonder": 4907,
      "čĊĠ": 4908,
      "Ġnearly": 4909,
      "apping": 4910,
      "Ġcharacteristics": 4911,
      "reedom": 4912,
      "/(-": 4913,
      "Ġactions": 4914,
      "Ġcru": 4915,
      "Ġnorm": 4916,
      "ĠSpec": 4917,
      "Ġstore": 4918,
      "Ġadjust": 4919,
      "Ġ<=": 4920,
      "ocket": 4921,
      "Ġpeak": 4922,
      "Ġproduce": 4923,
      "encing": 4924,
      "sd": 4925,
      "tes": 4926,
      "Ġ(!": 4927,
      "ĠAccording": 4928,
      "Ġcomments": 4929,
      "ĠFLA": 4930,
      "Ġgets": 4931,
      "gery": 4932,
      "Lambda": 4933,
      "Ġ36": 4934,
      "Ġ90": 4935,
      "Ġvisual": 4936,
      "Ġjudge": 4937,
      "Ġbenefits": 4938,
      "Ġmagnetic": 4939,
      "(_": 4940,
      "ĠArt": 4941,
      "Ġexception": 4942,
      "Ġmac": 4943,
      "Ġmiddle": 4944,
      "Ġdecided": 4945,
      "ĠComp": 4946,
      "Ġstarting": 4947,
      "Ġmoving": 4948,
      "Ġhappened": 4949,
      "SS": 4950,
      "rees": 4951,
      "adem": 4952,
      "###": 4953,
      "Ġassuming": 4954,
      "MR": 4955,
      "mar": 4956,
      "Â·": 4957,
      "Ġbud": 4958,
      "unk": 4959,
      "Ġcollection": 4960,
      "Ġoperator": 4961,
      "orb": 4962,
      "otal": 4963,
      "Ġchance": 4964,
      "ANT": 4965,
      "Ġloop": 4966,
      "Ð°Ð": 4967,
      "Ġsympt": 4968,
      "ĠCode": 4969,
      "ĠCON": 4970,
      "ria": 4971,
      "ĠRec": 4972,
      "Ġtestimony": 4973,
      "Ġsuggested": 4974,
      "Ġessential": 4975,
      "Map": 4976,
      "PO": 4977,
      "ingly": 4978,
      "Ġtown": 4979,
      "igation": 4980,
      "ĠKing": 4981,
      "varphi": 4982,
      "Ġcalculated": 4983,
      "fn": 4984,
      "itors": 4985,
      "Ġswitch": 4986,
      "LECT": 4987,
      "Ġbiggest": 4988,
      "Ġtypically": 4989,
      "which": 4990,
      "Ġconcept": 4991,
      "Ġ\"[": 4992,
      "Ġshape": 4993,
      "ogene": 4994,
      "Ġknew": 4995,
      "duc": 4996,
      "ĠInst": 4997,
      "Ġbirth": 4998,
      "éķ": 4999,
      "ica": 5000,
      "Ġtool": 5001,
      "Ġrese": 5002,
      "Ġplant": 5003,
      "Char": 5004,
      "irt": 5005,
      "ĠChar": 5006,
      "ĠChristian": 5007,
      "{\"": 5008,
      "Ġshot": 5009,
      "cember": 5010,
      "rab": 5011,
      "ĠNovember": 5012,
      "Ġsafe": 5013,
      "Ġenter": 5014,
      "othe": 5015,
      "Ġsets": 5016,
      "ĠAND": 5017,
      "Ġconcentration": 5018,
      "Ġopportunity": 5019,
      "Ġliquid": 5020,
      "kappa": 5021,
      "poses": 5022,
      "Ġsubstr": 5023,
      "Ġturned": 5024,
      "Sec": 5025,
      "otype": 5026,
      "opic": 5027,
      "Ġroll": 5028,
      "Ġextract": 5029,
      "Ġfiled": 5030,
      "ĠResearch": 5031,
      "Ġconducted": 5032,
      "Ġutil": 5033,
      "Ġtools": 5034,
      "ĠSU": 5035,
      "Ġ48": 5036,
      "Ġdefense": 5037,
      "Ġmedium": 5038,
      "Ġdownload": 5039,
      "Ġelectro": 5040,
      "Ġjobs": 5041,
      "Ġthous": 5042,
      "Ġrepl": 5043,
      "Ġcool": 5044,
      "Ġvariety": 5045,
      "ĠCommission": 5046,
      "Ġreasonable": 5047,
      "Ġexisting": 5048,
      "stitute": 5049,
      "Ġcomparison": 5050,
      "Cre": 5051,
      "Ġten": 5052,
      "urrent": 5053,
      "iforn": 5054,
      "Ġconver": 5055,
      "Color": 5056,
      "Ġinfluence": 5057,
      "gn": 5058,
      "ui": 5059,
      "xx": 5060,
      "čĊĉ": 5061,
      "erate": 5062,
      "Ġexplicit": 5063,
      "Ġdisk": 5064,
      "Ġplayed": 5065,
      "Ġsolid": 5066,
      "Ġconnect": 5067,
      "Ġdatabase": 5068,
      "ĠBoard": 5069,
      "<!": 5070,
      "room": 5071,
      "ĠCH": 5072,
      ")/(-": 5073,
      "Ġvirt": 5074,
      "Ġmount": 5075,
      "Ġnumer": 5076,
      "}=\\": 5077,
      "Ġfit": 5078,
      "ouble": 5079,
      "Ġemot": 5080,
      "Ġemail": 5081,
      "Ġmetab": 5082,
      "option": 5083,
      "Trans": 5084,
      "ĠAugust": 5085,
      "éķĩ": 5086,
      "gments": 5087,
      "title": 5088,
      "Ġwide": 5089,
      "itis": 5090,
      "rael": 5091,
      "ĠCong": 5092,
      "ĠWork": 5093,
      "Ġremainder": 5094,
      "Ġmoved": 5095,
      "Ġdemand": 5096,
      "Ġpanel": 5097,
      "%,": 5098,
      "Ġhous": 5099,
      "Ġobjects": 5100,
      "ĠUSA": 5101,
      "Ġdiscussed": 5102,
      "ĠPaul": 5103,
      "allel": 5104,
      "ju": 5105,
      "md": 5106,
      "Ġ(**": 5107,
      "ĠSw": 5108,
      "cles": 5109,
      "Ġphone": 5110,
      "Ġthroughout": 5111,
      "Ġlooked": 5112,
      "subset": 5113,
      "Ġcombination": 5114,
      "Ġwitness": 5115,
      "rie": 5116,
      "Ġconfirmed": 5117,
      "stitution": 5118,
      "Ġdamage": 5119,
      "Element": 5120,
      "\\!": 5121,
      "kay": 5122,
      "ĠGet": 5123,
      "Ġresources": 5124,
      "under": 5125,
      "ĠĠĠĠĠĠĠĠĠĠĠĠĠĠĠĠĠĠĠ": 5126,
      "Ġsevere": 5127,
      "ounced": 5128,
      "Ġandroid": 5129,
      "ĠAD": 5130,
      "aching": 5131,
      "Ġadministration": 5132,
      "Ġstraight": 5133,
      ".*": 5134,
      "dots": 5135,
      "Ġrecept": 5136,
      "Ġfinally": 5137,
      "Ġassume": 5138,
      "iable": 5139,
      "Ġrepe": 5140,
      "Ġstar": 5141,
      "Ġpackage": 5142,
      "Ġpsych": 5143,
      "ares": 5144,
      "len": 5145,
      "Ġfix": 5146,
      "ĠST": 5147,
      "atever": 5148,
      "Ġweap": 5149,
      "Ġshift": 5150,
      "Ġ70": 5151,
      "Ġcycle": 5152,
      "\"),": 5153,
      "Ġcit": 5154,
      "ipment": 5155,
      "ĠEnglish": 5156,
      "mark": 5157,
      "Ġmale": 5158,
      "003": 5159,
      "Ġjava": 5160,
      "ĠSection": 5161,
      "ĠDavid": 5162,
      "known": 5163,
      "ipe": 5164,
      "isd": 5165,
      "Ġmur": 5166,
      "omin": 5167,
      "img": 5168,
      "Ġdistributed": 5169,
      "Can": 5170,
      "Ref": 5171,
      "Ġbrief": 5172,
      "omic": 5173,
      "Ġheight": 5174,
      "Ġowners": 5175,
      "Ġign": 5176,
      "Ġpul": 5177,
      "Ġ${": 5178,
      "Ġsecret": 5179,
      "Ġbutton": 5180,
      "EST": 5181,
      "Ġinsert": 5182,
      "ĠLeague": 5183,
      "Ġbeginning": 5184,
      "Ġparents": 5185,
      "Ġcivil": 5186,
      "ĠSep": 5187,
      "Ġheard": 5188,
      "acters": 5189,
      "Ġclub": 5190,
      "Ġmaybe": 5191,
      "Ġblue": 5192,
      "ĠWhite": 5193,
      "Ġportion": 5194,
      "Ġreleased": 5195,
      "ifornia": 5196,
      "Ġcert": 5197,
      "ingu": 5198,
      "enty": 5199,
      "ptions": 5200,
      "Ġrace": 5201,
      "Ġstrategy": 5202,
      "ille": 5203,
      "image": 5204,
      "ĠHol": 5205,
      "Ġlearning": 5206,
      "Ġdrink": 5207,
      "Ġquickly": 5208,
      "Ġmyself": 5209,
      "molecules": 5210,
      "Ġparties": 5211,
      "Ġgradu": 5212,
      "Ġcontrols": 5213,
      "imensional": 5214,
      "ilies": 5215,
      "Ġrare": 5216,
      "Ġmeeting": 5217,
      "Ġmg": 5218,
      "icity": 5219,
      "eturn": 5220,
      "Ġnice": 5221,
      "Here": 5222,
      "Ġlaws": 5223,
      "Ġregarding": 5224,
      "plugin": 5225,
      "Ġsometimes": 5226,
      "IA": 5227,
      "Solve": 5228,
      "['": 5229,
      "Ġtend": 5230,
      "anch": 5231,
      "Ġdog": 5232,
      "roy": 5233,
      "ado": 5234,
      "ĠEl": 5235,
      "iques": 5236,
      "Ġskin": 5237,
      "ĠCenter": 5238,
      "Ġinternational": 5239,
      "Ent": 5240,
      "bin": 5241,
      "ĠĊĠ": 5242,
      "ĠSupp": 5243,
      "Ġexpos": 5244,
      "oses": 5245,
      "Ġanalys": 5246,
      "Ġstatist": 5247,
      "-.": 5248,
      "PD": 5249,
      "Ġdespite": 5250,
      "Ġrelation": 5251,
      "Ġremove": 5252,
      ")).": 5253,
      "null": 5254,
      "Ġnamed": 5255,
      "icking": 5256,
      "Request": 5257,
      "Ġsuggests": 5258,
      "ĠTechn": 5259,
      "_*": 5260,
      "pir": 5261,
      "Ġreaction": 5262,
      "ĠSN": 5263,
      "Ġsuff": 5264,
      "Ġrank": 5265,
      "Ġplatform": 5266,
      "Ġformed": 5267,
      "bol": 5268,
      "ny": 5269,
      "atur": 5270,
      "Ġfear": 5271,
      "asis": 5272,
      "api": 5273,
      "Ġarch": 5274,
      "ferent": 5275,
      "Ġextrem": 5276,
      "ĠFigure": 5277,
      "Ġmechanism": 5278,
      "SD": 5279,
      "ĠEast": 5280,
      "ĠEven": 5281,
      "Ġcoord": 5282,
      "model": 5283,
      "Ġexpand": 5284,
      "Ġsafety": 5285,
      "\").": 5286,
      "Ab": 5287,
      "ĠHigh": 5288,
      "Ġ33": 5289,
      "ĠâĢ¦": 5290,
      "fected": 5291,
      "Ġ/**": 5292,
      "ART": 5293,
      "Ġalgorithm": 5294,
      "lib": 5295,
      "Ġtherapy": 5296,
      "Ġsen": 5297,
      "Ġms": 5298,
      "ĠHer": 5299,
      "create": 5300,
      "ponent": 5301,
      "Ġfemale": 5302,
      "Ġrapid": 5303,
      "rated": 5304,
      "ico": 5305,
      "005": 5306,
      "ĠBr": 5307,
      "Ġdismiss": 5308,
      "Ġinduced": 5309,
      "SQL": 5310,
      "hand": 5311,
      "rep": 5312,
      "repeat": 5313,
      "Ġfell": 5314,
      "ĠTheorem": 5315,
      "berg": 5316,
      "Ġreturned": 5317,
      "Ġextension": 5318,
      "Ġoptim": 5319,
      "frame": 5320,
      "ĠMo": 5321,
      "Ġtalking": 5322,
      "Ġcircumst": 5323,
      "IO": 5324,
      "Ġcatch": 5325,
      "alax": 5326,
      "igration": 5327,
      "ĠSan": 5328,
      "Ġmanner": 5329,
      "module": 5330,
      "Ġestablish": 5331,
      "dot": 5332,
      "ascular": 5333,
      "omorph": 5334,
      "Ġneur": 5335,
      "indu": 5336,
      "Ġcommerc": 5337,
      "Ġthinking": 5338,
      "Ġdenied": 5339,
      "Ġvolt": 5340,
      "Ġalternative": 5341,
      "Ġcore": 5342,
      "ĠBro": 5343,
      "Ġdescription": 5344,
      "Ġplaying": 5345,
      "lamm": 5346,
      "aine": 5347,
      "ĠJapan": 5348,
      "Ġ});": 5349,
      "Ġedge": 5350,
      "Ġcrim": 5351,
      "ĠOctober": 5352,
      "etes": 5353,
      "utor": 5354,
      "Ġunc": 5355,
      "Ġtransport": 5356,
      "true": 5357,
      "Ġexplain": 5358,
      "PRO": 5359,
      "^âĪĴ": 5360,
      "eed": 5361,
      "Ġtree": 5362,
      "Ġpush": 5363,
      "icial": 5364,
      "Ġhundred": 5365,
      "Ġnode": 5366,
      "ago": 5367,
      "ĠOther": 5368,
      "Ġrespond": 5369,
      "tember": 5370,
      "Ġhands": 5371,
      "Ġdemonstrated": 5372,
      "riage": 5373,
      "Ġjo": 5374,
      "ĠJes": 5375,
      "operative": 5376,
      "Ġanimals": 5377,
      "aran": 5378,
      "Ġdu": 5379,
      "omb": 5380,
      "Ġproviding": 5381,
      "Ġincor": 5382,
      "Ġcorrelation": 5383,
      "ĠFurthermore": 5384,
      "Ġtissue": 5385,
      "GF": 5386,
      "nb": 5387,
      "Ġfelt": 5388,
      "opname": 5389,
      "Ġoutcome": 5390,
      "Ġupdate": 5391,
      "exp": 5392,
      "swift": 5393,
      "ruary": 5394,
      "Ġdefend": 5395,
      "dev": 5396,
      "Ġregul": 5397,
      "Ġminor": 5398,
      "Ġinterests": 5399,
      "Ġhappy": 5400,
      "hol": 5401,
      "Ġplans": 5402,
      "ponse": 5403,
      "Ġmaterials": 5404,
      "Ġfaith": 5405,
      "Per": 5406,
      "ael": 5407,
      "ĠSQL": 5408,
      "ĠPost": 5409,
      "Ġtested": 5410,
      "inese": 5411,
      "Ġbenefit": 5412,
      "Group": 5413,
      "PA": 5414,
      "Ġprol": 5415,
      "Ġnovel": 5416,
      "control": 5417,
      "ĠDemocr": 5418,
      "Ġalleged": 5419,
      "cher": 5420,
      "gress": 5421,
      "Ġwild": 5422,
      "istr": 5423,
      "ĠHIV": 5424,
      "Ġconstruction": 5425,
      "Ġimmediately": 5426,
      "Hand": 5427,
      "Ġbillion": 5428,
      "Ġincreases": 5429,
      "Ġ:=": 5430,
      "Ġmissing": 5431,
      "'$": 5432,
      ".](": 5433,
      "cial": 5434,
      "yr": 5435,
      "ĠMat": 5436,
      "Ġshoot": 5437,
      "Ġplaced": 5438,
      "airs": 5439,
      "Ġfold": 5440,
      "server": 5441,
      "Ġpassed": 5442,
      "package": 5443,
      "Ġion": 5444,
      "Ġimag": 5445,
      "apache": 5446,
      "Ġapparent": 5447,
      "247": 5448,
      "Ġbrother": 5449,
      "EXT": 5450,
      "Ġcapacity": 5451,
      "FN": 5452,
      "]:": 5453,
      "Ġupper": 5454,
      "Ġdose": 5455,
      "dered": 5456,
      "State": 5457,
      "../../../": 5458,
      "Fr": 5459,
      "Ġ(\"": 5460,
      "url": 5461,
      "Ġreserv": 5462,
      "Ġcluster": 5463,
      "nson": 5464,
      "ĠDecember": 5465,
      "Ġwait": 5466,
      "Ġstrength": 5467,
      "Ġ42": 5468,
      "Ġ};": 5469,
      "Ġminimum": 5470,
      "Ġproteins": 5471,
      "Ġneighbor": 5472,
      ")?": 5473,
      "OL": 5474,
      "Rec": 5475,
      "iful": 5476,
      "Ġsave": 5477,
      "Ġcontinued": 5478,
      "buf": 5479,
      "101": 5480,
      "^+": 5481,
      "hi": 5482,
      "eds": 5483,
      "ste": 5484,
      "Ġ\\,": 5485,
      "ĠLaw": 5486,
      "Ġ34": 5487,
      "Ġequivalent": 5488,
      "Ġmort": 5489,
      "iced": 5490,
      "iler": 5491,
      "sey": 5492,
      "semb": 5493,
      "ĠAc": 5494,
      "Function": 5495,
      "User": 5496,
      "draw": 5497,
      "rd": 5498,
      "raint": 5499,
      "Ġstuff": 5500,
      "Ġexchange": 5501,
      "Ġscen": 5502,
      "\\[[@": 5503,
      "Ġarguments": 5504,
      "Ġlegis": 5505,
      "UD": 5506,
      "Ġthrow": 5507,
      "Ġefficient": 5508,
      "Ġrout": 5509,
      "Ġmeasures": 5510,
      "Ġsuccessful": 5511,
      "Ġresponsible": 5512,
      "ĠObama": 5513,
      "what": 5514,
      "čĊĠĠĠĠĠ": 5515,
      "ilarly": 5516,
      "ĠAT": 5517,
      "Ġcompr": 5518,
      "Ġguid": 5519,
      "ifying": 5520,
      "Ġscreen": 5521,
      "BA": 5522,
      "acing": 5523,
      "Ġactivation": 5524,
      "Ġassociation": 5525,
      "Ġhistor": 5526,
      "Me": 5527,
      "Ġstable": 5528,
      "Ġprosec": 5529,
      "rian": 5530,
      "istant": 5531,
      "ĠNote": 5532,
      "ĠOff": 5533,
      "Ġhealthy": 5534,
      "Ġerrors": 5535,
      "Ġefforts": 5536,
      "Ġjurisd": 5537,
      "Ġbinding": 5538,
      "Ġded": 5539,
      "urity": 5540,
      "Ġconventional": 5541,
      "ĠPress": 5542,
      "acebook": 5543,
      "Ġtour": 5544,
      "ĠPark": 5545,
      "Ġcollected": 5546,
      "Ġsubjects": 5547,
      "\"},": 5548,
      "({\\": 5549,
      "SH": 5550,
      "mid": 5551,
      "gebra": 5552,
      "ĠBank": 5553,
      "Ġseven": 5554,
      "Ġserve": 5555,
      "operator": 5556,
      "ĠCalifornia": 5557,
      "Ġmusic": 5558,
      "ygen": 5559,
      "Ġcir": 5560,
      "orry": 5561,
      "ldots": 5562,
      "Ġupd": 5563,
      "Ġthank": 5564,
      "Ġformat": 5565,
      "Ġremoved": 5566,
      "pers": 5567,
      "src": 5568,
      "Ġfib": 5569,
      "Ġonto": 5570,
      "izations": 5571,
      "Ġwhereas": 5572,
      "ypes": 5573,
      "yan": 5574,
      "rome": 5575,
      "}}^{": 5576,
      "Ġdetection": 5577,
      "Ġrecommend": 5578,
      "Well": 5579,
      "aste": 5580,
      "ĠĠĠĠĠĠĠĠĠĠĠĠĠĠĠĠĠĠĠĠĠĠ": 5581,
      "Ġexternal": 5582,
      "Ġunf": 5583,
      ")/(": 5584,
      "Ġinjury": 5585,
      "Ġintroduced": 5586,
      "ĠFound": 5587,
      "ĠInte": 5588,
      "Ġappellant": 5589,
      "Collect": 5590,
      "Ġsexual": 5591,
      "Ġpetition": 5592,
      "rins": 5593,
      "heet": 5594,
      "iled": 5595,
      "Ġdesc": 5596,
      "Ġ2006": 5597,
      "Ġsleep": 5598,
      "core": 5599,
      "iance": 5600,
      "Ġdie": 5601,
      "ĠFl": 5602,
      "Ġtesting": 5603,
      "Ġcharacters": 5604,
      "2016": 5605,
      "Ġfluid": 5606,
      "Ġprofessional": 5607,
      "iant": 5608,
      "Ġbrain": 5609,
      "Ġlif": 5610,
      "Ġcorpor": 5611,
      "Ġclasses": 5612,
      "Ġcrime": 5613,
      "Ġcreating": 5614,
      "onna": 5615,
      "Ġsrc": 5616,
      "Ġhour": 5617,
      "oster": 5618,
      "Ġexperimental": 5619,
      "MI": 5620,
      "how": 5621,
      "vest": 5622,
      "ĠIll": 5623,
      "Ġpros": 5624,
      "Ġready": 5625,
      "Att": 5626,
      "Ġboundary": 5627,
      "Ġstrugg": 5628,
      "UG": 5629,
      "Ġsend": 5630,
      "Ġspread": 5631,
      "Ġfunctional": 5632,
      ",\\,": 5633,
      "Ġrefer": 5634,
      "Ġgrowing": 5635,
      "Ġsold": 5636,
      "Ġwants": 5637,
      "Ġpool": 5638,
      "Ġmill": 5639,
      "Ġconvers": 5640,
      "ĠOh": 5641,
      "ĠčĊĠĠĠĠ": 5642,
      "ĠAssoci": 5643,
      "iveness": 5644,
      "ĠMost": 5645,
      "Ġshock": 5646,
      "aker": 5647,
      "Ġfamilies": 5648,
      "going": 5649,
      "Ġdebt": 5650,
      "Ġillust": 5651,
      "ĠSmith": 5652,
      "Ġvehicle": 5653,
      "ĠSeptember": 5654,
      "BL": 5655,
      "Ste": 5656,
      "ban": 5657,
      "pg": 5658,
      "Ġring": 5659,
      "Ġarriv": 5660,
      "ologies": 5661,
      "ĠIsrael": 5662,
      "ĠIndian": 5663,
      "Ġprofile": 5664,
      "ographic": 5665,
      "+(": 5666,
      "Our": 5667,
      "ename": 5668,
      "Ġbul": 5669,
      "Ġ\\\"": 5670,
      "Ġsurgery": 5671,
      "Ġstatements": 5672,
      "anned": 5673,
      "indows": 5674,
      "Ġfat": 5675,
      "iling": 5676,
      "Ġkilled": 5677,
      "Ġunits": 5678,
      "Ġeconomy": 5679,
      "Ġchemical": 5680,
      "ĠCongress": 5681,
      "UI": 5682,
      "weet": 5683,
      "Ġprocesses": 5684,
      "ĠBlack": 5685,
      "Ġprepared": 5686,
      "gtk": 5687,
      "500": 5688,
      ":\\": 5689,
      "inity": 5690,
      "aby": 5691,
      "ĠPB": 5692,
      "Ġliver": 5693,
      "Ġdiscussion": 5694,
      "Ġestimated": 5695,
      "Ġexercise": 5696,
      ":\"": 5697,
      "parent": 5698,
      "Ġelection": 5699,
      "Ġdiss": 5700,
      "Ġagreed": 5701,
      "Ġintervention": 5702,
      "Ġvirus": 5703,
      "kg": 5704,
      "pet": 5705,
      "Ġtrou": 5706,
      "ications": 5707,
      "Ġdistinct": 5708,
      "Ġexplained": 5709,
      "Ġforeign": 5710,
      "Ġcriminal": 5711,
      ")=\\": 5712,
      "flow": 5713,
      "Ð½": 5714,
      "ĠTV": 5715,
      "ĠUK": 5716,
      "ĠStreet": 5717,
      "Ġyourself": 5718,
      "3333": 5719,
      "Ġcauses": 5720,
      "Ġcontained": 5721,
      "Ġinvolve": 5722,
      "Query": 5723,
      "Ġmentioned": 5724,
      "_-": 5725,
      "page": 5726,
      "Ġterror": 5727,
      "Ġeat": 5728,
      "Ġ{\"": 5729,
      "Ġplaces": 5730,
      "Ġtechniques": 5731,
      "Ġaffected": 5732,
      "small": 5733,
      "Ġ--------": 5734,
      "osen": 5735,
      "ĠEv": 5736,
      "php": 5737,
      "ĠInter": 5738,
      "Ġuniform": 5739,
      "ailed": 5740,
      "lication": 5741,
      "Ġtransmission": 5742,
      "ĠPeople": 5743,
      "*^": 5744,
      "AF": 5745,
      "Pr": 5746,
      "UE": 5747,
      "ifier": 5748,
      "2013": 5749,
      "Ġoperations": 5750,
      "Ġresponses": 5751,
      "board": 5752,
      "ĠInternational": 5753,
      "Ġtherm": 5754,
      "Ġpow": 5755,
      "Ġrepro": 5756,
      "Ġreached": 5757,
      "ellig": 5758,
      "aught": 5759,
      ".'": 5760,
      "Big": 5761,
      "SR": 5762,
      "write": 5763,
      "select": 5764,
      "Ġprepar": 5765,
      "ĠCommun": 5766,
      "Ġimproved": 5767,
      "Ġdecreased": 5768,
      "Model": 5769,
      "ĠFebruary": 5770,
      "pass": 5771,
      "endif": 5772,
      "Ġbuffer": 5773,
      "blog": 5774,
      "Ġtechnique": 5775,
      "Ġolder": 5776,
      "Ġwarrant": 5777,
      "Image": 5778,
      "][@": 5779,
      "ython": 5780,
      "Ġstation": 5781,
      "abric": 5782,
      "actory": 5783,
      "Ġteams": 5784,
      "ĠChinese": 5785,
      "poss": 5786,
      "find": 5787,
      "Ġdut": 5788,
      "ĠHam": 5789,
      "Ġunless": 5790,
      "Inst": 5791,
      "Ġstudied": 5792,
      "Ġsubs": 5793,
      "Ġpossibility": 5794,
      "Ġoccup": 5795,
      "Base": 5796,
      "FO": 5797,
      "aud": 5798,
      "})$": 5799,
      "ĠĊĠĠĠ": 5800,
      "ĠIP": 5801,
      "Ġ38": 5802,
      "Ġspecifically": 5803,
      "Ġinsurance": 5804,
      "Ċĉĉĉĉĉ": 5805,
      "Ġspectra": 5806,
      "*)": 5807,
      "ooth": 5808,
      "Ġfreedom": 5809,
      "level": 5810,
      "ĠTO": 5811,
      "Ġproport": 5812,
      "qual": 5813,
      "See": 5814,
      "Service": 5815,
      "care": 5816,
      "ida": 5817,
      "Ġsto": 5818,
      "While": 5819,
      "Ġexperiment": 5820,
      "has": 5821,
      "Ġsession": 5822,
      "ota": 5823,
      "uesday": 5824,
      "Ġprobability": 5825,
      "color": 5826,
      "Date": 5827,
      "aratus": 5828,
      "iment": 5829,
      "ĠFrench": 5830,
      "Ġsyn": 5831,
      "Ġsitu": 5832,
      "Ġchallenge": 5833,
      "[]": 5834,
      "}}_": 5835,
      "Ġpolic": 5836,
      "Ġrecords": 5837,
      "Ġderived": 5838,
      "Ċĉĉĉĉĉĉ": 5839,
      "Ġclosest": 5840,
      "________________": 5841,
      "method": 5842,
      "soft": 5843,
      "Ġhus": 5844,
      "Ġlib": 5845,
      "sem": 5846,
      "Ġstorage": 5847,
      "Ġplate": 5848,
      "Ġsolutions": 5849,
      "Ġcertainly": 5850,
      "Ġrequirements": 5851,
      "Ġapproximately": 5852,
      "Ġaward": 5853,
      "cho": 5854,
      "ĠĠĠĠĠĠĠĠĠĠĠĠĠĠĠĠĠĠĠĠ": 5855,
      "oret": 5856,
      "pled": 5857,
      "Ġgenetic": 5858,
      "TS": 5859,
      "orter": 5860,
      "Ġoffered": 5861,
      "Ġexhib": 5862,
      "context": 5863,
      "contain": 5864,
      "sole": 5865,
      "Ġspent": 5866,
      "Ġraised": 5867,
      "Ġformation": 5868,
      "Ġfourth": 5869,
      "Ġmovie": 5870,
      "Ġsequences": 5871,
      "Ġdiseases": 5872,
      "Ġspectrum": 5873,
      "Ġcircumstances": 5874,
      "well": 5875,
      "inn": 5876,
      "raq": 5877,
      "ume": 5878,
      "cons": 5879,
      "initely": 5880,
      "Ġoccurred": 5881,
      "ĠJudge": 5882,
      ">(": 5883,
      "Point": 5884,
      "arth": 5885,
      "aser": 5886,
      "Ġgender": 5887,
      "olved": 5888,
      "ĠSuch": 5889,
      "agger": 5890,
      "ĊĠĠĠĠĠĠĠĠĠĠĠĠ": 5891,
      "Ġleads": 5892,
      "Ġoccurs": 5893,
      "Why": 5894,
      "idden": 5895,
      "Ġdecrease": 5896,
      "Ġpark": 5897,
      "omas": 5898,
      "-------": 5899,
      "olid": 5900,
      "ript": 5901,
      "Ġapparatus": 5902,
      "==========": 5903,
      "arian": 5904,
      "Ġguy": 5905,
      "Ġequation": 5906,
      "WH": 5907,
      "ĠRel": 5908,
      "Ġunivers": 5909,
      "greg": 5910,
      "ĠSup": 5911,
      "Ġprem": 5912,
      "ĠYour": 5913,
      "ĠBritish": 5914,
      "Sigma": 5915,
      "esis": 5916,
      "iders": 5917,
      "ĠAnt": 5918,
      "Ġkept": 5919,
      "Ġabsence": 5920,
      "Ġinvestigation": 5921,
      "Ġsymptoms": 5922,
      "Message": 5923,
      "NU": 5924,
      "ĊĊĠĠĠĠĠĠ": 5925,
      "Ġwind": 5926,
      "Ġmo": 5927,
      "lem": 5928,
      "ĠCS": 5929,
      "uled": 5930,
      "009": 5931,
      "ĠJack": 5932,
      "Ġsymm": 5933,
      "\"></": 5934,
      "Ġdiag": 5935,
      "Ġcompleted": 5936,
      "Log": 5937,
      "ira": 5938,
      "Ġsell": 5939,
      "orge": 5940,
      "asc": 5941,
      "amental": 5942,
      "Inte": 5943,
      "Ġfacts": 5944,
      "Ġfinite": 5945,
      "EO": 5946,
      "first": 5947,
      "rations": 5948,
      "ĠType": 5949,
      "âĢĲ": 5950,
      "ĠĠĠĠĠĠĠĠĠĠĠĠĠĠĠĠĠĠĠĠĠ": 5951,
      "Ġappoint": 5952,
      "Ġque": 5953,
      "Ġcombined": 5954,
      "Ġenvironmental": 5955,
      "ĠJesus": 5956,
      "IX": 5957,
      "Pat": 5958,
      "\\,": 5959,
      "ipp": 5960,
      "}'": 5961,
      "čĊĉĉĉ": 5962,
      "Ġcatal": 5963,
      "osite": 5964,
      "}}{": 5965,
      "Ġrepresentation": 5966,
      "Ġofficer": 5967,
      "Param": 5968,
      "Ġsubstantial": 5969,
      "dt": 5970,
      "Ġ;": 5971,
      "alysis": 5972,
      "abs": 5973,
      "isted": 5974,
      "Ġoffers": 5975,
      "prop": 5976,
      "Ġmonitor": 5977,
      "Ġprotection": 5978,
      ".</": 5979,
      "IB": 5980,
      "Ġadding": 5981,
      "Ġlargest": 5982,
      "Ġoperating": 5983,
      "description": 5984,
      "Ġfloat": 5985,
      "Ġcommercial": 5986,
      "Ġsymmet": 5987,
      "Ġ../../../": 5988,
      "urt": 5989,
      "Ġinterface": 5990,
      "ĠSecond": 5991,
      "Ġhandle": 5992,
      "ync": 5993,
      "Ġestimate": 5994,
      "Ġhttps": 5995,
      "umin": 5996,
      "ĠEm": 5997,
      "Ġdelay": 5998,
      "Ġplasma": 5999,
      "300": 6000,
      "TT": 6001,
      "ara": 6002,
      "asion": 6003,
      "ĠTwo": 6004,
      "reshold": 6005,
      "ĠPCR": 6006,
      "ĠKe": 6007,
      "Ġstructures": 6008,
      "mic": 6009,
      "oul": 6010,
      "Ġforces": 6011,
      "ĠAM": 6012,
      "Ġvac": 6013,
      "orders": 6014,
      "Inter": 6015,
      "Ġtraditional": 6016,
      "ias": 6017,
      "Ġclick": 6018,
      "Ġcalls": 6019,
      "ĠDefendant": 6020,
      "Ġcredit": 6021,
      "Ġprotocol": 6022,
      "']": 6023,
      "CK": 6024,
      "last": 6025,
      "ĠER": 6026,
      "ĊĠĠĠĠĠĠĠĠĠĠĠĠĠĠĠĠĠĠĠĠĠĠĠĠĠĠĠ": 6027,
      "Ġemployees": 6028,
      "Ġsusp": 6029,
      "Call": 6030,
      "Ġmarg": 6031,
      "Ġ2000": 6032,
      "_{-": 6033,
      "ĠEach": 6034,
      "Ġletters": 6035,
      "Ġruns": 6036,
      "ondon": 6037,
      "num": 6038,
      "ĠDon": 6039,
      "anging": 6040,
      "wood": 6041,
      "INT": 6042,
      "Fil": 6043,
      "post": 6044,
      "itivity": 6045,
      "Ġmix": 6046,
      "ĠSet": 6047,
      "Ġ64": 6048,
      "mem": 6049,
      "rient": 6050,
      "Ġadults": 6051,
      "Ġmolecular": 6052,
      "Ġexposure": 6053,
      "110": 6054,
      "Sp": 6055,
      "eloc": 6056,
      "ĠIraq": 6057,
      "raction": 6058,
      "uns": 6059,
      "ignment": 6060,
      "Ġkids": 6061,
      "Ġ<-": 6062,
      "Line": 6063,
      "rich": 6064,
      "Ġsav": 6065,
      "Ġcop": 6066,
      "004": 6067,
      "ĠJe": 6068,
      "Ġequipment": 6069,
      "Ġut": 6070,
      "eric": 6071,
      "isa": 6072,
      "Ġgain": 6073,
      "istent": 6074,
      "ressed": 6075,
      "Ġagents": 6076,
      "ATION": 6077,
      "ĠScience": 6078,
      "Ġslightly": 6079,
      "Ġdoll": 6080,
      "std": 6081,
      "Ġwhom": 6082,
      "Ġselection": 6083,
      "\",\"": 6084,
      "Ġcharged": 6085,
      "Ġexpert": 6086,
      "Ġcarbon": 6087,
      "Ġserved": 6088,
      "Ġscheme": 6089,
      "NE": 6090,
      "Op": 6091,
      "ivery": 6092,
      "Ġthick": 6093,
      "Ġhab": 6094,
      "ĠSing": 6095,
      "**]{},": 6096,
      "ĠRE": 6097,
      "Ġadapt": 6098,
      "Ġagent": 6099,
      "Ġ2019": 6100,
      "------------------------------------------------": 6101,
      "END": 6102,
      "Ġremaining": 6103,
      "ROM": 6104,
      "oute": 6105,
      "Ġarm": 6106,
      "Ġattract": 6107,
      "Ġincome": 6108,
      "Ġcircuit": 6109,
      "Ġconfiguration": 6110,
      "Ġtens": 6111,
      "ĠCG": 6112,
      "ĠĠĠĠĠĠĠĠĠĠĠĠĠĠĠĠĠĠĠĠĠĠĠĠĠĠĠĠĠĠĠĠĠĠĠĠĠĠĠĠĠĠĠĠĠĠĠĠĠĠĠĠĠĠĠĠ": 6113,
      "Ġoutcomes": 6114,
      "opyright": 6115,
      "Ġsentence": 6116,
      "Ġadvantage": 6117,
      "rinsic": 6118,
      "SU": 6119,
      "``": 6120,
      "Ġri": 6121,
      "Ġtouch": 6122,
      "itative": 6123,
      "orrow": 6124,
      "Ġlibrary": 6125,
      "ĠPre": 6126,
      "ĠFacebook": 6127,
      "Ġjoint": 6128,
      "ĠUp": 6129,
      "luc": 6130,
      "2017": 6131,
      "Ġconfirm": 6132,
      "Ġproperly": 6133,
      "Ġofficers": 6134,
      "Ġtrend": 6135,
      "Ġencoura": 6136,
      "However": 6137,
      "hetic": 6138,
      "SO": 6139,
      "main": 6140,
      "riz": 6141,
      "ĠMA": 6142,
      "Ġnoise": 6143,
      "exec": 6144,
      "riday": 6145,
      "options": 6146,
      "Ġdrugs": 6147,
      "Ġcitiz": 6148,
      "BI": 6149,
      "Count": 6150,
      "ifact": 6151,
      "Ġvacc": 6152,
      "**)": 6153,
      "Ġ39": 6154,
      "ĊĊĉĉ": 6155,
      "ERT": 6156,
      "ĠNews": 6157,
      "ĠIR": 6158,
      "Ġstream": 6159,
      "Ġsurround": 6160,
      "Ġideas": 6161,
      "Ġoxid": 6162,
      "ĠParty": 6163,
      "Ġlatest": 6164,
      "215": 6165,
      "fess": 6166,
      "names": 6167,
      "ĠService": 6168,
      "ĠMary": 6169,
      "ĠFOR": 6170,
      "ĠUnder": 6171,
      "Ġcoverage": 6172,
      "Ġcurve": 6173,
      "Ġpicked": 6174,
      "Ġoxygen": 6175,
      "=======": 6176,
      "induced": 6177,
      "WC": 6178,
      "iers": 6179,
      "Ġmist": 6180,
      "Ġlung": 6181,
      "outhern": 6182,
      "Ġintended": 6183,
      "ymbol": 6184,
      "Ġelectric": 6185,
      "mittee": 6186,
      "onald": 6187,
      "SP": 6188,
      "Ġdied": 6189,
      "Ġdaily": 6190,
      "Ġclient": 6191,
      "Ġ44": 6192,
      "Ġquery": 6193,
      "pected": 6194,
      "Ġcoh": 6195,
      "aughter": 6196,
      "ĠMal": 6197,
      "ĠNOT": 6198,
      "Ġchronic": 6199,
      "2015": 6200,
      "Ġinterested": 6201,
      "Ġorigin": 6202,
      "Ġpicture": 6203,
      "Post": 6204,
      "Ġ~": 6205,
      "inner": 6206,
      "ĠSO": 6207,
      "Ġvote": 6208,
      "Ġadj": 6209,
      "ĠJames": 6210,
      "Ġperhaps": 6211,
      "Ġscript": 6212,
      "6666": 6213,
      "ĠJohnson": 6214,
      "otherapy": 6215,
      "Ġrepeated": 6216,
      "/>": 6217,
      "nel": 6218,
      "yst": 6219,
      "ĠSur": 6220,
      "Ġrise": 6221,
      "Ġrepresented": 6222,
      "Ġglass": 6223,
      "FT": 6224,
      "Ġnone": 6225,
      "Ġearn": 6226,
      "ĠCa": 6227,
      "ella": 6228,
      "Ġinteractions": 6229,
      "Ġemission": 6230,
      "Ġattorney": 6231,
      "Ġpointed": 6232,
      "Ġbehavi": 6233,
      "Ġvoltage": 6234,
      "cence": 6235,
      "ĠPort": 6236,
      "Ġsust": 6237,
      "ĠLem": 6238,
      ")))": 6239,
      "Ġfeet": 6240,
      "Ġpolar": 6241,
      "Ġdescribe": 6242,
      "ENTITY": 6243,
      "Ġangle": 6244,
      "overnment": 6245,
      "$$\\": 6246,
      "AV": 6247,
      "Ġgonna": 6248,
      "Ġchurch": 6249,
      "Ġkid": 6250,
      "ipal": 6251,
      "Ġobservations": 6252,
      "################": 6253,
      "Ġcontrolled": 6254,
      "ĠFoundation": 6255,
      "dimensional": 6256,
      "Ġhuge": 6257,
      "Ġmarkets": 6258,
      "/\\": 6259,
      "čĊĉĉ": 6260,
      "Ġfirm": 6261,
      "Ġdanger": 6262,
      "ĠCalculate": 6263,
      "ĠMor": 6264,
      "Ġtransl": 6265,
      "unday": 6266,
      "Ġprotected": 6267,
      "limits": 6268,
      "Ġprojects": 6269,
      "Ġdigital": 6270,
      "specific": 6271,
      "Ġhusband": 6272,
      "erry": 6273,
      "Ġreplic": 6274,
      "ĠMus": 6275,
      "Ġrich": 6276,
      "Ġplants": 6277,
      "Ġoffset": 6278,
      "Ġpeace": 6279,
      "Ġpurposes": 6280,
      "Ġannounced": 6281,
      "Ġofficials": 6282,
      "Ġbalance": 6283,
      "Action": 6284,
      "rey": 6285,
      "ednes": 6286,
      "Ġ+=": 6287,
      "conf": 6288,
      "Ġarbit": 6289,
      "cknow": 6290,
      "}({\\": 6291,
      "content": 6292,
      "').": 6293,
      "Method": 6294,
      "^-": 6295,
      "mas": 6296,
      "you": 6297,
      "Ļª": 6298,
      "Ġgalax": 6299,
      "ĠTex": 6300,
      "ĠRem": 6301,
      "Ġscience": 6302,
      "arsh": 6303,
      "Ġguaran": 6304,
      "Ġindicates": 6305,
      "_+": 6306,
      "})\\": 6307,
      "Ġ------------": 6308,
      "Ġbill": 6309,
      "stract": 6310,
      "Ġles": 6311,
      "Ġpowerful": 6312,
      "Array": 6313,
      "Ġachieved": 6314,
      "May": 6315,
      "di": 6316,
      "Ġer": 6317,
      "Ġfish": 6318,
      "oto": 6319,
      "amine": 6320,
      "Ġstability": 6321,
      "Ġconvert": 6322,
      "Ġvent": 6323,
      "Ġaren": 6324,
      "Ġmeant": 6325,
      "Ġheavy": 6326,
      "atics": 6327,
      "Ġpure": 6328,
      "omal": 6329,
      "rag": 6330,
      "Ġheter": 6331,
      "Ġcommission": 6332,
      "Ġcouldn": 6333,
      "Ġextent": 6334,
      "Ġelim": 6335,
      "Ġguess": 6336,
      "Ġhelped": 6337,
      "Ġframework": 6338,
      "Ġjurisdiction": 6339,
      "SM": 6340,
      "dem": 6341,
      "ether": 6342,
      "Ġ${{\\": 6343,
      "**,": 6344,
      "ĠDE": 6345,
      "Ġplane": 6346,
      "Ġremark": 6347,
      "Ġgenerate": 6348,
      "ĠĠĠĠĠĠĠĠĠĠĠĠĠĠĠĠĠĠĠĠĠĠĠĠĠĠĠĠĠĠĠĠĠĠĠĠĠĠĠĠĠĠĠĠĠĠĠĠĠĠĠĠĠĠĠĠĠĠĠĠĠĠĠĠĠĠĠĠĠĠĠĠĠĠĠĠĠĠĠĠĠĠĠĠĠĠĠĠĠĠĠĠĠĠĠĠĠĠĠĠĠĠĠĠĠĠĠĠĠĠĠĠĠĠĠĠĠĠĠĠĠĠĠĠĠĠĠĠĠĠĠĠĠĠĠĠĠĠĠĠĠĠĠĠĠĠĠĠĠĠĠĠĠĠĠĠĠĠĠĠĠĠĠĠĠĠĠĠĠĠĠĠĠĠĠĠĠĠĠĠĠĠĠĠĠĠĠĠĠĠĠĠĠĠĠĠĠĠĠĠĠĠĠĠĠĠĠĠĠĠĠĠĠĠĠĠĠĠĠĠĠĠĠĠĠĠĠĠĠĠĠĠĠĠĠĠĠĠĠĠĠĠĠĠĠĠĠĠĠĠĠĠĠĠĠĠ": 6349,
      "operatorname": 6350,
      "112": 6351,
      ">,": 6352,
      "Co": 6353,
      "Pre": 6354,
      "Ġborder": 6355,
      "Ġeating": 6356,
      "ĠBow": 6357,
      "Ġcomfort": 6358,
      "Ġtrig": 6359,
      "Ġdiscrim": 6360,
      "False": 6361,
      "Ġtor": 6362,
      "inite": 6363,
      "Ġdoc": 6364,
      "Ġdrop": 6365,
      "ĠCirc": 6366,
      "Ġintent": 6367,
      "ĠPlan": 6368,
      "Ġsurvival": 6369,
      "Ġ()": 6370,
      "ĠCP": 6371,
      "ĠDel": 6372,
      "ĠAtt": 6373,
      "Ġexistence": 6374,
      "Ġgirl": 6375,
      "ednesday": 6376,
      "Are": 6377,
      "Field": 6378,
      "istered": 6379,
      "ĠpH": 6380,
      "otrop": 6381,
      "Ġstars": 6382,
      "Ġshared": 6383,
      "Ġabund": 6384,
      "Ġpartners": 6385,
      "Ġbeautiful": 6386,
      ";->": 6387,
      "sens": 6388,
      "activ": 6389,
      "phone": 6390,
      "Ġsurvey": 6391,
      "icrosoft": 6392,
      "Ġinvestigated": 6393,
      "Ġlinks": 6394,
      "ĠInternet": 6395,
      "Yes": 6396,
      "Ġhop": 6397,
      "ĠIL": 6398,
      "agen": 6399,
      "Ġwouldn": 6400,
      "Ġentry": 6401,
      "Ġ2004": 6402,
      "Ġafford": 6403,
      "font": 6404,
      "Ġmental": 6405,
      "ston": 6406,
      "olar": 6407,
      "ĠGroup": 6408,
      "Ġrecip": 6409,
      "rency": 6410,
      "ĠUnion": 6411,
      "Ġmembr": 6412,
      "ĠAustralia": 6413,
      "message": 6414,
      "Ġbool": 6415,
      "Ġstack": 6416,
      "Ġresolution": 6417,
      "014": 6418,
      "Ġadopt": 6419,
      "ruit": 6420,
      "Ġteac": 6421,
      "Ġemph": 6422,
      "Ġempty": 6423,
      "Ġsignals": 6424,
      "ĊĠĠĠĠĠĠĠĠĠĠĠĠĠĠĠĠĠ": 6425,
      "Ġflat": 6426,
      "AND": 6427,
      "args": 6428,
      "ortunately": 6429,
      "ĠCollege": 6430,
      "Ġhypot": 6431,
      "ĠSupreme": 6432,
      ")[": 6433,
      "Rep": 6434,
      "bm": 6435,
      "elle": 6436,
      "Ġspot": 6437,
      "Ġunderlying": 6438,
      "Ġallowing": 6439,
      "Ġsummer": 6440,
      "Ġanalyses": 6441,
      "MM": 6442,
      "kl": 6443,
      "normal": 6444,
      "Ã¡": 6445,
      "Ġnut": 6446,
      "ĠBoth": 6447,
      "ĠDirect": 6448,
      "illa": 6449,
      "Ġspeech": 6450,
      "Ġdriving": 6451,
      "Some": 6452,
      "TE": 6453,
      "priv": 6454,
      "Î²": 6455,
      "ona": 6456,
      "ĠWell": 6457,
      "Ġliterature": 6458,
      "NF": 6459,
      "ï¼": 6460,
      "ĠCtr": 6461,
      "Ġquarter": 6462,
      "Ġinstr": 6463,
      "Ġepis": 6464,
      "Ġcompetition": 6465,
      "Dis": 6466,
      "urer": 6467,
      "}})": 6468,
      "ĠInstitute": 6469,
      "Ġevolution": 6470,
      "Ġimportance": 6471,
      "Ġbreast": 6472,
      "Ġcele": 6473,
      "00000000000000000000000000000000": 6474,
      "00299": 6475,
      "Click": 6476,
      "Ġanimal": 6477,
      "Ġmal": 6478,
      "Ġgar": 6479,
      "Ġune": 6480,
      "ĠĠĠĠĠĠĠĠĠĠĠĠĠĠĠĠĠĠĠĠĠĠĠ": 6481,
      "abilities": 6482,
      "Ġwhatever": 6483,
      "Ġheat": 6484,
      "ĠOver": 6485,
      "ĠUsing": 6486,
      "Ġ46": 6487,
      "Ġknows": 6488,
      "Ġextended": 6489,
      "ATA": 6490,
      "Ġemployed": 6491,
      "Ġholding": 6492,
      "Ġfigures": 6493,
      "Dec": 6494,
      "rical": 6495,
      "Ġflex": 6496,
      "irk": 6497,
      "ĠDis": 6498,
      "valid": 6499,
      "Ġsecondary": 6500,
      "abla": 6501,
      "Ġtempor": 6502,
      "ford": 6503,
      "Ġtip": 6504,
      "ĠPA": 6505,
      "Ġsho": 6506,
      "ĠCommittee": 6507,
      "olean": 6508,
      "Ġcapable": 6509,
      "Ġcriteria": 6510,
      "Ġevaluation": 6511,
      "ensuremath": 6512,
      "Ġsettings": 6513,
      "Ġfootball": 6514,
      "Cs": 6515,
      "Us": 6516,
      "pa": 6517,
      "Ġwire": 6518,
      "ĠAre": 6519,
      "ĠHT": 6520,
      "Ġcomposition": 6521,
      "Ġassay": 6522,
      "process": 6523,
      "Ġdiet": 6524,
      "Ġsquare": 6525,
      "Ġaxis": 6526,
      "inations": 6527,
      "Ġodd": 6528,
      "icated": 6529,
      "Ġthread": 6530,
      "Ġveloc": 6531,
      "ĠEr": 6532,
      "Ġdefic": 6533,
      "hens": 6534,
      "Ġ2007": 6535,
      "Ġfilms": 6536,
      "Ġpathway": 6537,
      "mbox": 6538,
      "API": 6539,
      "Ġradio": 6540,
      "Ġdoubt": 6541,
      "ABLE": 6542,
      "Ġuncertain": 6543,
      "Reg": 6544,
      "cs": 6545,
      "isation": 6546,
      "omial": 6547,
      "Ġequations": 6548,
      "ĠClass": 6549,
      "Ġdraft": 6550,
      "AGE": 6551,
      ")),": 6552,
      "Back": 6553,
      "KE": 6554,
      "]),": 6555,
      "css": 6556,
      "Ġlip": 6557,
      "Ġgone": 6558,
      "ĠDen": 6559,
      "akers": 6560,
      "Ġintensity": 6561,
      "typ": 6562,
      "Ġapprec": 6563,
      "SELECT": 6564,
      "Act": 6565,
      "car": 6566,
      "kes": 6567,
      "resents": 6568,
      "ĠPM": 6569,
      "Ġcharges": 6570,
      "Ġhighlight": 6571,
      "Ġserum": 6572,
      "Ġguys": 6573,
      "Ġreferred": 6574,
      "Ġgrand": 6575,
      "sql": 6576,
      "ĠPhil": 6577,
      "Response": 6578,
      "ursday": 6579,
      "Ġexamined": 6580,
      "brid": 6581,
      "wer": 6582,
      "rog": 6583,
      "ĠIII": 6584,
      "Ġconclusion": 6585,
      "Ġinflamm": 6586,
      "lands": 6587,
      "show": 6588,
      "Ġfundamental": 6589,
      "--------------------------------------------------------------------------------------------------------------------------------": 6590,
      "Ġdriver": 6591,
      "Ġpiece": 6592,
      "Ġextremely": 6593,
      "DP": 6594,
      "nam": 6595,
      "uz": 6596,
      "Ġcateg": 6597,
      "Ġfol": 6598,
      "Ġmaster": 6599,
      "oted": 6600,
      "Ġexamples": 6601,
      "ĠBen": 6602,
      "Ġ43": 6603,
      "icks": 6604,
      "Ġraise": 6605,
      "Ġdirector": 6606,
      "ĠWhy": 6607,
      "Ġseemed": 6608,
      "Ġeventually": 6609,
      "Ġmeasurement": 6610,
      "rl": 6611,
      "itled": 6612,
      "etime": 6613,
      "Ġ{{\\": 6614,
      "linear": 6615,
      "Ġdeveloping": 6616,
      "Ġsmallest": 6617,
      "ampions": 6618,
      "Ġimplies": 6619,
      "Ġresearc": 6620,
      "Ġsubstrate": 6621,
      "Ġthousands": 6622,
      "According": 6623,
      "Gen": 6624,
      "ĠTuesday": 6625,
      "ansion": 6626,
      "Ġcompounds": 6627,
      "Ġplus": 6628,
      "\"}.": 6629,
      "Ġinfo": 6630,
      "Ġviews": 6631,
      "Ġorganization": 6632,
      "Ġfunds": 6633,
      "Ġmarriage": 6634,
      "xml": 6635,
      "Ã¤": 6636,
      "Ġfarm": 6637,
      "ĠCoun": 6638,
      "Ġsupply": 6639,
      "ĠRead": 6640,
      "Ġdependence": 6641,
      "Ġsam": 6642,
      "Ġnav": 6643,
      "Ġkill": 6644,
      "Ġwilling": 6645,
      "ĠChurch": 6646,
      "othing": 6647,
      "Ġcentury": 6648,
      "while": 6649,
      "Ġexperienced": 6650,
      "frak": 6651,
      "iny": 6652,
      "erior": 6653,
      "alty": 6654,
      "Ġlatter": 6655,
      "ector": 6656,
      "Ġagency": 6657,
      "Ġresulted": 6658,
      "Ġopening": 6659,
      "ĠIndeed": 6660,
      "Ġbooks": 6661,
      "Ġmechanisms": 6662,
      "~~~~~~~~": 6663,
      "Ġiron": 6664,
      "Ġnan": 6665,
      "ĠArm": 6666,
      "pload": 6667,
      "ĠEduc": 6668,
      "Ġmodified": 6669,
      "Ġcolon": 6670,
      "Stream": 6671,
      "Ġcoupling": 6672,
      "Process": 6673,
      "Ġcardi": 6674,
      "MD": 6675,
      "nabla": 6676,
      "icine": 6677,
      "ĠHence": 6678,
      "ĠRober": 6679,
      "ĠGold": 6680,
      "amek": 6681,
      "Ġimplic": 6682,
      "ĠYes": 6683,
      "project": 6684,
      "Ġissued": 6685,
      "default": 6686,
      "Ġexplan": 6687,
      "roller": 6688,
      "Ġrestaur": 6689,
      "Ġdomin": 6690,
      "Phi": 6691,
      "Ġmessages": 6692,
      "Ġvoice": 6693,
      "Ġsqrt": 6694,
      ")\"": 6695,
      "Mar": 6696,
      "gical": 6697,
      "sen": 6698,
      "itz": 6699,
      "Ġdry": 6700,
      "ĠBay": 6701,
      "ĠLondon": 6702,
      "ĊĠĠĠĠĠĠĠĠĠĠ": 6703,
      "Ġspat": 6704,
      "Ġpregn": 6705,
      "ditionally": 6706,
      "RL": 6707,
      "icago": 6708,
      "Ġchosen": 6709,
      "Ġspirit": 6710,
      "Ġconsult": 6711,
      "Ġrelationships": 6712,
      "Ġisolated": 6713,
      "/**": 6714,
      "depend": 6715,
      "Ġ^": 6716,
      "}}^": 6717,
      "Ġcoe": 6718,
      "velopment": 6719,
      "tencent": 6720,
      "ĠmiR": 6721,
      "nbsp": 6722,
      "Don": 6723,
      "bal": 6724,
      "cel": 6725,
      "Ġfresh": 6726,
      "Ġinequ": 6727,
      "Ġexcess": 6728,
      "Ġapproved": 6729,
      "aneous": 6730,
      "Ġconcerns": 6731,
      "float": 6732,
      "Ġconflict": 6733,
      "Ġreceptor": 6734,
      "2000": 6735,
      "Last": 6736,
      "faces": 6737,
      "hs": 6738,
      "tw": 6739,
      "ĠØ": 6740,
      "Ġfault": 6741,
      "ĠRank": 6742,
      "++++": 6743,
      "Ġconcentrations": 6744,
      "Part": 6745,
      "PCR": 6746,
      "Sc": 6747,
      "Source": 6748,
      "internal": 6749,
      "Ġfabric": 6750,
      "Ġboy": 6751,
      "etch": 6752,
      "eles": 6753,
      "Ġ41": 6754,
      "okes": 6755,
      "Ġgeneration": 6756,
      "Ġchanging": 6757,
      "Ġindeed": 6758,
      "Ġdigit": 6759,
      "\\{": 6760,
      "ĠCA": 6761,
      "Ġends": 6762,
      "Ġelectronic": 6763,
      "Ġskills": 6764,
      "Ġnuclear": 6765,
      "?âĢĿ": 6766,
      "Just": 6767,
      "after": 6768,
      "dim": 6769,
      "Ġpun": 6770,
      "Ġchain": 6771,
      "ĠIns": 6772,
      "ĠFrance": 6773,
      "Ġpatterns": 6774,
      "Ġconstitution": 6775,
      "SG": 6776,
      "TO": 6777,
      "ĠTay": 6778,
      "Ġleaves": 6779,
      "Ġplastic": 6780,
      "Ġrepresents": 6781,
      "Ġpositions": 6782,
      "Ġassessment": 6783,
      "Ġevaluated": 6784,
      "-+": 6785,
      "End": 6786,
      "Pol": 6787,
      "RI": 6788,
      "bound": 6789,
      "ville": 6790,
      "eterm": 6791,
      "ĠBra": 6792,
      "These": 6793,
      "aret": 6794,
      "Ġrecovery": 6795,
      "Ġinvestment": 6796,
      "ytic": 6797,
      "Ġfocused": 6798,
      "Ġcontinuous": 6799,
      "ĠMichael": 6800,
      "direct": 6801,
      "ÃĹ": 6802,
      "ani": 6803,
      "Ġfans": 6804,
      "Ġbatter": 6805,
      "asic": 6806,
      "Ġnodes": 6807,
      "Ġleaving": 6808,
      "jected": 6809,
      "Ġtele": 6810,
      "Ġtypical": 6811,
      "clusive": 6812,
      "ĠCanada": 6813,
      "sembly": 6814,
      "icians": 6815,
      "Ġmetal": 6816,
      "Ġsummary": 6817,
      "Ġstandards": 6818,
      "Ġsubsequent": 6819,
      "Ġpolicies": 6820,
      "Pe": 6821,
      "Version": 6822,
      "ln": 6823,
      "Ġtox": 6824,
      "Ġreality": 6825,
      "oder": 6826,
      "ĠFinally": 6827,
      "ĠDi": 6828,
      "Ġneither": 6829,
      "creen": 6830,
      "Ġelectron": 6831,
      "Result": 6832,
      "Ġholds": 6833,
      "Ġpractices": 6834,
      "Ġneurons": 6835,
      "({": 6836,
      "Rem": 6837,
      "ya": 6838,
      "čĊĠĠĠĠĠĠĠĠĠĠĠ": 6839,
      "Read": 6840,
      "Ġappeared": 6841,
      "Ġcris": 6842,
      "ometry": 6843,
      "Ġaspects": 6844,
      "DR": 6845,
      "real": 6846,
      "ato": 6847,
      "Ġfan": 6848,
      "imately": 6849,
      "ĠPal": 6850,
      "ĠDay": 6851,
      "ĠOut": 6852,
      "Ġmostly": 6853,
      "Ġvariation": 6854,
      "Ġlisted": 6855,
      "Ġcandidate": 6856,
      "ĠLemma": 6857,
      "]--": 6858,
      "rig": 6859,
      "Ġbright": 6860,
      "ĠMany": 6861,
      "istory": 6862,
      "ĠNone": 6863,
      "anges": 6864,
      "}\\\\": 6865,
      "Ġsetup": 6866,
      "append": 6867,
      "Ġperspective": 6868,
      "minus": 6869,
      "Ġdeliver": 6870,
      "Ġdelivery": 6871,
      "Ġdiagnosis": 6872,
      "Ġenhance": 6873,
      "possible": 6874,
      "Check": 6875,
      "la": 6876,
      "Ġcoc": 6877,
      "ithub": 6878,
      "ĠField": 6879,
      "Ġbytes": 6880,
      "appe": 6881,
      "comple": 6882,
      "Ġspend": 6883,
      "============": 6884,
      "Ġreturns": 6885,
      "ACE": 6886,
      "More": 6887,
      "author": 6888,
      "itect": 6889,
      "Ġegg": 6890,
      "ĠIV": 6891,
      "query": 6892,
      "ĠGra": 6893,
      "}}(\\": 6894,
      "Theta": 6895,
      "ĊĊĊĊ": 6896,
      "Ġhappens": 6897,
      "Ġmutant": 6898,
      "ÂłÂłÂłÂł": 6899,
      "AA": 6900,
      "Ġfif": 6901,
      "ette": 6902,
      "Ġnet": 6903,
      "Ġours": 6904,
      "Ġannual": 6905,
      "Ġauthority": 6906,
      "cretion": 6907,
      "Expand": 6908,
      "Go": 6909,
      "Ġdepression": 6910,
      "Ġscores": 6911,
      "Ġspecified": 6912,
      "Ġinvestigate": 6913,
      "Ġcomplaint": 6914,
      "Find": 6915,
      "dir": 6916,
      "Ġsin": 6917,
      "Ġwat": 6918,
      "Ġlit": 6919,
      "âĢ¢": 6920,
      "Ġstre": 6921,
      "Ġjoin": 6922,
      "venue": 6923,
      "ALL": 6924,
      "Ġobjective": 6925,
      "Ġeasier": 6926,
      "Ġincorpor": 6927,
      "FC": 6928,
      "Ġmere": 6929,
      "weight": 6930,
      "Ġextends": 6931,
      "Ġ2005": 6932,
      "Ġplanning": 6933,
      "ĠANY": 6934,
      "ba": 6935,
      "ĠBel": 6936,
      "antly": 6937,
      "ĠGa": 6938,
      "Ġadult": 6939,
      "Ġadequ": 6940,
      "Ġpersons": 6941,
      "Ġargued": 6942,
      "Ġefficiency": 6943,
      "bits": 6944,
      "sk": 6945,
      "ĠSoftware": 6946,
      "Ġgoals": 6947,
      "Ġminim": 6948,
      "Ġtrials": 6949,
      "aturday": 6950,
      "FS": 6951,
      "otes": 6952,
      "ĠAir": 6953,
      "ĠGreen": 6954,
      "oking": 6955,
      "Ġsymb": 6956,
      "Status": 6957,
      "Ġcalling": 6958,
      "2011": 6959,
      "Ġmeasurements": 6960,
      "ĠGoogle": 6961,
      "Ġhousing": 6962,
      "cr": 6963,
      "scope": 6964,
      "ÃŃ": 6965,
      "Ġamaz": 6966,
      "oday": 6967,
      "ĠWAR": 6968,
      "Ġoverl": 6969,
      "150": 6970,
      "Ġdifferential": 6971,
      "Ġdetermination": 6972,
      "Ġreceiving": 6973,
      "Ġfloor": 6974,
      "Ġinstitution": 6975,
      "Ġarbitr": 6976,
      "cS": 6977,
      "Ġcm": 6978,
      "ilty": 6979,
      "ialog": 6980,
      "Ġcompare": 6981,
      "âĢĿ.": 6982,
      "Ġcolle": 6983,
      "Ġregulation": 6984,
      "Ġsupposed": 6985,
      "Ġgreatest": 6986,
      "request": 6987,
      "Ġemotional": 6988,
      "Node": 6989,
      "Wid": 6990,
      "za": 6991,
      "});": 6992,
      "ĠMag": 6993,
      "ĠPD": 6994,
      "ĠKore": 6995,
      "cluding": 6996,
      "ventions": 6997,
      "ĠIslam": 6998,
      "BV": 6999,
      "VM": 7000,
      "mode": 7001,
      "night": 7002,
      "pgen": 7003,
      "ses": 7004,
      "zen": 7005,
      "Ġforced": 7006,
      "fee": 7007,
      "Ġintellig": 7008,
      "Ġinteract": 7009,
      "Ġsubt": 7010,
      "glX": 7011,
      "Ġborn": 7012,
      "ĠMil": 7013,
      "ensions": 7014,
      "Ġscene": 7015,
      "Ġdecisions": 7016,
      "Ġargues": 7017,
      "Button": 7018,
      "missions": 7019,
      "ĠÃĹ": 7020,
      "Ġreligious": 7021,
      "HP": 7022,
      "SION": 7023,
      "fs": 7024,
      "func": 7025,
      "isters": 7026,
      "Ġfill": 7027,
      "ĠSunday": 7028,
      "ĠHel": 7029,
      "ĠNor": 7030,
      "Ġ47": 7031,
      "Ġcommitted": 7032,
      "Ġpossibly": 7033,
      "ancing": 7034,
      "Ġ1990": 7035,
      "Ġrotation": 7036,
      "hal": 7037,
      "long": 7038,
      "lines": 7039,
      "Ġharm": 7040,
      "Ġrub": 7041,
      "Ġsections": 7042,
      "Ġpreval": 7043,
      "apped": 7044,
      "ĠMonday": 7045,
      "Open": 7046,
      "SL": 7047,
      "seq": 7048,
      "ĠCopyright": 7049,
      "Ġvan": 7050,
      "thm": 7051,
      "Ġplays": 7052,
      "Ġseeing": 7053,
      "Ġgrade": 7054,
      "Ġimplementation": 7055,
      "'_": 7056,
      "stack": 7057,
      "Ġnil": 7058,
      "eless": 7059,
      "ĠRef": 7060,
      "Ġchrom": 7061,
      "Ġscope": 7062,
      "Ġparticles": 7063,
      "Ġdepends": 7064,
      "Ġincident": 7065,
      "Ġlicense": 7066,
      "ĠDuring": 7067,
      "Ġ{{\"": 7068,
      "Ġ75": 7069,
      "ERR": 7070,
      "Ġcorre": 7071,
      "~~~": 7072,
      "Ġrecorded": 7073,
      "Ġdegrees": 7074,
      "match": 7075,
      "Ġwish": 7076,
      "arge": 7077,
      "amily": 7078,
      "ĠDocs": 7079,
      "Ġ55": 7080,
      "Ġmanaged": 7081,
      "Ġtestified": 7082,
      "Ġseconds": 7083,
      "Ġstrongly": 7084,
      "roduction": 7085,
      "]--[@": 7086,
      "Ġrs": 7087,
      "Ġresource": 7088,
      "ictions": 7089,
      "Ġbuff": 7090,
      "Ġadvice": 7091,
      "GE": 7092,
      "Since": 7093,
      "bul": 7094,
      "ien": 7095,
      "Â¶": 7096,
      "ãĢ": 7097,
      "Ġcategory": 7098,
      "Ġinsp": 7099,
      "ulf": 7100,
      "unit": 7101,
      "Ġhence": 7102,
      "ĠFriday": 7103,
      "ĠWestern": 7104,
      "andon": 7105,
      "Ġ67": 7106,
      "Ġasking": 7107,
      ".]": 7108,
      "false": 7109,
      "Ġorient": 7110,
      "Ġlose": 7111,
      "ĠArab": 7112,
      "rive": 7113,
      "Ġdistingu": 7114,
      "Ġsmooth": 7115,
      "Ġentered": 7116,
      "Ġ2003": 7117,
      "mann": 7118,
      "Ġestimates": 7119,
      "Ġhomes": 7120,
      "Ġbudget": 7121,
      "Ġneighborhood": 7122,
      "document": 7123,
      "jud": 7124,
      "rn": 7125,
      "ifferent": 7126,
      "ulin": 7127,
      "0001": 7128,
      "ĠMart": 7129,
      "format": 7130,
      "Ġaccord": 7131,
      "Conne": 7132,
      "Ġabsolute": 7133,
      "Ġvary": 7134,
      "Ġ65": 7135,
      "Ġended": 7136,
      "Ġpossess": 7137,
      "Ġorganic": 7138,
      "ĠTexas": 7139,
      ";\\": 7140,
      "MB": 7141,
      "Yeah": 7142,
      "dat": 7143,
      "was": 7144,
      "Ã¼": 7145,
      "Ġtub": 7146,
      "Ġdram": 7147,
      "Ġrevers": 7148,
      "ĠTor": 7149,
      "ĠFree": 7150,
      "Ġintra": 7151,
      "ĠItal": 7152,
      "Ġ99": 7153,
      "2005": 7154,
      "Ġopened": 7155,
      "ĠEngland": 7156,
      "Ġattacks": 7157,
      "instance": 7158,
      "ĠGermany": 7159,
      "dependent": 7160,
      "Ġmobile": 7161,
      "Ġreverse": 7162,
      "Ġabuse": 7163,
      "2010": 7164,
      "Ġdecide": 7165,
      "ĠReview": 7166,
      "Ġdepending": 7167,
      "Any": 7168,
      "Ġdetailed": 7169,
      "support": 7170,
      "Ġprefer": 7171,
      "IST": 7172,
      "Te": 7173,
      "jav": 7174,
      "mo": 7175,
      "sor": 7176,
      "angular": 7177,
      "Ġdiam": 7178,
      "RNAs": 7179,
      "Ġinnov": 7180,
      "Ġmsg": 7181,
      "Ġtun": 7182,
      "Ġmit": 7183,
      "estic": 7184,
      "ructure": 7185,
      "Ġmarked": 7186,
      "Ġcontinues": 7187,
      "Ġapplicable": 7188,
      "Ġexcell": 7189,
      "Ġprocedures": 7190,
      "Ġdimension": 7191,
      "([": 7192,
      "cut": 7193,
      "vant": 7194,
      "Ġpin": 7195,
      "Ġmm": 7196,
      "aset": 7197,
      "-----": 7198,
      "ĠWednesday": 7199,
      "ellants": 7200,
      "Ġrelates": 7201,
      "Ġrock": 7202,
      "Ġattend": 7203,
      "Ġleader": 7204,
      "clusions": 7205,
      "Ġconcern": 7206,
      "DNA": 7207,
      "ker": 7208,
      "icular": 7209,
      "uries": 7210,
      "ĠFin": 7211,
      "ptic": 7212,
      "ĠGL": 7213,
      "Ġjournal": 7214,
      "Ġdivers": 7215,
      "cohol": 7216,
      "zyme": 7217,
      "rev": 7218,
      "ician": 7219,
      "ĠFore": 7220,
      "ĠEvery": 7221,
      "Ġ2002": 7222,
      "2012": 7223,
      "Ġargue": 7224,
      "Ġauto": 7225,
      "Ġfeeling": 7226,
      "Ġcryst": 7227,
      "Factor": 7228,
      "gar": 7229,
      "sche": 7230,
      "Ġmes": 7231,
      "ĠCur": 7232,
      "ĠRich": 7233,
      "aven": 7234,
      "Ġspending": 7235,
      "Ġscan": 7236,
      "Ġindepend": 7237,
      "Ġfraction": 7238,
      "Ġcamera": 7239,
      "aper": 7240,
      "iological": 7241,
      "Ġvert": 7242,
      "Ġacknow": 7243,
      "Ġgold": 7244,
      "android": 7245,
      "output": 7246,
      "ĠChicago": 7247,
      "Ġprison": 7248,
      "media": 7249,
      "Ġcustomers": 7250,
      "Ġversus": 7251,
      "Ġgranted": 7252,
      "ĠAfrican": 7253,
      "Ġprolif": 7254,
      "github": 7255,
      "Ġterr": 7256,
      "imer": 7257,
      "utely": 7258,
      "oded": 7259,
      "Ġmanif": 7260,
      "}_{{\\": 7261,
      "legal": 7262,
      "Ġchallenges": 7263,
      "ipl": 7264,
      "ifies": 7265,
      "antic": 7266,
      "ĠHall": 7267,
      "ructions": 7268,
      "ĠVir": 7269,
      "Ġdiab": 7270,
      "Ġpopulations": 7271,
      "Ġaccurate": 7272,
      "gent": 7273,
      "win": 7274,
      "inger": 7275,
      "Ġvision": 7276,
      "ĠDan": 7277,
      "ellular": 7278,
      "}}{\\": 7279,
      "Ġguide": 7280,
      "Ġguilty": 7281,
      "Ġ1996": 7282,
      "Ġbelieved": 7283,
      "response": 7284,
      "Ġassessed": 7285,
      "Ġcelebr": 7286,
      "Pack": 7287,
      "Ptr": 7288,
      "VD": 7289,
      "tings": 7290,
      "Ġnine": 7291,
      "amber": 7292,
      "ĠRT": 7293,
      "ĠRiver": 7294,
      "ĠNS": 7295,
      "ĠEconom": 7296,
      "Ġresolve": 7297,
      "ĠUse": 7298,
      "Ġhumans": 7299,
      "Ext": 7300,
      "}.": 7301,
      "Ġsch": 7302,
      "urally": 7303,
      "Ġsup": 7304,
      "orthern": 7305,
      "ipher": 7306,
      "Ġfees": 7307,
      "Ġrelief": 7308,
      "Ġtraffic": 7309,
      "standing": 7310,
      "Ġideal": 7311,
      "++)": 7312,
      "Ġprincipal": 7313,
      "ĠOffice": 7314,
      "]$": 7315,
      "cup": 7316,
      "jpg": 7317,
      "}|": 7318,
      "Ġmel": 7319,
      "Ġ120": 7320,
      "rium": 7321,
      "Ġusual": 7322,
      "Ġkit": 7323,
      "Ġretire": 7324,
      "Ġapproaches": 7325,
      "Ġdiscovered": 7326,
      "Ġviolation": 7327,
      "CHAR": 7328,
      "URL": 7329,
      "Ġimprovement": 7330,
      "ND": 7331,
      "Number": 7332,
      "inte": 7333,
      "Ġnative": 7334,
      "Ġforg": 7335,
      "ĠSolve": 7336,
      "ĠNig": 7337,
      "Ġdesired": 7338,
      "ĠĠĠĠĠĠĠĠĠĠĠĠĠĠĠĠĠĠĠĠĠĠĠĠĠĠ": 7339,
      "Ġconsidering": 7340,
      "Ġexpansion": 7341,
      "levision": 7342,
      "Ġfunding": 7343,
      "Ġexecute": 7344,
      "HC": 7345,
      "chen": 7346,
      "Ġtick": 7347,
      "hether": 7348,
      "Ġburn": 7349,
      "elines": 7350,
      "ceived": 7351,
      "Ġsun": 7352,
      "Ġdefinitely": 7353,
      "603": 7354,
      "Ġfinished": 7355,
      "Ġmainly": 7356,
      "Ġurl": 7357,
      "button": 7358,
      "Ġintegrated": 7359,
      "-+-+": 7360,
      "&=": 7361,
      "PC": 7362,
      "kin": 7363,
      "oop": 7364,
      "Ġmask": 7365,
      "irty": 7366,
      "ĠMet": 7367,
      "ĠMass": 7368,
      "Then": 7369,
      "Ġ500": 7370,
      "Ġoffense": 7371,
      "Ġpharm": 7372,
      "Ġcritic": 7373,
      "Ġfacilit": 7374,
      "uffer": 7375,
      "Update": 7376,
      "scale": 7377,
      "Box": 7378,
      "NV": 7379,
      "onic": 7380,
      "Ġwel": 7381,
      "Ġfont": 7382,
      "riend": 7383,
      "endment": 7384,
      "ĠGood": 7385,
      "close": 7386,
      "Ġsoil": 7387,
      "Ġtranscript": 7388,
      "Ġsuggesting": 7389,
      "Ġbiological": 7390,
      "Ġwidely": 7391,
      "Ġphenomen": 7392,
      ":**": 7393,
      "IZ": 7394,
      "po": 7395,
      "Ġens": 7396,
      "Ġbon": 7397,
      "ĠAR": 7398,
      "Ġyes": 7399,
      "abil": 7400,
      "ĠNO": 7401,
      "ĠOpen": 7402,
      "Ġcompre": 7403,
      "Ġ54": 7404,
      "Ġenroll": 7405,
      "ONE": 7406,
      "Ġdecades": 7407,
      "Ġreads": 7408,
      "Ġbaseline": 7409,
      "Ġconclude": 7410,
      "ads": 7411,
      "ochem": 7412,
      "ĠHill": 7413,
      "Ġhaven": 7414,
      "ostic": 7415,
      "ributions": 7416,
      "Ġbias": 7417,
      "IPS": 7418,
      "Ġevaluate": 7419,
      "height": 7420,
      "Ġmethyl": 7421,
      "second": 7422,
      "Ġbeg": 7423,
      "riers": 7424,
      "acent": 7425,
      "Ġordered": 7426,
      "ubble": 7427,
      "offee": 7428,
      "Ġenforce": 7429,
      "Ġdescript": 7430,
      "Ġparallel": 7431,
      "Ġcitizens": 7432,
      "][": 7433,
      "ĠCle": 7434,
      "Ġalgebra": 7435,
      "ĠNa": 7436,
      "Ġimaging": 7437,
      "Ġ56": 7438,
      "crete": 7439,
      "Ġsynd": 7440,
      "2014": 7441,
      "ĠAmericans": 7442,
      "Create": 7443,
      "hab": 7444,
      "law": 7445,
      "Ġinner": 7446,
      "Ġmic": 7447,
      "Ġ150": 7448,
      "ĠFile": 7449,
      "Ġaccum": 7450,
      "appro": 7451,
      "ĠĠĠĠĠĠĠĠĠĠĠĠĠĠĠĠĠĠĠĠĠĠĠĠĠĠĠ": 7452,
      "Ġbigger": 7453,
      "Client": 7454,
      "Ġadministr": 7455,
      "Ġinfections": 7456,
      "Ġconsumption": 7457,
      "Ġcrisis": 7458,
      "TG": 7459,
      "Ġdys": 7460,
      "Ġnom": 7461,
      "ĠCre": 7462,
      "rip": 7463,
      "ĠThursday": 7464,
      "ĠKamek": 7465,
      "Ġmanager": 7466,
      "Ġanalog": 7467,
      "Ġlimits": 7468,
      "ernel": 7469,
      "Ġpercentage": 7470,
      "Ġlearned": 7471,
      "Ġorders": 7472,
      "ĠEducation": 7473,
      "$(": 7474,
      ")^{": 7475,
      "Bl": 7476,
      "Please": 7477,
      "uous": 7478,
      "Ġstored": 7479,
      "ĠPlease": 7480,
      "Ġtruly": 7481,
      "Ġpert": 7482,
      "property": 7483,
      "Ġtradition": 7484,
      "Ġsigned": 7485,
      "Ġtreatments": 7486,
      "Ġstatute": 7487,
      "Ġclaimed": 7488,
      "Ġ-->": 7489,
      "Ġkeeping": 7490,
      "Ġcycl": 7491,
      "Ġdestroy": 7492,
      "Ġburden": 7493,
      "ĠSUMO": 7494,
      "ĠCouncil": 7495,
      "Run": 7496,
      "rr": 7497,
      "irms": 7498,
      "irror": 7499,
      "rowser": 7500,
      "ĠProfess": 7501,
      "ymph": 7502,
      "Ġincub": 7503,
      "Ġmotor": 7504,
      "Ġdemonstrate": 7505,
      "ademic": 7506,
      "Fl": 7507,
      "Ġcities": 7508,
      "Ġdual": 7509,
      "stood": 7510,
      "Ġlen": 7511,
      "Ġasym": 7512,
      "ocracy": 7513,
      "Ġimpossible": 7514,
      "Ġ49": 7515,
      "Ġstrict": 7516,
      "Ġconsideration": 7517,
      "Ġbrand": 7518,
      "Ġaccompl": 7519,
      "Manager": 7520,
      "NN": 7521,
      "]}$": 7522,
      "oting": 7523,
      "ĠIran": 7524,
      "Ġforget": 7525,
      "ĠAG": 7526,
      "ĠEq": 7527,
      "Ġentitled": 7528,
      "CTION": 7529,
      "summary": 7530,
      "Ġinjection": 7531,
      "Ġnecessarily": 7532,
      "Ġfrequently": 7533,
      "Ġautomatically": 7534,
      "ĠAppe": 7535,
      "Ġvelocity": 7536,
      "BR": 7537,
      "Rel": 7538,
      "Ut": 7539,
      "bed": 7540,
      "iples": 7541,
      "spe": 7542,
      "ishes": 7543,
      "anes": 7544,
      "Ġnarrow": 7545,
      "Ġpropos": 7546,
      "Ġwealth": 7547,
      "ander": 7548,
      "Ġshut": 7549,
      "apers": 7550,
      "Ġcoach": 7551,
      "Ġowner": 7552,
      "Ġremained": 7553,
      "Ġmorph": 7554,
      "TY": 7555,
      "fix": 7556,
      "Ġpray": 7557,
      "ĠSoci": 7558,
      "ĠSocial": 7559,
      "ĠCI": 7560,
      "elled": 7561,
      "ruption": 7562,
      "Ġpartial": 7563,
      "Ġpartner": 7564,
      "Input": 7565,
      "ashion": 7566,
      "ĠProject": 7567,
      ")*(-": 7568,
      "Ġdefendants": 7569,
      "2156": 7570,
      "ĠCircuit": 7571,
      "RANT": 7572,
      "sign": 7573,
      "Ġbind": 7574,
      "Ġstories": 7575,
      "tex": 7576,
      "ĠDO": 7577,
      "Ġplot": 7578,
      "ĠInformation": 7579,
      "ears": 7580,
      "ĠVer": 7581,
      "Ġcourts": 7582,
      "Ġtechnical": 7583,
      "Ġindicating": 7584,
      "Ġmotiv": 7585,
      "Ġexamination": 7586,
      "Ġnetworks": 7587,
      "ĠInstead": 7588,
      "Ġresearchers": 7589,
      "Ġsides": 7590,
      "Ġthreshold": 7591,
      "Ġlab": 7592,
      "ĠSE": 7593,
      "ĠBook": 7594,
      "ĠFederal": 7595,
      "ĠDiv": 7596,
      "Ġship": 7597,
      "Ġdisp": 7598,
      "Ġunable": 7599,
      "ĠKh": 7600,
      "Ġarrange": 7601,
      "Ġgenerator": 7602,
      "month": 7603,
      "ĠProgram": 7604,
      "clear": 7605,
      "ounter": 7606,
      "Ġinstitutions": 7607,
      "ĠAfrica": 7608,
      "aa": 7609,
      "bolds": 7610,
      "}[": 7611,
      "Ġsoft": 7612,
      "Ġcov": 7613,
      "Ġbattle": 7614,
      "icens": 7615,
      "ĠSession": 7616,
      "irus": 7617,
      "Ġjump": 7618,
      "Ġtrain": 7619,
      "ussian": 7620,
      "Ġgrav": 7621,
      "Ġdepth": 7622,
      "Ġsensitive": 7623,
      "ĠRepublican": 7624,
      "Ġpurchase": 7625,
      "boldsymbol": 7626,
      "'.": 7627,
      "pu": 7628,
      "war": 7629,
      "Ġmixed": 7630,
      "Ġlots": 7631,
      "Ġbecoming": 7632,
      "ĠMiss": 7633,
      "Ġspring": 7634,
      ")$\\": 7635,
      "2018": 7636,
      "9614": 7637,
      "Ġresponsibility": 7638,
      "Ġintroduction": 7639,
      "Ġhydrogen": 7640,
      "Override": 7641,
      "Ġvirtual": 7642,
      "Ġstopped": 7643,
      "lucose": 7644,
      "600": 7645,
      "Joh": 7646,
      "dr": 7647,
      "Ġsports": 7648,
      "Ġcos": 7649,
      "orne": 7650,
      "organ": 7651,
      "Ġstreet": 7652,
      "ĠAlex": 7653,
      "Ġ101": 7654,
      "Ġconven": 7655,
      "ĠMem": 7656,
      "Ġ\\>": 7657,
      "Ġcontribution": 7658,
      "Ġconsent": 7659,
      "Ġacts": 7660,
      "Ġadvanced": 7661,
      "Ġpotentially": 7662,
      "Ġdenote": 7663,
      "GLF": 7664,
      "Ġembed": 7665,
      "Ġinstalled": 7666,
      "Ġmetabol": 7667,
      "gers": 7668,
      "ipped": 7669,
      "Î¼": 7670,
      "ounce": 7671,
      "Ġelev": 7672,
      "Ġreducing": 7673,
      "Ġflux": 7674,
      "Ġourselves": 7675,
      "213": 7676,
      "CI": 7677,
      "DL": 7678,
      "cat": 7679,
      "uing": 7680,
      "ini": 7681,
      "terior": 7682,
      "Ġprotest": 7683,
      "Ġsuit": 7684,
      "Ġ58": 7685,
      "hips": 7686,
      "Ġconfidence": 7687,
      "ASS": 7688,
      "Ġneutr": 7689,
      "ĠTwitter": 7690,
      "Ġcohort": 7691,
      "${": 7692,
      "023": 7693,
      "iative": 7694,
      "Ġcart": 7695,
      "Ġplug": 7696,
      "ateral": 7697,
      "theless": 7698,
      "Ġdirected": 7699,
      "Ġlowest": 7700,
      "Ġcultural": 7701,
      "Ġunsigned": 7702,
      "FIG": 7703,
      "house": 7704,
      "kind": 7705,
      "{{": 7706,
      "Ġdil": 7707,
      "ĠPet": 7708,
      "usal": 7709,
      "ĠWH": 7710,
      "lectric": 7711,
      "Ġtranscription": 7712,
      "Ġtransverse": 7713,
      "slot": 7714,
      "hydro": 7715,
      "Ġbacterial": 7716,
      "\\!\\!": 7717,
      "bles": 7718,
      "mt": 7719,
      "edia": 7720,
      "ilton": 7721,
      "rays": 7722,
      "ĠRad": 7723,
      "ĠRob": 7724,
      "ĠLeg": 7725,
      "Ġchannel": 7726,
      "ellow": 7727,
      "ĠSenate": 7728,
      "Ġsecure": 7729,
      "Ġweapons": 7730,
      "eper": 7731,
      "icide": 7732,
      "else": 7733,
      "olf": 7734,
      "Ġconcluded": 7735,
      "ĠLord": 7736,
      "Ġsmart": 7737,
      "Ġcommonly": 7738,
      "Ġresidents": 7739,
      "Ġcovered": 7740,
      "edy": 7741,
      "ascript": 7742,
      "amm": 7743,
      "ĠSum": 7744,
      "ĠBRAF": 7745,
      "ivered": 7746,
      "ĠGl": 7747,
      "perp": 7748,
      "Start": 7749,
      "oughly": 7750,
      "Ġimmune": 7751,
      "Ġethn": 7752,
      "Handler": 7753,
      "HA": 7754,
      "VID": 7755,
      "ashed": 7756,
      "ĠTur": 7757,
      "Ġalter": 7758,
      "}}$,": 7759,
      "ildren": 7760,
      "Ġsimult": 7761,
      "Ġoperators": 7762,
      "Ġwaiting": 7763,
      "Ġintegration": 7764,
      "iary": 7765,
      "nav": 7766,
      "vo": 7767,
      "Ñĥ": 7768,
      "icate": 7769,
      "rape": 7770,
      "ĠWindows": 7771,
      "Ġneuro": 7772,
      "ĠLou": 7773,
      "ifications": 7774,
      "Ġformula": 7775,
      "IND": 7776,
      "Ġargs": 7777,
      "ORT": 7778,
      "bug": 7779,
      "yer": 7780,
      "Ġcold": 7781,
      "ĠCR": 7782,
      "ĠGreat": 7783,
      "aren": 7784,
      "Ġenem": 7785,
      "Ġsched": 7786,
      "lets": 7787,
      "Ġdrawn": 7788,
      "ĠFrank": 7789,
      "ĠPBX": 7790,
      "Return": 7791,
      "Work": 7792,
      "nut": 7793,
      "uint": 7794,
      "Ġ--------------------------------": 7795,
      "Ġthin": 7796,
      "Ġlift": 7797,
      "Ġ\"(": 7798,
      "Ġsuitable": 7799,
      "Ġchief": 7800,
      "alls": 7801,
      "Ġsole": 7802,
      "Ġprev": 7803,
      "Ġassigned": 7804,
      "Ġmodes": 7805,
      "ĠWeb": 7806,
      "Ġinhibition": 7807,
      "born": 7808,
      "je": 7809,
      "life": 7810,
      "Ġil": 7811,
      "Ġalcohol": 7812,
      "ĠRam": 7813,
      "Ġunion": 7814,
      "Ġevil": 7815,
      "âĢĿ,": 7816,
      "Ġrelax": 7817,
      "Ġ2020": 7818,
      "dden": 7819,
      "Ġopposite": 7820,
      "''": 7821,
      "Length": 7822,
      "ql": 7823,
      "ÑĮ": 7824,
      "ocytes": 7825,
      "Ġdiscretion": 7826,
      "ERE": 7827,
      "Ġidentification": 7828,
      "Select": 7829,
      "Ġmurder": 7830,
      "=(": 7831,
      "ws": 7832,
      "Ġtag": 7833,
      "Ġdb": 7834,
      "omer": 7835,
      "adding": 7836,
      "ĠMario": 7837,
      "}}$.": 7838,
      "Ġworse": 7839,
      "pressed": 7840,
      "Ġdiscovery": 7841,
      "Ġ1995": 7842,
      "Ġhousehold": 7843,
      "}]}+(": 7844,
      "gs": 7845,
      "tab": 7846,
      "Î±": 7847,
      "Ġsought": 7848,
      "isotrop": 7849,
      "igr": 7850,
      "008": 7851,
      "ĠPRO": 7852,
      "omorphism": 7853,
      "LR": 7854,
      "Ġvit": 7855,
      "ĠFIG": 7856,
      "Ġenable": 7857,
      "effect": 7858,
      "Ġphil": 7859,
      "Ġprices": 7860,
      "References": 7861,
      "2006": 7862,
      "ployment": 7863,
      "Ġencoding": 7864,
      "Ġentirely": 7865,
      "ĠAssociation": 7866,
      "iot": 7867,
      "hent": 7868,
      "Ġmouse": 7869,
      "entry": 7870,
      "ading": 7871,
      "Ġvill": 7872,
      "osc": 7873,
      "actic": 7874,
      "Ġ&=": 7875,
      "123": 7876,
      "Ġ85": 7877,
      "Ġpresum": 7878,
      "ĠOnly": 7879,
      "ĠMinister": 7880,
      "Ġduty": 7881,
      "cX": 7882,
      "dagger": 7883,
      "Ġcro": 7884,
      "ĠSources": 7885,
      "Ġdefe": 7886,
      "ests": 7887,
      "Ġleague": 7888,
      "ĠUser": 7889,
      "tyle": 7890,
      "Ġhelps": 7891,
      "Ġrepair": 7892,
      "Ġamounts": 7893,
      "ĠFranc": 7894,
      "Ġspatial": 7895,
      "PT": 7896,
      "Right": 7897,
      "Two": 7898,
      "Ġbow": 7899,
      "Ġgrid": 7900,
      "aming": 7901,
      "seud": 7902,
      "ulus": 7903,
      "ĠFix": 7904,
      "izont": 7905,
      "ffff": 7906,
      "Ġoblig": 7907,
      "Ġinternet": 7908,
      "Ġproved": 7909,
      "Property": 7910,
      "Ġadvance": 7911,
      "offset": 7912,
      "Ġtelling": 7913,
      "Ġblocks": 7914,
      "Ġtwice": 7915,
      "Ġantibodies": 7916,
      "Ġexcellent": 7917,
      "caps": 7918,
      "men": 7919,
      "Ġcas": 7920,
      "Ġreform": 7921,
      "ĠSaturday": 7922,
      "ĠAction": 7923,
      "uscript": 7924,
      "ĠGal": 7925,
      "Ġcompens": 7926,
      "ĠJew": 7927,
      "(\\[": 7928,
      "}^{(": 7929,
      "Ġstanding": 7930,
      "Ġdelivered": 7931,
      "Americ": 7932,
      "DM": 7933,
      "iations": 7934,
      "Ġaid": 7935,
      "only": 7936,
      "Ġnorth": 7937,
      "artifact": 7938,
      "ĠOnce": 7939,
      "Ġpreserv": 7940,
      "Ne": 7941,
      "inet": 7942,
      "atric": 7943,
      "ano": 7944,
      "Ġlaser": 7945,
      "Ġconsole": 7946,
      "ĠFlor": 7947,
      "ĠLcom": 7948,
      "ĠLike": 7949,
      "Ġthanks": 7950,
      "Thanks": 7951,
      "Ġlarg": 7952,
      "Ġbroken": 7953,
      "Ġrequirement": 7954,
      "Ġâī": 7955,
      "ogeneous": 7956,
      "Ġmembrane": 7957,
      "]);": 7958,
      "ipping": 7959,
      "number": 7960,
      "tmp": 7961,
      "wave": 7962,
      "isher": 7963,
      "Ġprobe": 7964,
      "istan": 7965,
      "Ġexposed": 7966,
      "ĠName": 7967,
      "udd": 7968,
      "Ġ300": 7969,
      "Ġtelevision": 7970,
      "157": 7971,
      "ĊĠĠĠĠĠĠĠĠĠĠĠĠĠĠĠĠĠĠĠĠĠĠĠĠĠĠĠĠĠĠĠ": 7972,
      "Results": 7973,
      "ĠPlaintiff": 7974,
      "ĠÎ±": 7975,
      "Ġsignaling": 7976,
      "ogenic": 7977,
      "ĠAPI": 7978,
      "called": 7979,
      "Ġlayers": 7980,
      "Ġcomprehens": 7981,
      "Fault": 7982,
      "Spec": 7983,
      "Ã³": 7984,
      "Ġsport": 7985,
      "Ġsplit": 7986,
      "esity": 7987,
      "Ġsudden": 7988,
      "ĠJer": 7989,
      "achment": 7990,
      "Ġmanage": 7991,
      "Ġassistance": 7992,
      "Ġmodify": 7993,
      "erman": 7994,
      "annels": 7995,
      "Ġlogic": 7996,
      "Ġ>>": 7997,
      "Ġconcerned": 7998,
      "Ġstrike": 7999,
      "ÐµÐ": 8000,
      "ĠRussian": 8001,
      "Ġstatistical": 8002,
      "Step": 8003,
      "\\\"": 8004,
      "hr": 8005,
      "sur": 8006,
      "tag": 8007,
      "}/": 8008,
      "Ġahead": 8009,
      "Ġsick": 8010,
      "eness": 8011,
      "Ġbodies": 8012,
      "Ġbaby": 8013,
      "omes": 8014,
      "ĠTR": 8015,
      "Ġalleg": 8016,
      "ĠBur": 8017,
      "ushed": 8018,
      "ĠFil": 8019,
      "ĠHuman": 8020,
      "dule": 8021,
      "Ġworry": 8022,
      "Ġthereby": 8023,
      "Ġsigns": 8024,
      "Ġconstraint": 8025,
      "Ġmathem": 8026,
      "monary": 8027,
      "////////": 8028,
      "Output": 8029,
      "Ġlargely": 8030,
      "BP": 8031,
      "WS": 8032,
      "Â®": 8033,
      "Ġtheoret": 8034,
      "Ġconference": 8035,
      "ĠTheir": 8036,
      "ĠHon": 8037,
      "xture": 8038,
      "ĠĠĠĠĠĠĠĠĠĠĠĠĠĠĠĠĠĠĠĠĠĠĠĠĠĠĠĠ": 8039,
      "Ġ1992": 8040,
      "}+\\": 8041,
      "Ġassumption": 8042,
      "Ġscreening": 8043,
      "Ġcolumns": 8044,
      "EP": 8045,
      "Ms": 8046,
      "gence": 8047,
      "iences": 8048,
      "{-": 8049,
      "Ġdaughter": 8050,
      "olars": 8051,
      "Ġforth": 8052,
      "Ġ110": 8053,
      "ulating": 8054,
      "Ġran": 8055,
      "Ġapproval": 8056,
      "aneously": 8057,
      "]{}]{}": 8058,
      "III": 8059,
      "Ġaccuracy": 8060,
      "Frame": 8061,
      "FI": 8062,
      "tra": 8063,
      "usiness": 8064,
      "Ġsector": 8065,
      "Ġclock": 8066,
      "Ġcausing": 8067,
      "Ġexpensive": 8068,
      "Control": 8069,
      "Ġlimitations": 8070,
      "Ġmuscle": 8071,
      "Ġappearance": 8072,
      "iliar": 8073,
      "Ġreplaced": 8074,
      "Ġlegisl": 8075,
      "Filter": 8076,
      "GB": 8077,
      "dx": 8078,
      "ka": 8079,
      "target": 8080,
      "yes": 8081,
      "Ġspl": 8082,
      "uto": 8083,
      "ĠMex": 8084,
      "ested": 8085,
      "ĠLO": 8086,
      "ulture": 8087,
      "Ġcorner": 8088,
      "Ġeffectively": 8089,
      "Ġ2001": 8090,
      "Ġcounts": 8091,
      "Ġmedian": 8092,
      "Ġpossession": 8093,
      "ĠAnother": 8094,
      "azine": 8095,
      "Ġfavorite": 8096,
      "Ġdynamic": 8097,
      "Ġcomplications": 8098,
      "Ġbacteria": 8099,
      ":(": 8100,
      "Script": 8101,
      "ca": 8102,
      "oon": 8103,
      "ĠTom": 8104,
      "Ġbeat": 8105,
      "ĠSame": 8106,
      "teen": 8107,
      ").$$": 8108,
      "client": 8109,
      "Ġ53": 8110,
      "Ġ59": 8111,
      "Ġarms": 8112,
      "Ġinterval": 8113,
      "Ġsurgical": 8114,
      "Ġminute": 8115,
      "Ġpursu": 8116,
      "Ġinvolves": 8117,
      "Ġpayment": 8118,
      "Enc": 8119,
      "Ġrecommended": 8120,
      "Ġcontributions": 8121,
      "Your": 8122,
      "wing": 8123,
      "Ġuint": 8124,
      "ĊĊĉ": 8125,
      "Str": 8126,
      "Ġsupplement": 8127,
      "Ġmatters": 8128,
      "Ġvictims": 8129,
      "Gu": 8130,
      "make": 8131,
      "ups": 8132,
      "Ġtit": 8133,
      "Ġinfected": 8134,
      "osh": 8135,
      "assert": 8136,
      "Ġ$\\{": 8137,
      "Ġconsc": 8138,
      "ools": 8139,
      "ERS": 8140,
      "Ġbuck": 8141,
      "ARE": 8142,
      "Ġspectral": 8143,
      "Ġarchitect": 8144,
      "Ġjoined": 8145,
      "QU": 8146,
      "bour": 8147,
      "break": 8148,
      "flu": 8149,
      "ni": 8150,
      "athe": 8151,
      "ita": 8152,
      "Ġfurn": 8153,
      "Ġanisotrop": 8154,
      "ĠAff": 8155,
      "ĠForm": 8156,
      "neg": 8157,
      "ownload": 8158,
      "Ġspaces": 8159,
      "Ġmanuscript": 8160,
      "Ġunderstood": 8161,
      "ollowing": 8162,
      "Ġformal": 8163,
      "cribed": 8164,
      "Ġdetermining": 8165,
      "Ġdescribes": 8166,
      "Ġinvolving": 8167,
      "Ġsensitivity": 8168,
      "Ġdebate": 8169,
      "Ġmomentum": 8170,
      "Ġsynthesis": 8171,
      ".**": 8172,
      "iner": 8173,
      "Ġfaster": 8174,
      "Ġmand": 8175,
      "icious": 8176,
      "Ġhate": 8177,
      "Ġlymph": 8178,
      "ĠAL": 8179,
      "ady": 8180,
      "ĠMer": 8181,
      "ĠGovernment": 8182,
      "}}}$": 8183,
      "Ġarter": 8184,
      "Buffer": 8185,
      "CIT": 8186,
      "Trial": 8187,
      "rine": 8188,
      "uke": 8189,
      "Ġbinary": 8190,
      "Ġ\\|": 8191,
      "ĠBi": 8192,
      "ĠWIT": 8193,
      "Ġnotes": 8194,
      "Ġ52": 8195,
      "Ġsuppl": 8196,
      "Ġstarts": 8197,
      "player": 8198,
      "Ġfluores": 8199,
      "unched": 8200,
      "Ġmarried": 8201,
      "Ġprinciple": 8202,
      "Ġopportunities": 8203,
      "Ġantibody": 8204,
      "Ġdocuments": 8205,
      "Ġdiabetes": 8206,
      "BD": 8207,
      "bel": 8208,
      "Ġton": 8209,
      "ĠColumn": 8210,
      "Ġrig": 8211,
      "Ġabandon": 8212,
      "Ġimplicit": 8213,
      "inder": 8214,
      "Ġcharacterized": 8215,
      "itudes": 8216,
      "Ġphoto": 8217,
      "Ġlaunch": 8218,
      "ĠMuslim": 8219,
      "ĠSociety": 8220,
      "$)": 8221,
      "CV": 8222,
      "Ġtail": 8223,
      "itage": 8224,
      "asure": 8225,
      "Ġrid": 8226,
      "ĠNH": 8227,
      "Ġconsists": 8228,
      "ĠIts": 8229,
      "Ġ96": 8230,
      "Ġprovision": 8231,
      "Ġhybrid": 8232,
      "otted": 8233,
      "Default": 8234,
      "Ġabsolutely": 8235,
      "Ġfuck": 8236,
      "ĠHome": 8237,
      "Ġperman": 8238,
      "Ġclassical": 8239,
      "147": 8240,
      "ĠSecret": 8241,
      "Ġ*/,": 8242,
      "Ġorganizations": 8243,
      "Ġpolitics": 8244,
      "Ġsuccessfully": 8245,
      "--------------": 8246,
      "Ġattempts": 8247,
      "mazon": 8248,
      "Ġpropag": 8249,
      "Ġultimately": 8250,
      "variant": 8251,
      "Ġexplanation": 8252,
      "Ġprevalence": 8253,
      "ĠFlorida": 8254,
      "TA": 8255,
      "pdf": 8256,
      "Ñĭ": 8257,
      "Ġwrt": 8258,
      "Ġtom": 8259,
      "Ġtoler": 8260,
      "ilib": 8261,
      "ĠSD": 8262,
      "Ġcontribute": 8263,
      "ĠJava": 8264,
      "rypt": 8265,
      "Ġmanip": 8266,
      "125": 8267,
      "Ġrecall": 8268,
      "Ġsimpl": 8269,
      "Ġapopt": 8270,
      "NAME": 8271,
      "Ġturns": 8272,
      "ĠRussia": 8273,
      "Ġreprodu": 8274,
      "Ġinequality": 8275,
      "Ġarbitrary": 8276,
      "CM": 8277,
      "ye": 8278,
      "Ġpy": 8279,
      "Ġrect": 8280,
      "ĠTime": 8281,
      "ĠMS": 8282,
      "istor": 8283,
      "avel": 8284,
      "Ġdesire": 8285,
      "Ġsurve": 8286,
      "Ġprimarily": 8287,
      "cdots": 8288,
      "ĠDefault": 8289,
      "Module": 8290,
      "ĠGeorge": 8291,
      "Ġsyndrome": 8292,
      "artifactId": 8293,
      "<?": 8294,
      "fill": 8295,
      "water": 8296,
      "Ġcrow": 8297,
      "ĠCup": 8298,
      "Ġconj": 8299,
      "ĠBer": 8300,
      "ĠLife": 8301,
      "ĠExt": 8302,
      "107": 8303,
      "Ġlocally": 8304,
      "Ġposted": 8305,
      "Ġobservation": 8306,
      "ĠSpan": 8307,
      "Ġbehaviour": 8308,
      "Ġamazing": 8309,
      "ĠWARRANT": 8310,
      "grad": 8311,
      "Ġfract": 8312,
      "ĠWT": 8313,
      "ĠLI": 8314,
      "Ġ*)": 8315,
      "Ġ[]": 8316,
      "109": 8317,
      "ariant": 8318,
      "Ġdepartment": 8319,
      "Ġpassing": 8320,
      "Ġrepresentative": 8321,
      "Ġnegot": 8322,
      "Ġstrip": 8323,
      "Ġcere": 8324,
      ">>>": 8325,
      "Ġhonest": 8326,
      "filter": 8327,
      "Ġinstrument": 8328,
      "Ġbattery": 8329,
      "Hz": 8330,
      "dark": 8331,
      "iverse": 8332,
      "Ġgate": 8333,
      "ĠPeter": 8334,
      "ĠBig": 8335,
      "Ġworst": 8336,
      "reatment": 8337,
      "Ġrecording": 8338,
      "ĠÂ£": 8339,
      "\":\"": 8340,
      "Listener": 8341,
      "Ġbanks": 8342,
      "Supplementary": 8343,
      "layout": 8344,
      "ĠSecurity": 8345,
      ".-": 8346,
      "aid": 8347,
      "dist": 8348,
      "Ġing": 8349,
      "Ġwarm": 8350,
      "ĠServ": 8351,
      "Ġsegment": 8352,
      "Ġcompat": 8353,
      "Ġadmitted": 8354,
      "values": 8355,
      "Ġ1994": 8356,
      "Ġdependent": 8357,
      "Ġsubstantially": 8358,
      "Ġinterpretation": 8359,
      "Ġmargin": 8360,
      "Ġproliferation": 8361,
      "ĠVirgin": 8362,
      "*/": 8363,
      "cape": 8364,
      "gi": 8365,
      "person": 8366,
      "Ġty": 8367,
      "arp": 8368,
      "ĠMethod": 8369,
      "ĠPen": 8370,
      "Ġorth": 8371,
      "ĠHy": 8372,
      "ĠRule": 8373,
      "Ġju": 8374,
      "Ġdisorders": 8375,
      "Ġ51": 8376,
      "Ġsolve": 8377,
      ",$": 8378,
      "FOR": 8379,
      "Options": 8380,
      "dl": 8381,
      "iser": 8382,
      "Ġbone": 8383,
      "ĠSal": 8384,
      "Ġoral": 8385,
      "Ġchair": 8386,
      "Ġregime": 8387,
      "oxid": 8388,
      "Ġapart": 8389,
      "ĠComm": 8390,
      "2008": 8391,
      "serve": 8392,
      "Ġstronger": 8393,
      "Another": 8394,
      "Content": 8395,
      "Ġphotos": 8396,
      "Ġimplemented": 8397,
      "Ġloved": 8398,
      "ĠRobert": 8399,
      "System": 8400,
      "element": 8401,
      "rick": 8402,
      "Ġcra": 8403,
      "Ġrender": 8404,
      "Ġnarr": 8405,
      "ĠTimes": 8406,
      "ĠChe": 8407,
      "ĠFROM": 8408,
      "ĊĠĠĠĠĠĠĠĠĠĠĠĠĠĠ": 8409,
      "128": 8410,
      "190": 8411,
      "Ġreporting": 8412,
      "Ġdepart": 8413,
      "2009": 8414,
      "ĠMedical": 8415,
      "Ġcorrelated": 8416,
      "Ġfeedback": 8417,
      "Ġpowers": 8418,
      "tt": 8419,
      "tri": 8420,
      "yles": 8421,
      "Ġpages": 8422,
      "sect": 8423,
      "ĠCisco": 8424,
      "Ġalpha": 8425,
      "ĠMath": 8426,
      "ĠMult": 8427,
      "ĠEqu": 8428,
      "ogram": 8429,
      "016": 8430,
      "Ġclar": 8431,
      "Ġ57": 8432,
      "ords": 8433,
      "ĠStat": 8434,
      "ĠStar": 8435,
      "Stat": 8436,
      "Ġhelping": 8437,
      "Ġposts": 8438,
      "STR": 8439,
      "scopy": 8440,
      "Ġscientific": 8441,
      "%.": 8442,
      "push": 8443,
      "va": 8444,
      "ĠImm": 8445,
      "Ġexceed": 8446,
      "ĠRo": 8447,
      "ĠNever": 8448,
      "ude": 8449,
      "alloc": 8450,
      "^{+": 8451,
      "common": 8452,
      "Ġ77": 8453,
      "ologic": 8454,
      "axis": 8455,
      "Ġsupporting": 8456,
      "ĠDevelopment": 8457,
      "Ġinitially": 8458,
      "Ġpromote": 8459,
      "Tests": 8460,
      "Ġwatching": 8461,
      "Ġcircul": 8462,
      "PP": 8463,
      "cers": 8464,
      "png": 8465,
      "ted": 8466,
      "rer": 8467,
      "Ġpal": 8468,
      "Ġmission": 8469,
      "Ġthrows": 8470,
      "Ġgay": 8471,
      "Ġstrain": 8472,
      "Ġdecom": 8473,
      "osoph": 8474,
      "Ġrul": 8475,
      "ĠLocal": 8476,
      "athy": 8477,
      "Ġreson": 8478,
      "Ġdoctor": 8479,
      "\\]).": 8480,
      "\\]),": 8481,
      "Ġpoll": 8482,
      "Ġevening": 8483,
      "cheat": 8484,
      "Ġgoods": 8485,
      "gener": 8486,
      "ĠShin": 8487,
      "Ġprofiles": 8488,
      "Ġtrees": 8489,
      "Ġexamine": 8490,
      "Ġconstructed": 8491,
      "Description": 8492,
      "ĠGerman": 8493,
      "Label": 8494,
      "Ġsister": 8495,
      "ench": 8496,
      "orters": 8497,
      "Ġfilled": 8498,
      "asy": 8499,
      "etal": 8500,
      "Ġwear": 8501,
      "Ġalt": 8502,
      "ĠWis": 8503,
      "ortion": 8504,
      "ĠGli": 8505,
      "ĠEG": 8506,
      "Ġjour": 8507,
      "ĠThomas": 8508,
      "Ġfails": 8509,
      "âĢĶâĢĶ": 8510,
      "Ġlinked": 8511,
      "Ġclosely": 8512,
      "Ġepit": 8513,
      "iscuss": 8514,
      "ĠJustice": 8515,
      "Ġgirls": 8516,
      "Ljava": 8517,
      "Next": 8518,
      "reated": 8519,
      "aning": 8520,
      "Ġgly": 8521,
      "âĢĬ": 8522,
      "Ġ1000": 8523,
      "iller": 8524,
      "Ġchart": 8525,
      "}}}(": 8526,
      "ĠJones": 8527,
      "Ġdisorder": 8528,
      "Ġdisappe": 8529,
      "never": 8530,
      "Ġpept": 8531,
      "racellular": 8532,
      "2004": 8533,
      "Ġradical": 8534,
      "Ġproportion": 8535,
      "'\\": 8536,
      "Ac": 8537,
      "Equal": 8538,
      "full": 8539,
      "eding": 8540,
      "Ġfashion": 8541,
      "igan": 8542,
      "ĠCap": 8543,
      "ifer": 8544,
      "Ġwaste": 8545,
      "ĠNav": 8546,
      "Ġking": 8547,
      "prote": 8548,
      "Ġweekend": 8549,
      "Ġnumerous": 8550,
      "unsigned": 8551,
      "'(": 8552,
      "./": 8553,
      "Before": 8554,
      "van": 8555,
      "Ġsong": 8556,
      "Ġped": 8557,
      "Ġlatt": 8558,
      "amy": 8559,
      "006": 8560,
      "Ġdefect": 8561,
      "ĠEnd": 8562,
      "ĠUN": 8563,
      "ĠJoe": 8564,
      "Ġinstructions": 8565,
      "]{.": 8566,
      "Ġcreation": 8567,
      "coin": 8568,
      "Ġtargets": 8569,
      "Controller": 8570,
      "imensions": 8571,
      "Ġsuffering": 8572,
      "Ġshooting": 8573,
      "rapeut": 8574,
      "(&": 8575,
      "Bar": 8576,
      "Em": 8577,
      "HR": 8578,
      "Other": 8579,
      "Red": 8580,
      "cb": 8581,
      "lements": 8582,
      "asm": 8583,
      "Ġthor": 8584,
      "Ġgap": 8585,
      "Ġven": 8586,
      "isting": 8587,
      "agon": 8588,
      "ĠKey": 8589,
      "120": 8590,
      "Real": 8591,
      "Ġexplore": 8592,
      "scill": 8593,
      "equiv": 8594,
      "ĠCarol": 8595,
      "Range": 8596,
      "cf": 8597,
      "iams": 8598,
      "umer": 8599,
      "ĠWil": 8600,
      "ĠLED": 8601,
      "Ġperm": 8602,
      "Ġputting": 8603,
      "ĠSpring": 8604,
      "groupId": 8605,
      "People": 8606,
      ".^[@": 8607,
      "OB": 8608,
      "Ġpump": 8609,
      "Ġban": 8610,
      "Ġdress": 8611,
      "ĠPC": 8612,
      "ivo": 8613,
      "\"}](": 8614,
      "182": 8615,
      "Ġhelpful": 8616,
      "bling": 8617,
      "Ġstructural": 8618,
      "Ġvisible": 8619,
      "Ġtotally": 8620,
      "Ġfrequencies": 8621,
      "doi": 8622,
      "helial": 8623,
      "Ġimmediate": 8624,
      "Mult": 8625,
      "Material": 8626,
      "event": 8627,
      "kt": 8628,
      "uce": 8629,
      "Ġfer": 8630,
      "Ġmaps": 8631,
      "Ġhole": 8632,
      "ĠMel": 8633,
      "ĠBill": 8634,
      "ĠLake": 8635,
      "Ġobesity": 8636,
      "Ġintermedi": 8637,
      "Ġraw": 8638,
      "Ġgrad": 8639,
      "Ġpractical": 8640,
      "Ġthoughts": 8641,
      "Although": 8642,
      "Ġessentially": 8643,
      "Ġrecognized": 8644,
      "Ġseeking": 8645,
      "ĠCompany": 8646,
      "Ġretirement": 8647,
      "225": 8648,
      "Mode": 8649,
      "Pos": 8650,
      "ffered": 8651,
      "ttp": 8652,
      "çļ": 8653,
      "Ġwood": 8654,
      "Ġbought": 8655,
      "Ġgod": 8656,
      "Ġglucose": 8657,
      "ĠFour": 8658,
      "ĠGree": 8659,
      "Ġdisput": 8660,
      "Ġuniversity": 8661,
      "ĠYet": 8662,
      "Ġzone": 8663,
      "Ġassumed": 8664,
      "Ġmutations": 8665,
      "ophil": 8666,
      "Ġattempted": 8667,
      "ĠCentral": 8668,
      "ĠObject": 8669,
      "Ġcalc": 8670,
      "ĠWilliam": 8671,
      "Ġproceedings": 8672,
      "Ġpenalty": 8673,
      "Ġcategories": 8674,
      "det": 8675,
      "uh": 8676,
      "road": 8677,
      "Ġeigen": 8678,
      "ĠSam": 8679,
      "ifts": 8680,
      "Ġconversion": 8681,
      "ĠLabor": 8682,
      "apse": 8683,
      "phot": 8684,
      "ĠVis": 8685,
      "Ġcarcin": 8686,
      "ĠApple": 8687,
      "Ġsales": 8688,
      "Ġdeclar": 8689,
      "Ġcorrectly": 8690,
      "Ġarrived": 8691,
      "Ġpreparation": 8692,
      "LC": 8693,
      "drop": 8694,
      "fortunately": 8695,
      "session": 8696,
      "zer": 8697,
      "Ġsand": 8698,
      "ora": 8699,
      "Ġcontem": 8700,
      "Ġguard": 8701,
      "Ġanswers": 8702,
      "Ġconviction": 8703,
      "Ġemergency": 8704,
      "Ġconversation": 8705,
      "çļĦ": 8706,
      "La": 8707,
      "Miss": 8708,
      "Vis": 8709,
      "docs": 8710,
      "some": 8711,
      "alg": 8712,
      "omatic": 8713,
      "ĠSant": 8714,
      "iral": 8715,
      "ums": 8716,
      "eller": 8717,
      "012": 8718,
      "Ġ63": 8719,
      "Ġsomewhat": 8720,
      "Ġattached": 8721,
      "Ġcreates": 8722,
      "Ġarticles": 8723,
      "Ġaffirm": 8724,
      "Ġexcited": 8725,
      "Ġcorrespond": 8726,
      "cmd": 8727,
      "Ġaccepted": 8728,
      "Ġstrains": 8729,
      "Ġversions": 8730,
      "ULT": 8731,
      "Ġhundreds": 8732,
      "Ġinvolvement": 8733,
      "namespace": 8734,
      "izontal": 8735,
      ")+": 8736,
      "dep": 8737,
      "pub": 8738,
      "vas": 8739,
      "Ġsouth": 8740,
      "Ġdust": 8741,
      "sto": 8742,
      "Ġvitro": 8743,
      "Ġ\\{": 8744,
      "anda": 8745,
      "claim": 8746,
      "Ġcontrad": 8747,
      "108": 8748,
      "Ġextend": 8749,
      "Const": 8750,
      "Ġboost": 8751,
      "Ġemployment": 8752,
      "words": 8753,
      "Ġconcerning": 8754,
      "Ġobviously": 8755,
      "sensors": 8756,
      "Width": 8757,
      ")}\\": 8758,
      "}.$$": 8759,
      "herent": 8760,
      "Ġsitting": 8761,
      "Ġoscill": 8762,
      "Ġpip": 8763,
      "Ġinclusion": 8764,
      "ĠCam": 8765,
      "adow": 8766,
      "Ġasc": 8767,
      "Ġsuc": 8768,
      "outs": 8769,
      "Ġintake": 8770,
      "ĠProposition": 8771,
      "Ġsignificance": 8772,
      "Ġglad": 8773,
      "Ġmassive": 8774,
      "Ġearth": 8775,
      "Address": 8776,
      "Ġdriven": 8777,
      "Ġfighting": 8778,
      "connect": 8779,
      "Ġmortality": 8780,
      "ĠSpanish": 8781,
      "Sm": 8782,
      "^,": 8783,
      "friend": 8784,
      "osure": 8785,
      "ĠDC": 8786,
      "Ġnoticed": 8787,
      "ĠGNU": 8788,
      "ello": 8789,
      "Ġadverse": 8790,
      "------------------------": 8791,
      "Ġ1999": 8792,
      "Ġ1980": 8793,
      "Ġ66": 8794,
      "Ġsubmitted": 8795,
      "Ġmodules": 8796,
      "Ġrail": 8797,
      "oyal": 8798,
      "Ġdirectory": 8799,
      "Ġtemplate": 8800,
      "equal": 8801,
      "Ġseparated": 8802,
      "charge": 8803,
      "Ġpieces": 8804,
      "nger": 8805,
      "split": 8806,
      "Ġcodes": 8807,
      "Ġcaught": 8808,
      "Ġcoffee": 8809,
      "Ġthr": 8810,
      "ĠCT": 8811,
      "empt": 8812,
      "Ġadvert": 8813,
      "Ġ68": 8814,
      "Ġ72": 8815,
      "Ġ1600": 8816,
      "Ġ1700": 8817,
      "address": 8818,
      "ometric": 8819,
      "slant": 8820,
      "DD": 8821,
      "Ge": 8822,
      "Mr": 8823,
      "Page": 8824,
      "mes": 8825,
      "sink": 8826,
      "uate": 8827,
      "alent": 8828,
      "Ġisland": 8829,
      "Ġ130": 8830,
      "007": 8831,
      "ndef": 8832,
      "ĠPR": 8833,
      "ĠBet": 8834,
      "Ġacute": 8835,
      "Ġ1993": 8836,
      "Ġmenu": 8837,
      "Ġmoral": 8838,
      "Ġrecognition": 8839,
      "matrix": 8840,
      "Ġreligion": 8841,
      "OH": 8842,
      "ao": 8843,
      "Ã¶": 8844,
      "Ġlig": 8845,
      "ĠPut": 8846,
      "oked": 8847,
      "Ġcellular": 8848,
      "Ġincred": 8849,
      "Ġoptimal": 8850,
      "Ġemployee": 8851,
      "Ġdecreasing": 8852,
      "bigg": 8853,
      "Ġincreasingly": 8854,
      "Ġpredicted": 8855,
      "Ġenhanced": 8856,
      "Ġdollars": 8857,
      "/-": 8858,
      "GET": 8859,
      "Mon": 8860,
      "TER": 8861,
      "king": 8862,
      "mult": 8863,
      "ua": 8864,
      "âĸ": 8865,
      "Ġble": 8866,
      "roke": 8867,
      "Ġlived": 8868,
      "idity": 8869,
      "oly": 8870,
      "ura": 8871,
      "ĠGiven": 8872,
      "inton": 8873,
      "2007": 8874,
      "Ġdivision": 8875,
      "ributes": 8876,
      "Ġarrested": 8877,
      "Entry": 8878,
      "Ġaccordance": 8879,
      ")}$": 8880,
      "BB": 8881,
      "Flo": 8882,
      "OK": 8883,
      "dict": 8884,
      "onical": 8885,
      "Ġsale": 8886,
      "Ġsizes": 8887,
      "isely": 8888,
      "Ġfle": 8889,
      "ĠmM": 8890,
      "Ġmail": 8891,
      "idents": 8892,
      "Ġstages": 8893,
      "ĠCare": 8894,
      "ells": 8895,
      "ĠThanks": 8896,
      "Ġassign": 8897,
      "Ġinterventions": 8898,
      "Ġblind": 8899,
      "Ġtopic": 8900,
      "Ġprivile": 8901,
      "Ġdomestic": 8902,
      "Ġsensor": 8903,
      "ĠCanad": 8904,
      "Ġapproximation": 8905,
      "Ġstrategies": 8906,
      "ĠSupport": 8907,
      "Ġsenior": 8908,
      "Ġtrouble": 8909,
      "Ġdiagram": 8910,
      "LP": 8911,
      "fit": 8912,
      "Äģ": 8913,
      "ĠSA": 8914,
      "aded": 8915,
      "adata": 8916,
      "Ġchannels": 8917,
      "Ġ++": 8918,
      "ĠJr": 8919,
      "ported": 8920,
      "Ġapplying": 8921,
      "Ġamino": 8922,
      "Ġinvoke": 8923,
      "Ġacademic": 8924,
      "Ġsupports": 8925,
      "tenance": 8926,
      "Ġpurs": 8927,
      "agnetic": 8928,
      "Ġbusinesses": 8929,
      "Ġmutation": 8930,
      "Ġdynamics": 8931,
      "Ġthermal": 8932,
      "Style": 8933,
      "mosp": 8934,
      "rst": 8935,
      "Äĵ": 8936,
      "Ġreact": 8937,
      "ĠSP": 8938,
      "ĠStand": 8939,
      "idential": 8940,
      "liament": 8941,
      "Ġminimal": 8942,
      "Ġflight": 8943,
      "Ġdiffer": 8944,
      "Ġhappening": 8945,
      "Ġsuspect": 8946,
      "Ġplaintiffs": 8947,
      "bial": 8948,
      "pop": 8949,
      "zym": 8950,
      "oral": 8951,
      "Ġbott": 8952,
      "Ġduration": 8953,
      "ĠSand": 8954,
      "unte": 8955,
      "Ġhell": 8956,
      "ĠDec": 8957,
      "Ġneon": 8958,
      "ĠLog": 8959,
      "perties": 8960,
      "Stud": 8961,
      "Ġsurfaces": 8962,
      "Ġelig": 8963,
      "Ġhealthcare": 8964,
      "Ġtechnologies": 8965,
      "contin": 8966,
      "Ġviral": 8967,
      "ĠMcC": 8968,
      "Ġremoval": 8969,
      "Ġwalking": 8970,
      "Ġmaintained": 8971,
      "Because": 8972,
      "Current": 8973,
      "Off": 8974,
      "bool": 8975,
      "foot": 8976,
      "Ã¨": 8977,
      "Ġsac": 8978,
      "Ġanc": 8979,
      "Ġmob": 8980,
      "Ġlies": 8981,
      "chron": 8982,
      "ĠMont": 8983,
      "ĠHD": 8984,
      "Ġchamber": 8985,
      "ourse": 8986,
      "///": 8987,
      "Ġunknown": 8988,
      "Ġassault": 8989,
      "Ġsubset": 8990,
      "Ġbreath": 8991,
      "Comp": 8992,
      "Ġcommittee": 8993,
      "Ġlaboratory": 8994,
      "Ġemphas": 8995,
      "Look": 8996,
      "Link": 8997,
      "fold": 8998,
      "Ġcash": 8999,
      "ĠALL": 9000,
      "Ġdisag": 9001,
      "Ġouter": 9002,
      "Ġenzyme": 9003,
      "bert": 9004,
      "Ġarr": 9005,
      "Ġquiet": 9006,
      "Ġ62": 9007,
      "product": 9008,
      "209": 9009,
      "Ġpublication": 9010,
      "placement": 9011,
      "ictionary": 9012,
      "Ġintroduce": 9013,
      "Ġinformed": 9014,
      "Ġmerely": 9015,
      "ilibrium": 9016,
      "Ġapoptosis": 9017,
      "BO": 9018,
      "Token": 9019,
      "pay": 9020,
      "rish": 9021,
      "she": 9022,
      "âĻª": 9023,
      "Ġexclusion": 9024,
      "Ġchick": 9025,
      "aped": 9026,
      "aks": 9027,
      "=\"#": 9028,
      "Ġprejud": 9029,
      "Ġaccident": 9030,
      "Ġacting": 9031,
      "cale": 9032,
      "Ġparticle": 9033,
      "Ġtrip": 9034,
      "Ġopposition": 9035,
      "Ġmagnet": 9036,
      "Ġinhibitors": 9037,
      "Ġstruggle": 9038,
      "Ġadopted": 9039,
      "HS": 9040,
      "kins": 9041,
      "Ġtables": 9042,
      "Ġbits": 9043,
      "ĠCall": 9044,
      "odium": 9045,
      "Ġorb": 9046,
      "ĠRun": 9047,
      "ensus": 9048,
      "Ġpermit": 9049,
      "Ġtransformation": 9050,
      "Thread": 9051,
      "arser": 9052,
      "ĠAnn": 9053,
      "Ġflag": 9054,
      "ISA": 9055,
      "^\\*^": 9056,
      "Ġreviews": 9057,
      "Ġglut": 9058,
      "ruptcy": 9059,
      "Ġpairs": 9060,
      "Ġamplitude": 9061,
      "itrogen": 9062,
      "={": 9063,
      "VA": 9064,
      "look": 9065,
      "Ñı": 9066,
      "rend": 9067,
      "Ġlie": 9068,
      "Ġprohib": 9069,
      "ĠEarth": 9070,
      "Ġleaf": 9071,
      "ĠON": 9072,
      "))$": 9073,
      "))/(": 9074,
      ",\\,\\": 9075,
      "Ġcoupled": 9076,
      "buffer": 9077,
      "Ġtells": 9078,
      "Ġcloser": 9079,
      "ILITY": 9080,
      "Ġinduction": 9081,
      "Ġcollabor": 9082,
      "Ġexperiences": 9083,
      "Ġupdated": 9084,
      "American": 9085,
      "Ġtight": 9086,
      "Ġsounds": 9087,
      "Ġstret": 9088,
      "Ġiter": 9089,
      "ĠBrown": 9090,
      "ĠLand": 9091,
      "lik": 9092,
      "Ġreviewed": 9093,
      "Ġfemales": 9094,
      "Ġtransferred": 9095,
      "Ġsufficiently": 9096,
      "Ġcleaning": 9097,
      "Ġyields": 9098,
      "Ġmonitoring": 9099,
      "ï¼Į": 9100,
      "%),": 9101,
      "]\\": 9102,
      "sf": 9103,
      "Ġsess": 9104,
      "âĢĳ": 9105,
      "ĠSpe": 9106,
      "ĠMO": 9107,
      "quo": 9108,
      "ocy": 9109,
      "itions": 9110,
      "ĠDev": 9111,
      "Ġfamiliar": 9112,
      "Ġprofession": 9113,
      "859": 9114,
      "Ġdestination": 9115,
      "Ġphosphory": 9116,
      "Ġconsequences": 9117,
      "Ġcrucial": 9118,
      "piratory": 9119,
      "Ġuniversal": 9120,
      "Load": 9121,
      "inos": 9122,
      "oni": 9123,
      "lections": 9124,
      "ĠSun": 9125,
      "Ġyounger": 9126,
      "Ġrational": 9127,
      "ĠWC": 9128,
      "Ġsharing": 9129,
      "Ġbiom": 9130,
      "Ġinputs": 9131,
      "Ġcandidates": 9132,
      "Ġkinase": 9133,
      "\"))": 9134,
      "Max": 9135,
      "afe": 9136,
      "inical": 9137,
      "Ġos": 9138,
      "Ġcogn": 9139,
      "Ġwound": 9140,
      "Ġfunc": 9141,
      "Ġnations": 9142,
      "ĠCheck": 9143,
      "Ġ\"âĻª": 9144,
      "Ġdepos": 9145,
      "ĠLie": 9146,
      "ĠOffic": 9147,
      "Ġcoal": 9148,
      "Ġrequiring": 9149,
      "Ġfinds": 9150,
      "Ġspeaking": 9151,
      "ĠAdditionally": 9152,
      "sequently": 9153,
      "Ġkinds": 9154,
      "Ġcards": 9155,
      "ĠSimilarly": 9156,
      "Ġmillions": 9157,
      "Ġadjacent": 9158,
      "Ġsupra": 9159,
      "ĠVirginia": 9160,
      "!--": 9161,
      ">)": 9162,
      "Am": 9163,
      "GR": 9164,
      "green": 9165,
      "Ġbra": 9166,
      "Ġreactions": 9167,
      "ĠSign": 9168,
      "ĠAriz": 9169,
      "ĠPO": 9170,
      "elli": 9171,
      "ĠKen": 9172,
      "Component": 9173,
      "ĠColor": 9174,
      "CONJ": 9175,
      "ĠAppeals": 9176,
      "GG": 9177,
      "IES": 9178,
      "PFN": 9179,
      "Task": 9180,
      "iy": 9181,
      "pool": 9182,
      "Ġswe": 9183,
      "vector": 9184,
      "Ġgro": 9185,
      "ĠSol": 9186,
      "ĠDonald": 9187,
      "ĠWomen": 9188,
      "week": 9189,
      "Ġrecover": 9190,
      "Ġregression": 9191,
      "there": 9192,
      "Ġlocations": 9193,
      "Ġvariant": 9194,
      "ylation": 9195,
      "LET": 9196,
      "Ġfragments": 9197,
      "Ġprinciples": 9198,
      "Ġimplied": 9199,
      "Ġtasks": 9200,
      "Ġtissues": 9201,
      "Ġcapture": 9202,
      "Ġcomplicated": 9203,
      "^+^": 9204,
      "Ġsampling": 9205,
      "<\\": 9206,
      "del": 9207,
      "join": 9208,
      "tion": 9209,
      "ĠIC": 9210,
      "ĠIT": 9211,
      "ĠCast": 9212,
      "Ġ400": 9213,
      "Ġ&._": 9214,
      "Ġretrie": 9215,
      "Ġfeels": 9216,
      "Ġentertain": 9217,
      "entials": 9218,
      "Hey": 9219,
      "Ġpromise": 9220,
      "Ġrequested": 9221,
      "Ġauthorities": 9222,
      "Ġeducational": 9223,
      "Ġdeaths": 9224,
      "Ġlaunched": 9225,
      "irable": 9226,
      "Ġdangerous": 9227,
      "Many": 9228,
      "Oper": 9229,
      "Use": 9230,
      "Write": 9231,
      "zo": 9232,
      "Ġ00": 9233,
      "Ġmeta": 9234,
      "uls": 9235,
      "ĠMain": 9236,
      "Ġdelet": 9237,
      "ĠDate": 9238,
      "ĠWall": 9239,
      "Ġcompound": 9240,
      "next": 9241,
      "Ġregulations": 9242,
      "rolog": 9243,
      "ĠZe": 9244,
      "Ġfinish": 9245,
      "Ġexplos": 9246,
      "Ident": 9247,
      "*~*": 9248,
      "Ġcopyright": 9249,
      "Ġrapidly": 9250,
      "ĠJapanese": 9251,
      "Ġcocaine": 9252,
      "Ġintelligence": 9253,
      "PFNGLX": 9254,
      "FE": 9255,
      "Note": 9256,
      "Url": 9257,
      "layer": 9258,
      "vm": 9259,
      "Ġsorry": 9260,
      "Ġcoding": 9261,
      "Ġrenal": 9262,
      "uting": 9263,
      "utable": 9264,
      "amely": 9265,
      "Ġstem": 9266,
      "ĠAmazon": 9267,
      "Ġvide": 9268,
      "Ġexcluded": 9269,
      "ĠRight": 9270,
      "ĠOper": 9271,
      "arden": 9272,
      "Ġclimate": 9273,
      "aph": 9274,
      "Ġcolors": 9275,
      "toString": 9276,
      "chem": 9277,
      "ĠĠĠĠĠĠĠĠĠĠĠĠĠĠĠĠĠĠĠĠĠĠĠĠĠĠĠĠĠĠĠĠĠĠĠĠĠĠĠĠĠĠĠĠĠĠĠĠĠĠĠĠĠĠĠĠĠĠĠĠĠĠĠĠĠĠĠĠĠĠĠĠĠĠĠĠĠĠĠĠĠĠĠĠĠĠĠĠĠĠĠĠĠĠĠĠ": 9278,
      "Ġprocessed": 9279,
      "leftarrow": 9280,
      "Rev": 9281,
      "Ġlocalization": 9282,
      "header": 9283,
      "Ġexecutive": 9284,
      "ĠTechnology": 9285,
      "Ġpregnancy": 9286,
      "Ġdiversity": 9287,
      "ĠLouis": 9288,
      "RT": 9289,
      "json": 9290,
      "Ġhidden": 9291,
      "Ġstead": 9292,
      "ayout": 9293,
      "ĠRom": 9294,
      "allow": 9295,
      "pert": 9296,
      "ibilities": 9297,
      "Ġcontributed": 9298,
      "ixel": 9299,
      "\"})": 9300,
      "ĠĠĠĠĠĠĠĠĠĠĠĠĠĠĠĠĠĠĠĠĠĠĠĠĠĠĠĠĠĠĠ": 9301,
      "Ġcircle": 9302,
      "ĠPaper": 9303,
      "ĠWilliams": 9304,
      "Ġpictures": 9305,
      "Ġefficacy": 9306,
      "Ġmetabolic": 9307,
      "Ġstatistically": 9308,
      "lav": 9309,
      "rif": 9310,
      "Ġcort": 9311,
      "Ġwarn": 9312,
      "Ġmigration": 9313,
      "idem": 9314,
      "Ġul": 9315,
      "ĠMad": 9316,
      "ĠFed": 9317,
      "Ġroute": 9318,
      "ĠLi": 9319,
      "}}}\\": 9320,
      "ĠAdmin": 9321,
      "Ġexecution": 9322,
      "Ġbrings": 9323,
      "Ġbringing": 9324,
      "================================================================": 9325,
      "Configuration": 9326,
      "Ġdogs": 9327,
      "Ġadequate": 9328,
      "ERROR": 9329,
      "rapeutic": 9330,
      "âĸĪ": 9331,
      "\"\"": 9332,
      "Sum": 9333,
      "åİ": 9334,
      "Ġokay": 9335,
      "Ġcache": 9336,
      "Ġmiles": 9337,
      "ĠMicrosoft": 9338,
      "ĠBL": 9339,
      "Ġseed": 9340,
      "click": 9341,
      "Ġgenome": 9342,
      "Ġmoderate": 9343,
      "Ġtransaction": 9344,
      "Ġinval": 9345,
      "rames": 9346,
      "rices": 9347,
      "ĠTrue": 9348,
      "Ġbaseball": 9349,
      "Ġfluct": 9350,
      "ogenesis": 9351,
      "Ġloading": 9352,
      "Ġsatisfied": 9353,
      "Ġisolates": 9354,
      "haust": 9355,
      "Ġpolymer": 9356,
      "esterday": 9357,
      "Ġconsequence": 9358,
      "Ġguidelines": 9359,
      "Ġsurrounding": 9360,
      "Gener": 9361,
      "Non": 9362,
      "Ver": 9363,
      "Ġcav": 9364,
      "orption": 9365,
      "Ġsuffered": 9366,
      "plan": 9367,
      "Ġcompact": 9368,
[...]
