{
  "version": "1.0",
  "truncation": null,
  "padding": null,
  "added_tokens": [
    {
      "id": 0,
      "content": "<|endoftext|>",
      "single_word": false,
      "lstrip": false,
      "rstrip": false,
      "normalized": false,
      "special": true
    },
    {
      "id": 1,
      "content": "[PAD]",
      "single_word": false,
      "lstrip": false,
      "rstrip": false,
      "normalized": false,
      "special": true
    }
  ],
  "normalizer": null,
  "pre_tokenizer": {
    "type": "ByteLevel",
    "add_prefix_space": false,
    "trim_offsets": true,
    "use_regex": true
  },
  "post_processor": {
    "type": "ByteLevel",
    "add_prefix_space": true,
    "trim_offsets": false,
    "use_regex": true
  },
  "decoder": {
    "type": "ByteLevel",
    "add_prefix_space": true,
    "trim_offsets": true,
    "use_regex": true
  },
  "model": {
    "type": "BPE",
    "dropout": null,
    "unk_token": null,
    "continuing_subword_prefix": null,
    "end_of_word_suffix": null,
    "fuse_unk": false,
    "byte_fallback": false,
    "vocab": {
      "<|endoftext|>": 0,
      "[PAD]": 1,
      "!": 2,
      "\"": 3,
      "#": 4,
      "$": 5,
      "%": 6,
      "&": 7,
      "'": 8,
      "(": 9,
      ")": 10,
      "*": 11,
      "+": 12,
      ",": 13,
      "-": 14,
      ".": 15,
      "/": 16,
      "0": 17,
      "1": 18,
      "2": 19,
      "3": 20,
      "4": 21,
      "5": 22,
      "6": 23,
      "7": 24,
      "8": 25,
      "9": 26,
      ":": 27,
      ";": 28,
      "<": 29,
      "=": 30,
      ">": 31,
      "?": 32,
      "@": 33,
      "A": 34,
      "B": 35,
      "C": 36,
      "D": 37,
      "E": 38,
      "F": 39,
      "G": 40,
      "H": 41,
      "I": 42,
      "J": 43,
      "K": 44,
      "L": 45,
      "M": 46,
      "N": 47,
      "O": 48,
      "P": 49,
      "Q": 50,
      "R": 51,
      "S": 52,
      "T": 53,
      "U": 54,
      "V": 55,
      "W": 56,
      "X": 57,
      "Y": 58,
      "Z": 59,
      "[": 60,
      "\\": 61,
      "]": 62,
      "^": 63,
      "_": 64,
      "`": 65,
      "a": 66,
      "b": 67,
      "c": 68,
      "d": 69,
      "e": 70,
      "f": 71,
      "g": 72,
      "h": 73,
      "i": 74,
      "j": 75,
      "k": 76,
      "l": 77,
      "m": 78,
      "n": 79,
      "o": 80,
      "p": 81,
      "q": 82,
      "r": 83,
      "s": 84,
      "t": 85,
      "u": 86,
      "v": 87,
      "w": 88,
      "x": 89,
      "y": 90,
      "z": 91,
      "{": 92,
      "|": 93,
      "}": 94,
      "~": 95,
      "¡": 96,
      "¢": 97,
      "£": 98,
      "¤": 99,
      "¥": 100,
      "¦": 101,
      "§": 102,
      "¨": 103,
      "©": 104,
      "ª": 105,
      "«": 106,
      "¬": 107,
      "®": 108,
      "¯": 109,
      "°": 110,
      "±": 111,
      "²": 112,
      "³": 113,
      "´": 114,
      "µ": 115,
      "¶": 116,
      "·": 117,
      "¸": 118,
      "¹": 119,
      "º": 120,
      "»": 121,
      "¼": 122,
      "½": 123,
      "¾": 124,
      "¿": 125,
      "Â": 126,
      "Ã": 127,
      "Ä": 128,
      "Å": 129,
      "Æ": 130,
      "Ç": 131,
      "È": 132,
      "É": 133,
      "Ê": 134,
      "Ë": 135,
      "Ì": 136,
      "Í": 137,
      "Î": 138,
      "Ï": 139,
      "Ð": 140,
      "Ñ": 141,
      "Ò": 142,
      "Ó": 143,
      "Ö": 144,
      "×": 145,
      "Ø": 146,
      "Ù": 147,
      "Ú": 148,
      "Û": 149,
      "à": 150,
      "á": 151,
      "â": 152,
      "ã": 153,
      "ä": 154,
      "å": 155,
      "æ": 156,
      "ç": 157,
      "è": 158,
      "é": 159,
      "ê": 160,
      "ë": 161,
      "ì": 162,
      "í": 163,
      "î": 164,
      "ï": 165,
      "ð": 166,
      "Ĉ": 167,
      "ĉ": 168,
      "Ċ": 169,
      "Č": 170,
      "č": 171,
      "Ġ": 172,
      "ġ": 173,
      "Ģ": 174,
      "ģ": 175,
      "Ĥ": 176,
      "ĥ": 177,
      "Ħ": 178,
      "ħ": 179,
      "Ĩ": 180,
      "ĩ": 181,
      "Ī": 182,
      "ī": 183,
      "Ĭ": 184,
      "ĭ": 185,
      "Į": 186,
      "į": 187,
      "İ": 188,
      "ı": 189,
      "Ĳ": 190,
      "ĳ": 191,
      "Ĵ": 192,
      "ĵ": 193,
      "Ķ": 194,
      "ķ": 195,
      "ĸ": 196,
      "Ĺ": 197,
      "ĺ": 198,
      "Ļ": 199,
      "ļ": 200,
      "Ľ": 201,
      "ľ": 202,
      "Ŀ": 203,
      "ŀ": 204,
      "Ł": 205,
      "ł": 206,
      "Ń": 207,
      "ĠĠ": 208,
      "Ġt": 209,
      "Ġa": 210,
      "in": 211,
      "he": 212,
      "re": 213,
      "on": 214,
      "ĠĠĠĠ": 215,
      "Ġthe": 216,
      "er": 217,
      "at": 218,
      "Ġs": 219,
      "en": 220,
      "Ġo": 221,
      "Ġc": 222,
      "Ġw": 223,
      "it": 224,
      "or": 225,
      "is": 226,
      "es": 227,
      "al": 228,
      "ed": 229,
      "an": 230,
      "Ġp": 231,
      "Ġf": 232,
      "Ġb": 233,
      "ing": 234,
      "Ġan": 235,
      "Ġin": 236,
      "ar": 237,
      "Ġof": 238,
      "ou": 239,
      "ion": 240,
      "Ġm": 241,
      "Ġd": 242,
      "ic": 243,
      "le": 244,
      "Ġto": 245,
      "as": 246,
      "Ġand": 247,
      "--": 248,
      "ro": 249,
      "ĠĠĠĠĠĠĠĠ": 250,
      "Ġth": 251,
      "ent": 252,
      "ct": 253,
      "Ġh": 254,
      "Ġre": 255,
      "et": 256,
      "st": 257,
      "Ġn": 258,
      "el": 259,
      "om": 260,
      "il": 261,
      "Ġe": 262,
      "Ġl": 263,
      "id": 264,
      "ig": 265,
      "ot": 266,
      "im": 267,
      "ve": 268,
      "Ġis": 269,
      "Ġg": 270,
      "Ġ(": 271,
      "ut": 272,
      "ĠT": 273,
      "ĠI": 274,
      "am": 275,
      "ol": 276,
      "ce": 277,
      "ation": 278,
      "ly": 279,
      "se": 280,
      "Ġfor": 281,
      "ĠĠĠ": 282,
      "ur": 283,
      "âĢ": 284,
      "Ġbe": 285,
      "ĠS": 286,
      "ow": 287,
      "----": 288,
      "Ġthat": 289,
      "Ġu": 290,
      "ĠC": 291,
      "ra": 292,
      "Ġon": 293,
      "ĠA": 294,
      "Ġst": 295,
      "ver": 296,
      "ch": 297,
      "ul": 298,
      "ith": 299,
      "Ġ1": 300,
      "ad": 301,
      "ay": 302,
      "if": 303,
      "Ġcon": 304,
      "Ġy": 305,
      "Ġwith": 306,
      "00": 307,
      "Ġas": 308,
      "Ġ$": 309,
      "od": 310,
      "ir": 311,
      "ter": 312,
      "Ġ\"": 313,
      "Ġpro": 314,
      "um": 315,
      "ab": 316,
      "ate": 317,
      "pe": 318,
      "Ġit": 319,
      "her": 320,
      "ĠM": 321,
      "Ġwe": 322,
      "Ġal": 323,
      "nd": 324,
      "ge": 325,
      "ri": 326,
      "Ġ2": 327,
      "Ġv": 328,
      "ĠĠĠĠĠĠĠĠĠĠĠĠĠĠĠĠ": 329,
      "res": 330,
      "ĠP": 331,
      "qu": 332,
      "Ġwh": 333,
      "ht": 334,
      "Ġyou": 335,
      "os": 336,
      "pp": 337,
      "Ġde": 338,
      "==": 339,
      "te": 340,
      "Ġex": 341,
      "**": 342,
      "ment": 343,
      "end": 344,
      "est": 345,
      "ac": 346,
      "ĠB": 347,
      "ist": 348,
      "ĠThe": 349,
      "un": 350,
      "us": 351,
      "Ġwas": 352,
      "ity": 353,
      "Ġor": 354,
      "Ġ\\": 355,
      "Ġcom": 356,
      "ers": 357,
      "ant": 358,
      "Ġare": 359,
      "Ġsu": 360,
      "Ġse": 361,
      "Ġhe": 362,
      "Ġat": 363,
      "oc": 364,
      "iv": 365,
      "ĠD": 366,
      "ess": 367,
      "th": 368,
      "Ġby": 369,
      "ĠH": 370,
      "ill": 371,
      "op": 372,
      "ĠF": 373,
      "ld": 374,
      "Ġ=": 375,
      "ain": 376,
      "rom": 377,
      "ore": 378,
      "ke": 379,
      "ĠR": 380,
      "Ġr": 381,
      "ĠW": 382,
      "ight": 383,
      "ction": 384,
      "--------": 385,
      "and": 386,
      "ĠN": 387,
      "em": 388,
      "Ġha": 389,
      "..": 390,
      "Ġnot": 391,
      "ive": 392,
      "nt": 393,
      "ĊĠĠĠĠ": 394,
      "Ġne": 395,
      "ĠL": 396,
      "ud": 397,
      "Ġthis": 398,
      "ort": 399,
      "Ġ-": 400,
      "ĊĠĠĠ": 401,
      "pt": 402,
      "art": 403,
      "Ġfrom": 404,
      "ial": 405,
      "ies": 406,
      "âĢĻ": 407,
      "ell": 408,
      "red": 409,
      "Ġsh": 410,
      "pl": 411,
      "_{": 412,
      "Ġ0": 413,
      "ated": 414,
      "ĠG": 415,
      "Ġhave": 416,
      "'s": 417,
      "ĠE": 418,
      "Ġch": 419,
      "ine": 420,
      "fe": 421,
      "Ġ*": 422,
      "ould": 423,
      "all": 424,
      "ag": 425,
      "our": 426,
      "ure": 427,
      "ust": 428,
      "ue": 429,
      "og": 430,
      "per": 431,
      "ical": 432,
      "ase": 433,
      "Ġle": 434,
      "iz": 435,
      "ĠO": 436,
      "ub": 437,
      "xt": 438,
      "Ġcan": 439,
      "ame": 440,
      ".\"": 441,
      "ib": 442,
      "able": 443,
      "rou": 444,
      "ich": 445,
      "Ġ{": 446,
      "ie": 447,
      ").": 448,
      "Ġ[": 449,
      "Ġres": 450,
      "ard": 451,
      "ome": 452,
      "Ġwhe": 453,
      "Ġus": 454,
      "age": 455,
      "cl": 456,
      "ĊĠ": 457,
      "ult": 458,
      "Ġcl": 459,
      "out": 460,
      "=\"": 461,
      "Ġ3": 462,
      "Ġab": 463,
      ");": 464,
      "01": 465,
      "ost": 466,
      "Ġj": 467,
      "ass": 468,
      "ide": 469,
      "act": 470,
      "ĊĠĠĠĠĠĠĠĠ": 471,
      "ther": 472,
      "Ġk": 473,
      "Ġcomp": 474,
      "Ġim": 475,
      "ĊĠĠĠĠĠĠĠ": 476,
      "Ġad": 477,
      "ĠU": 478,
      "orm": 479,
      "ans": 480,
      "ign": 481,
      "The": 482,
      "Ġpl": 483,
      "====": 484,
      "ack": 485,
      "Ġwere": 486,
      "Ġme": 487,
      "ĠJ": 488,
      "ath": 489,
      "//": 490,
      "Ġall": 491,
      "ph": 492,
      "du": 493,
      "ast": 494,
      "ĉĉ": 495,
      "ak": 496,
      "Ġcont": 497,
      "Ġdo": 498,
      "ition": 499,
      "of": 500,
      "ĠâĢ": 501,
      "ip": 502,
      "ind": 503,
      "ap": 504,
      "Ġ<": 505,
      "Ġhas": 506,
      "ary": 507,
      "int": 508,
      "cc": 509,
      "ime": 510,
      "ĠIn": 511,
      "ok": 512,
      "Ġwhich": 513,
      "ence": 514,
      "ice": 515,
      "Ġtr": 516,
      "{\\": 517,
      "ens": 518,
      "ress": 519,
      "ord": 520,
      "ous": 521,
      "Ġint": 522,
      "Ġbut": 523,
      "con": 524,
      "one": 525,
      "ty": 526,
      "ations": 527,
      "are": 528,
      "ong": 529,
      "Ġwill": 530,
      "Ġ4": 531,
      "),": 532,
      "Ġdis": 533,
      "ect": 534,
      "Ġgo": 535,
      "ep": 536,
      "ru": 537,
      "ents": 538,
      "ile": 539,
      "Ġ+": 540,
      "ally": 541,
      "ff": 542,
      "Ġout": 543,
      "Ġ5": 544,
      "Ġif": 545,
      "ose": 546,
      "Ġper": 547,
      "ace": 548,
      "Ġun": 549,
      "av": 550,
      "ber": 551,
      "gh": 552,
      "text": 553,
      "ork": 554,
      "ire": 555,
      "Ġen": 556,
      "ance": 557,
      "Ġone": 558,
      "au": 559,
      "ĠTh": 560,
      "ely": 561,
      "Ġapp": 562,
      "ory": 563,
      "ia": 564,
      "----------------": 565,
      "ang": 566,
      "port": 567,
      "ear": 568,
      "Ġthey": 569,
      "ach": 570,
      "Ġ$\\": 571,
      "so": 572,
      "ry": 573,
      "ions": 574,
      "form": 575,
      "}}": 576,
      "Ġev": 577,
      "Ġhis": 578,
      "Ġar": 579,
      "ail": 580,
      "ree": 581,
      "Ġtheir": 582,
      "ĠĠĠĠĠĠĠĠĠĠĠĠĠĠĠĠĠĠĠĠĠĠĠĠĠĠĠĠĠĠĠĠ": 583,
      "ors": 584,
      "Ġyour": 585,
      "ĠK": 586,
      "lic": 587,
      "</": 588,
      "ll": 589,
      "ys": 590,
      "âĢĿ": 591,
      "ne": 592,
      "Ġmore": 593,
      "Ġup": 594,
      "ite": 595,
      "Ġother": 596,
      "Ġpre": 597,
      "Ġpart": 598,
      "Âł": 599,
      "Ġ}": 600,
      "ring": 601,
      "Ġqu": 602,
      "Ġli": 603,
      "ata": 604,
      "com": 605,
      "Ġso": 606,
      "Ġag": 607,
      "Ġthere": 608,
      "ake": 609,
      "ound": 610,
      "fere": 611,
      "ĠSt": 612,
      "very": 613,
      "ft": 614,
      "urn": 615,
      "ount": 616,
      "ook": 617,
      "Ġsc": 618,
      "own": 619,
      "Ġalso": 620,
      "[@": 621,
      "'t": 622,
      "Ġbeen": 623,
      "Ġman": 624,
      "Ġob": 625,
      "vel": 626,
      "ck": 627,
      "ates": 628,
      "Ġhad": 629,
      "pect": 630,
      "Ġwould": 631,
      "nder": 632,
      "de": 633,
      "Ġsp": 634,
      "ĠV": 635,
      "Ġwhen": 636,
      "Ġany": 637,
      "\\]": 638,
      "10": 639,
      "erv": 640,
      "low": 641,
      "Ġsa": 642,
      "ict": 643,
      "^{": 644,
      "row": 645,
      "Ġwho": 646,
      "Ġass": 647,
      "Ġno": 648,
      "we": 649,
      "ple": 650,
      "wo": 651,
      "Ġabout": 652,
      "ific": 653,
      "ink": 654,
      "ject": 655,
      "Ġ19": 656,
      "}$": 657,
      "erm": 658,
      "ode": 659,
      "Ġthan": 660,
      "Ġgen": 661,
      "clud": 662,
      "ref": 663,
      "cre": 664,
      "Ġ6": 665,
      "ater": 666,
      "ĠâĢľ": 667,
      "vers": 668,
      "ces": 669,
      "Ġtime": 670,
      "eth": 671,
      "Ġmy": 672,
      "Ġstud": 673,
      "ĠĠĠĠĠĠĠ": 674,
      "ps": 675,
      "rib": 676,
      "Ġte": 677,
      "Ġnew": 678,
      "Ġover": 679,
      "Ġits": 680,
      "right": 681,
      "Ġsome": 682,
      "In": 683,
      "Ġam": 684,
      "ĊĊ": 685,
      "Ġsy": 686,
      "pro": 687,
      "Ġ&": 688,
      "ov": 689,
      "****": 690,
      "ĊĠĠĠĠĠĠĠĠĠĠĠ": 691,
      "Ġget": 692,
      "fter": 693,
      "old": 694,
      "ove": 695,
      "Ġbet": 696,
      "math": 697,
      "Ġdif": 698,
      "irst": 699,
      "Ġdef": 700,
      "ays": 701,
      "}\\": 702,
      "|>": 703,
      "lect": 704,
      "hat": 705,
      "ob": 706,
      "endof": 707,
      "endoftext": 708,
      "ew": 709,
      "<|": 710,
      "Ġinter": 711,
      "fect": 712,
      "Ġsub": 713,
      "ari": 714,
      "Ġmay": 715,
      "li": 716,
      "pec": 717,
      "ative": 718,
      "Ġact": 719,
      "Ġunder": 720,
      "ild": 721,
      "Ġinto": 722,
      "Ġrec": 723,
      "Ġacc": 724,
      "iss": 725,
      "Ġoff": 726,
      "Ġwork": 727,
      "Ġcomm": 728,
      "ced": 729,
      "ock": 730,
      "19": 731,
      "ĠY": 732,
      "ause": 733,
      "ual": 734,
      "igh": 735,
      "Ġdes": 736,
      "Ġkn": 737,
      "Ġ201": 738,
      "##": 739,
      "12": 740,
      "Ġcons": 741,
      "ating": 742,
      "Ġ'": 743,
      "get": 744,
      "ĠIt": 745,
      "ular": 746,
      "ma": 747,
      "ert": 748,
      "ings": 749,
      "Ġyear": 750,
      "Ġonly": 751,
      "Ġpos": 752,
      "Ġind": 753,
      "Ġadd": 754,
      "ark": 755,
      "Ġlike": 756,
      "ick": 757,
      "pos": 758,
      "iew": 759,
      "Ġour": 760,
      "Ġtwo": 761,
      "Ġval": 762,
      "hed": 763,
      "Ġret": 764,
      "Ġbec": 765,
      "Ġem": 766,
      "Ġsuch": 767,
      "pon": 768,
      "Ġwhat": 769,
      "Ġpe": 770,
      "Ġthem": 771,
      "oint": 772,
      "Ġpres": 773,
      "rac": 774,
      "========": 775,
      "Ġinv": 776,
      "ĠWe": 777,
      "ize": 778,
      "Ġ7": 779,
      "Ġro": 780,
      "Ġco": 781,
      "Ġtrans": 782,
      "Ġher": 783,
      "ĊĠĠĠĠĠ": 784,
      "ĠCh": 785,
      "Ġjust": 786,
      "Ġph": 787,
      "Ġbl": 788,
      "reat": 789,
      "Ġreg": 790,
      "cess": 791,
      "itt": 792,
      "ish": 793,
      "Ġform": 794,
      "ex": 795,
      "ased": 796,
      "der": 797,
      "unction": 798,
      "ments": 799,
      "Ġ8": 800,
      "Ġrel": 801,
      "Ġ10": 802,
      "ied": 803,
      "Ġsaid": 804,
      "Ġpat": 805,
      "Ġuse": 806,
      "\">": 807,
      "Ġdet": 808,
      "stem": 809,
      "cept": 810,
      "oth": 811,
      "ec": 812,
      "Ġprov": 813,
      "Ġfirst": 814,
      "Ġwhere": 815,
      "ian": 816,
      "Ġmod": 817,
      "Ġdiffere": 818,
      "Ġneed": 819,
      "St": 820,
      "Ġhow": 821,
      "ident": 822,
      "Ġcol": 823,
      "ĠThis": 824,
      "Ġcell": 825,
      "ef": 826,
      "Ġrem": 827,
      "ility": 828,
      "Ġconst": 829,
      "Ġthese": 830,
      "aw": 831,
      "ange": 832,
      "ublic": 833,
      "11": 834,
      "olog": 835,
      "up": 836,
      "ype": 837,
      "Ġresult": 838,
      "elf": 839,
      "Ġthen": 840,
      "ont": 841,
      "Ġra": 842,
      "Ġafter": 843,
      "the": 844,
      "ourt": 845,
      "](": 846,
      "Ġset": 847,
      "Ġsign": 848,
      "Ġnum": 849,
      "ood": 850,
      "Ġtra": 851,
      "Ġ9": 852,
      "Ġ\\[": 853,
      "ise": 854,
      "...": 855,
      "Ġpol": 856,
      "type": 857,
      "ution": 858,
      "Ġcould": 859,
      "ffect": 860,
      "als": 861,
      "000": 862,
      "Ċĉĉ": 863,
      "ĠHe": 864,
      "ween": 865,
      "ool": 866,
      "20": 867,
      "ss": 868,
      "Ġac": 869,
      "ough": 870,
      "ollow": 871,
      ")$": 872,
      "Ġsupp": 873,
      "ient": 874,
      "ople": 875,
      "Ġdata": 876,
      "Ġinclud": 877,
      "Ġpr": 878,
      "iel": 879,
      "Ġbetween": 880,
      "Ġshould": 881,
      "ics": 882,
      "cy": 883,
      "ract": 884,
      "ix": 885,
      "les": 886,
      "left": 887,
      "gin": 888,
      "Ġused": 889,
      "Ġclass": 890,
      "tern": 891,
      "Ġgrou": 892,
      "Ġfe": 893,
      "oy": 894,
      "Ġdid": 895,
      "Ġshow": 896,
      "(\\": 897,
      "Ġdist": 898,
      "ble": 899,
      "__": 900,
      "fig": 901,
      "ious": 902,
      "ax": 903,
      "ues": 904,
      "ox": 905,
      "Ġsur": 906,
      "XX": 907,
      "cal": 908,
      "Ġ.": 909,
      "ible": 910,
      "ank": 911,
      "){": 912,
      "Ġshe": 913,
      "Ġexp": 914,
      "ĠUn": 915,
      "ull": 916,
      "Ġfollow": 917,
      ".,": 918,
      "Ġknow": 919,
      "Ġsee": 920,
      "Ġfl": 921,
      "gr": 922,
      "Ġusing": 923,
      "ield": 924,
      "Ġspec": 925,
      "ning": 926,
      "its": 927,
      "Ġprodu": 928,
      "Ġbu": 929,
      "Ġsim": 930,
      "ade": 931,
      "()": 932,
      "Ġfact": 933,
      "rough": 934,
      "nce": 935,
      "ator": 936,
      "Ġend": 937,
      "ons": 938,
      "be": 939,
      "Ġrequ": 940,
      "frac": 941,
      "io": 942,
      "Ġ[@": 943,
      "hen": 944,
      "::": 945,
      "ities": 946,
      "ful": 947,
      "ined": 948,
      "Ġgener": 949,
      "\",": 950,
      "Ġchar": 951,
      "Ġmost": 952,
      "15": 953,
      "Ġcor": 954,
      "Ġbecause": 955,
      "Ġfil": 956,
      "16": 957,
      "fore": 958,
      "Ġi": 959,
      "Ġinst": 960,
      "Ġpeople": 961,
      "25": 962,
      "Ġwell": 963,
      "ruct": 964,
      "Ġsystem": 965,
      "13": 966,
      "ever": 967,
      "Ġfunction": 968,
      "Ġright": 969,
      "Ġext": 970,
      "ĊĠĠĠĠĠĠĠĠĠĠĠĠĠĠĠ": 971,
      "inal": 972,
      "ms": 973,
      "],": 974,
      "ited": 975,
      "uring": 976,
      "rit": 977,
      "Ġtest": 978,
      "mer": 979,
      "Ġhigh": 980,
      "ER": 981,
      "Ġreturn": 982,
      "ures": 983,
      "ric": 984,
      "Ġwant": 985,
      "uch": 986,
      "put": 987,
      "Ġap": 988,
      "Ġthrough": 989,
      "Ġback": 990,
      "Ġcase": 991,
      "Ġsm": 992,
      "ically": 993,
      "wn": 994,
      "Ġeach": 995,
      "Ġvari": 996,
      "Ġdifferent": 997,
      "Ġ200": 998,
      "\"}": 999,
      "ages": 1000,
      "cond": 1001,
      "://": 1002,
      "Ġhim": 1003,
      "Ġent": 1004,
      "over": 1005,
      "to": 1006,
      "ĊĠĠĠĠĠĠĠĠĠĠĠĠĠĠĠĠ": 1007,
      "Ġdoes": 1008,
      "irect": 1009,
      "hes": 1010,
      "imes": 1011,
      "err": 1012,
      "Th": 1013,
      "ng": 1014,
      "ized": 1015,
      "ational": 1016,
      "IN": 1017,
      "let": 1018,
      "14": 1019,
      "ients": 1020,
      "key": 1021,
      "Ġatt": 1022,
      "unt": 1023,
      "Ġmake": 1024,
      "Ġ/": 1025,
      "Ġmat": 1026,
      "Ġagain": 1027,
      "par": 1028,
      "Ġeffect": 1029,
      "Ġnow": 1030,
      "Ġeven": 1031,
      "Ġ//": 1032,
      "ĠRe": 1033,
      "urre": 1034,
      "ince": 1035,
      "ower": 1036,
      "Ġtri": 1037,
      "Ġlook": 1038,
      "](#": 1039,
      "ins": 1040,
      "other": 1041,
      "ily": 1042,
      "ars": 1043,
      "ason": 1044,
      "ray": 1045,
      "Ġsame": 1046,
      "Ġfind": 1047,
      "round": 1048,
      "arch": 1049,
      "Ġmin": 1050,
      "ta": 1051,
      "Ġcall": 1052,
      "Ġanal": 1053,
      "....": 1054,
      "?\"": 1055,
      "))": 1056,
      "ww": 1057,
      "Ġboth": 1058,
      "val": 1059,
      "0000": 1060,
      "vent": 1061,
      "ense": 1062,
      "Ġdon": 1063,
      "64": 1064,
      "ript": 1065,
      "ateg": 1066,
      "->": 1067,
      "pr": 1068,
      "ON": 1069,
      "Ċĉ": 1070,
      "ĠĠĠĠĠĠ": 1071,
      "lease": 1072,
      "Ġbeing": 1073,
      "cent": 1074,
      "ash": 1075,
      "Ġplay": 1076,
      "app": 1077,
      "Ġpoint": 1078,
      "18": 1079,
      "ved": 1080,
      "atic": 1081,
      "yp": 1082,
      "Ġevery": 1083,
      "gg": 1084,
      "Ġop": 1085,
      "ward": 1086,
      "Ġinte": 1087,
      "sp": 1088,
      "ctions": 1089,
      "Ġfound": 1090,
      "Ġloc": 1091,
      "ample": 1092,
      "50": 1093,
      "cul": 1094,
      "Ġway": 1095,
      "ĠĠĠĠĠ": 1096,
      "Ġstate": 1097,
      "day": 1098,
      "ethod": 1099,
      "Ġthose": 1100,
      "ĠSe": 1101,
      "Ġser": 1102,
      "ven": 1103,
      "Ġyears": 1104,
      "Ġnumber": 1105,
      "30": 1106,
      "Ġ$$": 1107,
      "que": 1108,
      "und": 1109,
      "Ġappro": 1110,
      "set": 1111,
      "ases": 1112,
      "Ġdec": 1113,
      "Ġ:": 1114,
      "22": 1115,
      "dition": 1116,
      "ision": 1117,
      "ute": 1118,
      "erson": 1119,
      "oid": 1120,
      "]\\]": 1121,
      "line": 1122,
      "me": 1123,
      "Ġpartic": 1124,
      "rol": 1125,
      "ting": 1126,
      "Ġhere": 1127,
      "Ġmed": 1128,
      "ants": 1129,
      "Ġdi": 1130,
      "Ġpresent": 1131,
      "ger": 1132,
      "Ġthink": 1133,
      "Ġlong": 1134,
      "Ġinf": 1135,
      "rest": 1136,
      "--------------------------------": 1137,
      "CR": 1138,
      "Ġx": 1139,
      "Ġpublic": 1140,
      "uc": 1141,
      "view": 1142,
      "Ġincre": 1143,
      "********": 1144,
      "oci": 1145,
      "Ġbel": 1146,
      "Ġvery": 1147,
      "ody": 1148,
      "read": 1149,
      "AT": 1150,
      "We": 1151,
      "Ġ@": 1152,
      "Ġwor": 1153,
      "ner": 1154,
      "sc": 1155,
      "bb": 1156,
      "Ġexper": 1157,
      "âĢī": 1158,
      "air": 1159,
      "Ġbefore": 1160,
      "Ġaut": 1161,
      "Ġreport": 1162,
      "Ġcourt": 1163,
      "tain": 1164,
      "ared": 1165,
      "igned": 1166,
      "velop": 1167,
      "ression": 1168,
      "ife": 1169,
      "alth": 1170,
      ",\\": 1171,
      "sh": 1172,
      "Ġcre": 1173,
      "17": 1174,
      "cer": 1175,
      "ĠNew": 1176,
      "Ġpar": 1177,
      "]{": 1178,
      "ided": 1179,
      "ĠCom": 1180,
      "Ġmem": 1181,
      "Ġmon": 1182,
      "Ġmany": 1183,
      "aking": 1184,
      "ek": 1185,
      "Ġ|": 1186,
      ".<|": 1187,
      "Ġche": 1188,
      "_{\\": 1189,
      "ually": 1190,
      "tem": 1191,
      "Ġhel": 1192,
      "eng": 1193,
      "Ġrespon": 1194,
      "ES": 1195,
      "Ġgu": 1196,
      "Ġmade": 1197,
      "ified": 1198,
      "ave": 1199,
      "ature": 1200,
      "Ġcar": 1201,
      "led": 1202,
      "Ġel": 1203,
      "mon": 1204,
      "ines": 1205,
      "ĊĠĠ": 1206,
      "ĊĊĠĠĠ": 1207,
      "What": 1208,
      "ality": 1209,
      "Ġlevel": 1210,
      "Ġcells": 1211,
      "ively": 1212,
      "Ġref": 1213,
      "Ġwhile": 1214,
      "Ġstudy": 1215,
      "urrent": 1216,
      "ices": 1217,
      "inf": 1218,
      "Ġins": 1219,
      "Ġgood": 1220,
      "formation": 1221,
      "ism": 1222,
      "string": 1223,
      "Ġequ": 1224,
      "Ġlar": 1225,
      "Ġprote": 1226,
      "amb": 1227,
      "24": 1228,
      "AR": 1229,
      "Ġ\\[[@": 1230,
      "ĠPro": 1231,
      "idence": 1232,
      "Ġmuch": 1233,
      "man": 1234,
      "}{": 1235,
      "ired": 1236,
      "yl": 1237,
      "Ġdep": 1238,
      "Ġsecond": 1239,
      "ving": 1240,
      "33": 1241,
      "ret": 1242,
      "min": 1243,
      "Ġown": 1244,
      "Ġgiv": 1245,
      "Ġprocess": 1246,
      "Ġrep": 1247,
      "Ġdisc": 1248,
      "Ġstart": 1249,
      "Ġ20": 1250,
      "ĠFor": 1251,
      "ource": 1252,
      ".âĢĿ": 1253,
      "Ġcount": 1254,
      "lement": 1255,
      "str": 1256,
      "ml": 1257,
      "Ġname": 1258,
      "ency": 1259,
      "Ġsupport": 1260,
      "Ġterm": 1261,
      "$,": 1262,
      "els": 1263,
      "ization": 1264,
      "Ġdown": 1265,
      "med": 1266,
      "Ġvalue": 1267,
      "Ġ_": 1268,
      "ght": 1269,
      "ĠâĢĵ": 1270,
      "any": 1271,
      "ider": 1272,
      "Ġpatients": 1273,
      "ole": 1274,
      "$.": 1275,
      "OR": 1276,
      "Ġdirect": 1277,
      "Ġopt": 1278,
      "Ġest": 1279,
      "erg": 1280,
      "ĠAl": 1281,
      "32": 1282,
      "ffic": 1283,
      "ĠIf": 1284,
      "alk": 1285,
      "arly": 1286,
      "tp": 1287,
      "ah": 1288,
      "Ġsol": 1289,
      "Ġposs": 1290,
      "Ġ12": 1291,
      "Ġnon": 1292,
      "Ġmet": 1293,
      "Ġappe": 1294,
      "rm": 1295,
      "ness": 1296,
      "Ġread": 1297,
      "ĠÂ": 1298,
      "Ġmethod": 1299,
      "oad": 1300,
      "ional": 1301,
      "untu": 1302,
      "Re": 1303,
      "ren": 1304,
      "ential": 1305,
      "Ġdevelop": 1306,
      "ale": 1307,
      "gan": 1308,
      "way": 1309,
      "Ġstr": 1310,
      "ĠAs": 1311,
      "Ex": 1312,
      "\\[": 1313,
      "upp": 1314,
      "ĠAnd": 1315,
      "ane": 1316,
      "201": 1317,
      "irc": 1318,
      "Ġserv": 1319,
      "IT": 1320,
      "Ġhelp": 1321,
      "amp": 1322,
      "Ġline": 1323,
      "\":": 1324,
      "Ġthree": 1325,
      "bl": 1326,
      "ters": 1327,
      "Con": 1328,
      "ument": 1329,
      "Ġgroup": 1330,
      "Ġwithout": 1331,
      "Ġcle": 1332,
      "ug": 1333,
      "Ġgl": 1334,
      "uss": 1335,
      "Ġduring": 1336,
      "Ġpri": 1337,
      "Ġhand": 1338,
      "âĢĶ": 1339,
      "It": 1340,
      "ulation": 1341,
      "ames": 1342,
      "Ġorder": 1343,
      "Ġz": 1344,
      "ouse": 1345,
      "oot": 1346,
      "mathcal": 1347,
      "da": 1348,
      "Ġactiv": 1349,
      "chool": 1350,
      "abel": 1351,
      "Ġlast": 1352,
      "ĠAn": 1353,
      "Ġproper": 1354,
      "Ġant": 1355,
      "40": 1356,
      "Ġiss": 1357,
      "ĠLet": 1358,
      "cript": 1359,
      "Ġav": 1360,
      "son": 1361,
      ")\\": 1362,
      "Ġconf": 1363,
      "Ġoper": 1364,
      "ysis": 1365,
      "Ġgra": 1366,
      "gram": 1367,
      "ability": 1368,
      "}(": 1369,
      "Ġlet": 1370,
      "co": 1371,
      "Ġ*/": 1372,
      "(\"": 1373,
      "ann": 1374,
      "ists": 1375,
      "NA": 1376,
      "here": 1377,
      ",\"": 1378,
      "80": 1379,
      "serv": 1380,
      "Ġperform": 1381,
      "Ġrun": 1382,
      "Ġsay": 1383,
      "ify": 1384,
      "ID": 1385,
      "ots": 1386,
      "oun": 1387,
      "ton": 1388,
      "$$": 1389,
      "duct": 1390,
      "itive": 1391,
      "pha": 1392,
      "AS": 1393,
      "ral": 1394,
      "ivers": 1395,
      "ross": 1396,
      "},": 1397,
      "ron": 1398,
      "Ġmeas": 1399,
      "meric": 1400,
      "',": 1401,
      "Ġimport": 1402,
      "Ġsignific": 1403,
      "Ġmain": 1404,
      "aim": 1405,
      "hip": 1406,
      "Ġed": 1407,
      "Ġlead": 1408,
      "vert": 1409,
      "ym": 1410,
      "work": 1411,
      "Ġinc": 1412,
      "chn": 1413,
      "Ġproble": 1414,
      "aj": 1415,
      "abl": 1416,
      "ĠHow": 1417,
      "].": 1418,
      "Ġtake": 1419,
      "Ġstill": 1420,
      "AL": 1421,
      "CT": 1422,
      "Ġ</": 1423,
      "Ġexpl": 1424,
      "Ġlight": 1425,
      "posed": 1426,
      "tr": 1427,
      "ology": 1428,
      "Ġsom": 1429,
      "Ġresults": 1430,
      "Ġtype": 1431,
      "Ġpur": 1432,
      "ott": 1433,
      "Ġperson": 1434,
      "45": 1435,
      "urther": 1436,
      "ĠBut": 1437,
      "Ġagainst": 1438,
      "Ġelect": 1439,
      "Ġmult": 1440,
      "Ġfin": 1441,
      "Fig": 1442,
      "'m": 1443,
      "ubuntu": 1444,
      "org": 1445,
      "Ġmust": 1446,
      "Ġfollowing": 1447,
      "'re": 1448,
      "acter": 1449,
      "He": 1450,
      "ience": 1451,
      "Ġstat": 1452,
      "eral": 1453,
      "Ġdeterm": 1454,
      "miss": 1455,
      "Ġexpect": 1456,
      "200": 1457,
      "Ġpost": 1458,
      "Ġcent": 1459,
      "Ġsmall": 1460,
      "âĢľ": 1461,
      "Ġ15": 1462,
      "Ġwr": 1463,
      "Ġ#": 1464,
      "Ġca": 1465,
      "less": 1466,
      "ĠCl": 1467,
      "Ġinformation": 1468,
      "Ġlaw": 1469,
      "Ġcontrol": 1470,
      "rel": 1471,
      "Ġ**": 1472,
      "Ġrece": 1473,
      "Ġident": 1474,
      "Ġgoing": 1475,
      "Ġtreat": 1476,
      "ording": 1477,
      "Ġchild": 1478,
      "Ġet": 1479,
      "ather": 1480,
      "Ġday": 1481,
      "ention": 1482,
      "ĠYou": 1483,
      "name": 1484,
      "ets": 1485,
      "28": 1486,
      "Ġerr": 1487,
      "ote": 1488,
      "az": 1489,
      "=\\": 1490,
      "ished": 1491,
      "gen": 1492,
      "rem": 1493,
      "Ġaddition": 1494,
      "vious": 1495,
      "ination": 1496,
      "23": 1497,
      "####": 1498,
      "ration": 1499,
      "ides": 1500,
      "You": 1501,
      "Ġmov": 1502,
      "Ġfam": 1503,
      "ital": 1504,
      "This": 1505,
      "ived": 1506,
      "^{\\": 1507,
      "Ġlim": 1508,
      "Ġsince": 1509,
      "atch": 1510,
      "Ġcontin": 1511,
      "27": 1512,
      "Ġbre": 1513,
      "aterial": 1514,
      "Ġsignificant": 1515,
      "99": 1516,
      "ured": 1517,
      "Ġquest": 1518,
      "Ġstand": 1519,
      "Ġremain": 1520,
      "ambda": 1521,
      "anc": 1522,
      "ately": 1523,
      "EN": 1524,
      "Ġvis": 1525,
      "Ġ$$\\": 1526,
      "ts": 1527,
      "Ġcr": 1528,
      "ond": 1529,
      "Ġke": 1530,
      "Ġ18": 1531,
      "();": 1532,
      "Ġfield": 1533,
      "ĠDe": 1534,
      "ery": 1535,
      "lex": 1536,
      "Pro": 1537,
      "(-": 1538,
      "yn": 1539,
      "Ġwithin": 1540,
      "ule": 1541,
      "Ġcurrent": 1542,
      "Ġreal": 1543,
      "Ġallow": 1544,
      "Ġanother": 1545,
      "add": 1546,
      "60": 1547,
      "ĠQ": 1548,
      "sum": 1549,
      "mu": 1550,
      "ST": 1551,
      "Ġweek": 1552,
      "Ġcare": 1553,
      "Ġgover": 1554,
      "Ġmark": 1555,
      ",âĢĿ": 1556,
      "eta": 1557,
      "ĠAmeric": 1558,
      "Ġreally": 1559,
      "Ġpop": 1560,
      "dd": 1561,
      "Ġredu": 1562,
      "ploy": 1563,
      "Ġgr": 1564,
      "Ġcontain": 1565,
      "ĠĠĠĠĠĠĠĠĠĠĠĠĠĠĠĠĠĠĠĠĠĠĠĠĠĠĠĠĠĠĠĠĠĠĠĠĠĠĠĠĠĠĠĠĠĠĠĠĠĠĠĠĠĠĠĠĠĠĠĠĠĠĠĠ": 1566,
      "ho": 1567,
      "}^{": 1568,
      "Ġstruct": 1569,
      "]\\].": 1570,
      "ategory": 1571,
      "agn": 1572,
      "alpha": 1573,
      "Ġopen": 1574,
      "Let": 1575,
      "Ġsl": 1576,
      "iness": 1577,
      "{{\\": 1578,
      "Ġexample": 1579,
      "ier": 1580,
      "alcul": 1581,
      "ĠTr": 1582,
      "Ġaround": 1583,
      "ribut": 1584,
      "Ġtry": 1585,
      "34": 1586,
      "akes": 1587,
      "ccess": 1588,
      "Ġdev": 1589,
      "ior": 1590,
      "arm": 1591,
      "bers": 1592,
      "part": 1593,
      "55": 1594,
      "Ġarg": 1595,
      "arn": 1596,
      "not": 1597,
      "Ġlife": 1598,
      "tic": 1599,
      "crib": 1600,
      "mm": 1601,
      "ently": 1602,
      "Ġincluding": 1603,
      "AN": 1604,
      "Ġobject": 1605,
      "Ġcommun": 1606,
      "Ġsing": 1607,
      "Ġhealth": 1608,
      "ially": 1609,
      "ĠSh": 1610,
      "Ġcondition": 1611,
      "fer": 1612,
      "Ġinvest": 1613,
      "Ġpass": 1614,
      "Ġdiv": 1615,
      "90": 1616,
      "ves": 1617,
      "Ġadv": 1618,
      "nment": 1619,
      "ething": 1620,
      "Ġinterest": 1621,
      "ĊĊĠ": 1622,
      "Ġsize": 1623,
      "ives": 1624,
      "Ġmight": 1625,
      "face": 1626,
      "ium": 1627,
      "ural": 1628,
      "raph": 1629,
      "Ġlist": 1630,
      "Ġprogram": 1631,
      "Ġtoo": 1632,
      "land": 1633,
      "Ġless": 1634,
      "roup": 1635,
      "ength": 1636,
      "================": 1637,
      "ety": 1638,
      "ĠInd": 1639,
      "ably": 1640,
      "resent": 1641,
      "Ġbased": 1642,
      "Ġgiven": 1643,
      "Ġ14": 1644,
      "ither": 1645,
      "Ġhome": 1646,
      "Ġobserv": 1647,
      "70": 1648,
      "Ġhig": 1649,
      "eter": 1650,
      "oh": 1651,
      "Ġhead": 1652,
      "Ġnext": 1653,
      "Ġ,": 1654,
      "ertain": 1655,
      "Ġhapp": 1656,
      "Ġapplic": 1657,
      "Ġimp": 1658,
      "ĠZ": 1659,
      "---": 1660,
      "ĠCon": 1661,
      "for": 1662,
      "ault": 1663,
      "Ġpower": 1664,
      "Ġclaim": 1665,
      "phi": 1666,
      "Ġbus": 1667,
      "21": 1668,
      "Ġbas": 1669,
      "elta": 1670,
      "Ġrespect": 1671,
      "Ġmodel": 1672,
      "Ġschool": 1673,
      "Ġevidence": 1674,
      "Ġobtain": 1675,
      "Ġworld": 1676,
      "reg": 1677,
      "ĠĠĠĠĠĠĠĠĠĠĠ": 1678,
      "br": 1679,
      "Ġtop": 1680,
      "ways": 1681,
      "Ġpot": 1682,
      "Ġassoci": 1683,
      "Ġ16": 1684,
      "Ġpath": 1685,
      "ends": 1686,
      "ene": 1687,
      "ining": 1688,
      "ĠWh": 1689,
      "Ġrecord": 1690,
      "ĠX": 1691,
      "35": 1692,
      "Ġanalysis": 1693,
      "ream": 1694,
      "Ġfr": 1695,
      "Ġmean": 1696,
      "ump": 1697,
      "bar": 1698,
      "ggest": 1699,
      "sec": 1700,
      "hib": 1701,
      "hor": 1702,
      "Ġplace": 1703,
      "Ġwhether": 1704,
      "roll": 1705,
      "_\\": 1706,
      "stand": 1707,
      "ĠLe": 1708,
      "plic": 1709,
      "Ġhum": 1710,
      "Ġgreat": 1711,
      "Ġchang": 1712,
      "Ġtechn": 1713,
      "ĠAr": 1714,
      "Ġmonth": 1715,
      "arget": 1716,
      "Ġtrue": 1717,
      "38": 1718,
      "by": 1719,
      "inc": 1720,
      "Ġocc": 1721,
      "Ġsequ": 1722,
      "Ġcommon": 1723,
      "Ġsk": 1724,
      "ĠPh": 1725,
      "Ġindic": 1726,
      "Ġsuggest": 1727,
      "version": 1728,
      "Ġfail": 1729,
      "Ġ{#": 1730,
      "tt": 1731,
      "Ġdel": 1732,
      "bf": 1733,
      "ury": 1734,
      "Type": 1735,
      "Ġlow": 1736,
      "illion": 1737,
      "ĠNo": 1738,
      "26": 1739,
      "75": 1740,
      "isk": 1741,
      "29": 1742,
      "ought": 1743,
      "http": 1744,
      "Ġsomething": 1745,
      "Ġfew": 1746,
      "lev": 1747,
      "ference": 1748,
      "Ġmot": 1749,
      "ik": 1750,
      "Ġbest": 1751,
      "ĠThey": 1752,
      "Ġrese": 1753,
      "SE": 1754,
      "nal": 1755,
      "Ġbelie": 1756,
      "ilar": 1757,
      "><": 1758,
      "Ġprof": 1759,
      "04": 1760,
      "ged": 1761,
      "]{}": 1762,
      "thing": 1763,
      "Ġfile": 1764,
      "Ġleft": 1765,
      "ĠIs": 1766,
      "lu": 1767,
      "Ġseem": 1768,
      "osed": 1769,
      "orn": 1770,
      "ĊĠĠĠĠĠĠĠĠĠĠĠĠĠĠĠĠĠĠĠ": 1771,
      "Ġimportant": 1772,
      "Ġve": 1773,
      "ask": 1774,
      "Ġproduct": 1775,
      "arent": 1776,
      "ĠHowever": 1777,
      "ĠEx": 1778,
      "ivid": 1779,
      "Ġteam": 1780,
      "Ġdescrib": 1781,
      "LE": 1782,
      "!\"": 1783,
      "Ġeas": 1784,
      "100": 1785,
      "aps": 1786,
      "ser": 1787,
      "omen": 1788,
      "rap": 1789,
      "ird": 1790,
      "alse": 1791,
      "à¤": 1792,
      "arrow": 1793,
      "oft": 1794,
      "Ġtreatment": 1795,
      "05": 1796,
      "Ġbeh": 1797,
      "requ": 1798,
      "epend": 1799,
      "iver": 1800,
      "Ġbi": 1801,
      "lection": 1802,
      "mun": 1803,
      "rain": 1804,
      "Ġide": 1805,
      "col": 1806,
      "Ġcode": 1807,
      "mathbb": 1808,
      "Ġgot": 1809,
      "Ġtyp": 1810,
      "Ġposition": 1811,
      "ĠCourt": 1812,
      "('": 1813,
      "label": 1814,
      "IC": 1815,
      "Ġself": 1816,
      "used": 1817,
      "By": 1818,
      "ope": 1819,
      "Ġbetter": 1820,
      "ĊĊĠĠĠĠĠĠĠ": 1821,
      "aring": 1822,
      "Ġnever": 1823,
      "ĉĉĉĉ": 1824,
      "self": 1825,
      "Gen": 1826,
      "Ġwater": 1827,
      "Ġgrow": 1828,
      "Ġabove": 1829,
      "rop": 1830,
      "Ġput": 1831,
      "ised": 1832,
      "Ġprob": 1833,
      "Ġconsider": 1834,
      "Ġinvol": 1835,
      "66": 1836,
      "ĠSc": 1837,
      "RE": 1838,
      "Ġinit": 1839,
      "AC": 1840,
      "Ġturn": 1841,
      "Ġsum": 1842,
      "Ġcharacter": 1843,
      "Ġfour": 1844,
      "Ġask": 1845,
      "use": 1846,
      "Ġmar": 1847,
      "oss": 1848,
      "num": 1849,
      "Ġlarge": 1850,
      "Ġtem": 1851,
      "ĠAll": 1852,
      "def": 1853,
      "icro": 1854,
      "Ġparticular": 1855,
      "Ġcalled": 1856,
      "Ġcy": 1857,
      "opy": 1858,
      "www": 1859,
      "Ġview": 1860,
      "ĠThere": 1861,
      "ittle": 1862,
      "ĠApp": 1863,
      "AP": 1864,
      "44": 1865,
      "ification": 1866,
      "ga": 1867,
      "):": 1868,
      "ern": 1869,
      "ples": 1870,
      "Ġleast": 1871,
      "ĠUS": 1872,
      "Com": 1873,
      "ware": 1874,
      "Ġ11": 1875,
      "Ġfurther": 1876,
      "79": 1877,
      "âĪ": 1878,
      "}_{": 1879,
      "Ġbr": 1880,
      "iod": 1881,
      "âĢĵ": 1882,
      "ajor": 1883,
      "Ġpub": 1884,
      "Ġreason": 1885,
      "Ġ199": 1886,
      "ĠTo": 1887,
      "ush": 1888,
      "Ġpossible": 1889,
      "As": 1890,
      "Ġ--": 1891,
      "Ġleg": 1892,
      "data": 1893,
      "Ġsit": 1894,
      "39": 1895,
      "geq": 1896,
      "igma": 1897,
      "If": 1898,
      "Ġcap": 1899,
      "Ġden": 1900,
      "aligned": 1901,
      "Ġbuild": 1902,
      "ĠĠĠĠĠĠĠĠĠ": 1903,
      "bu": 1904,
      "ten": 1905,
      "ances": 1906,
      "Ġfree": 1907,
      "Ġgovernment": 1908,
      "Ġdri": 1909,
      "idth": 1910,
      "Ġavail": 1911,
      "To": 1912,
      "rict": 1913,
      "Ġimpro": 1914,
      "aut": 1915,
      "Ġdue": 1916,
      "Ġopp": 1917,
      "Ġhist": 1918,
      "Ġchange": 1919,
      "Ġbody": 1920,
      "Ġpay": 1921,
      "Ġ30": 1922,
      "ormal": 1923,
      "Ġtrial": 1924,
      "})": 1925,
      "Ġes": 1926,
      "Ġhy": 1927,
      "ĠĠĠĠĠĠĠĠĠĠ": 1928,
      "36": 1929,
      "}$$": 1930,
      "reen": 1931,
      "Ġhaving": 1932,
      "Ġfeel": 1933,
      "ext": 1934,
      "Ġsingle": 1935,
      "ividual": 1936,
      "Ġhard": 1937,
      "Ġlocal": 1938,
      "Ġmaterial": 1939,
      "Ġquestion": 1940,
      "ended": 1941,
      "Ġstudies": 1942,
      "inity": 1943,
      "ĠState": 1944,
      "Ġvalues": 1945,
      "ctor": 1946,
      "ological": 1947,
      "Ch": 1948,
      "Ġrepresent": 1949,
      "Ġthings": 1950,
      "pi": 1951,
      "Ġbusiness": 1952,
      "Ġreview": 1953,
      "por": 1954,
      "angle": 1955,
      "Ġdr": 1956,
      "Ġproblem": 1957,
      "ĠAd": 1958,
      "Ġprovide": 1959,
      "Ġunt": 1960,
      "go": 1961,
      "Ġemploy": 1962,
      "ats": 1963,
      "];": 1964,
      "Ġsever": 1965,
      "Ġpotential": 1966,
      "Ġwon": 1967,
      "ĠPl": 1968,
      "action": 1969,
      "Ġsimilar": 1970,
      "imal": 1971,
      "Ġside": 1972,
      "Ġbro": 1973,
      "html": 1974,
      "aint": 1975,
      "Ġdefend": 1976,
      "Ġcome": 1977,
      "amma": 1978,
      "Ġrate": 1979,
      "idd": 1980,
      "itor": 1981,
      "ns": 1982,
      "Ġtot": 1983,
      "ĠCol": 1984,
      "Ġelse": 1985,
      "-\\": 1986,
      "though": 1987,
      "Ġoffic": 1988,
      "iversity": 1989,
      "att": 1990,
      "Ġkeep": 1991,
      "Ġcost": 1992,
      "Ġplan": 1993,
      "Name": 1994,
      "nect": 1995,
      "'ve": 1996,
      "ĠUnited": 1997,
      "const": 1998,
      "Ġaccept": 1999,
      "equ": 2000,
      "enc": 2001,
      "MP": 2002,
      "ĊĠĠĠĠĠĠĠĠĠ": 2003,
      "ĠWhat": 2004,
      "Ġsure": 2005,
      "78": 2006,
      "Ġspe": 2007,
      "Ġknown": 2008,
      "var": 2009,
      "ĠRes": 2010,
      "Category": 2011,
      "Ġ==": 2012,
      "bot": 2013,
      "Ġprevious": 2014,
      "Ġeither": 2015,
      "Ġlittle": 2016,
      "lambda": 2017,
      "String": 2018,
      "Ġ13": 2019,
      "Ġsuper": 2020,
      "iple": 2021,
      "Ġder": 2022,
      "ocument": 2023,
      "ĠOn": 2024,
      "Ġindividual": 2025,
      "Ġpred": 2026,
      "Ġlik": 2027,
      "Ġsw": 2028,
      "etwork": 2029,
      "uck": 2030,
      "Ġmajor": 2031,
      "etic": 2032,
      ")/": 2033,
      "ĠFr": 2034,
      "Ġrisk": 2035,
      "usion": 2036,
      "Ġbo": 2037,
      "Ġrad": 2038,
      "oney": 2039,
      "atory": 2040,
      "iff": 2041,
      "Ġerror": 2042,
      "****************": 2043,
      "Ġparam": 2044,
      "aster": 2045,
      "Ġproject": 2046,
      "bs": 2047,
      "'ll": 2048,
      "Ġdays": 2049,
      "ending": 2050,
      "ergy": 2051,
      "Ġshown": 2052,
      "Ġexpression": 2053,
      "opt": 2054,
      "inary": 2055,
      "Ġorgan": 2056,
      "ĠâĢĶ": 2057,
      "Ġ25": 2058,
      "essage": 2059,
      "Ġaction": 2060,
      "clude": 2061,
      "Cl": 2062,
      "div": 2063,
      "ograph": 2064,
      "hem": 2065,
      "Ġgeneral": 2066,
      "48": 2067,
      "Ġbig": 2068,
      "ilon": 2069,
      "new": 2070,
      "back": 2071,
      "osp": 2072,
      "Ġjud": 2073,
      "Ġrest": 2074,
      "Ġperiod": 2075,
      "ĠOr": 2076,
      "____": 2077,
      "ĠThese": 2078,
      "Ġpa": 2079,
      "Ġcheck": 2080,
      "âĪĴ": 2081,
      "release": 2082,
      "ards": 2083,
      "ney": 2084,
      "Ġsuccess": 2085,
      "And": 2086,
      "Ġabs": 2087,
      "RO": 2088,
      "Ġhold": 2089,
      "></": 2090,
      "Ġpack": 2091,
      "ead": 2092,
      "urs": 2093,
      "Ġfamily": 2094,
      "Ġgive": 2095,
      "Ġsens": 2096,
      "Ġalways": 2097,
      "Res": 2098,
      "rug": 2099,
      "Ġ!": 2100,
      "Ġ17": 2101,
      "Ġable": 2102,
      "Ġfac": 2103,
      "Ġavailable": 2104,
      "mb": 2105,
      "Is": 2106,
      "ET": 2107,
      "ĠSo": 2108,
      "ape": 2109,
      "no": 2110,
      "ler": 2111,
      "Ġcases": 2112,
      "Ġgame": 2113,
      "Ġspecific": 2114,
      "IS": 2115,
      "Ġold": 2116,
      "ables": 2117,
      "itted": 2118,
      "+\\": 2119,
      "Data": 2120,
      "ored": 2121,
      "^\\": 2122,
      "ume": 2123,
      "play": 2124,
      "Tr": 2125,
      "Ġorig": 2126,
      "Ġreported": 2127,
      "begin": 2128,
      "Ġphot": 2129,
      "XXXX": 2130,
      "uro": 2131,
      "|\\": 2132,
      "Ġ24": 2133,
      "////": 2134,
      "iting": 2135,
      "Ġimage": 2136,
      "gra": 2137,
      "iron": 2138,
      "Ġprom": 2139,
      "Ġfilm": 2140,
      "Ġtimes": 2141,
      "mod": 2142,
      "nces": 2143,
      "Ġben": 2144,
      "ina": 2145,
      "ey": 2146,
      "But": 2147,
      "Ġpriv": 2148,
      "Ġhuman": 2149,
      "cle": 2150,
      "ĠBl": 2151,
      "Ġfull": 2152,
      "Ġwhy": 2153,
      "Ġhigher": 2154,
      "raw": 2155,
      "For": 2156,
      "ĊĠĠĠĠĠĠ": 2157,
      "Ġcho": 2158,
      "Ġunderstand": 2159,
      "Ġmeans": 2160,
      "ators": 2161,
      "this": 2162,
      "itle": 2163,
      "ges": 2164,
      "Ġsays": 2165,
      "ibr": 2166,
      "ĠStates": 2167,
      "Ġ100": 2168,
      "Ġlink": 2169,
      "Ġissue": 2170,
      "Ã©": 2171,
      "Ġspect": 2172,
      "fficient": 2173,
      "ION": 2174,
      "Ġtre": 2175,
      "ences": 2176,
      "Ġarea": 2177,
      "mission": 2178,
      "Ġfar": 2179,
      "code": 2180,
      "iol": 2181,
      "Ġtarget": 2182,
      "irl": 2183,
      "hy": 2184,
      "off": 2185,
      "ribution": 2186,
      "queue": 2187,
      "Ġseveral": 2188,
      "IP": 2189,
      "ories": 2190,
      "ĠThat": 2191,
      "Ġ50": 2192,
      "Ġaccess": 2193,
      "respon": 2194,
      "Ġcomb": 2195,
      "Ġpress": 2196,
      "ocial": 2197,
      "ready": 2198,
      "Id": 2199,
      "Ġword": 2200,
      "Ġhref": 2201,
      "infty": 2202,
      "Ġuntil": 2203,
      "Ġpercent": 2204,
      "Ġweight": 2205,
      "Ġhowever": 2206,
      "Ġsource": 2207,
      "ee": 2208,
      "Ġexpected": 2209,
      "partial": 2210,
      "Ġcour": 2211,
      "ĠWhen": 2212,
      "Ġcirc": 2213,
      "Ġdise": 2214,
      "37": 2215,
      "rr": 2216,
      "ception": 2217,
      "verage": 2218,
      "lected": 2219,
      "Ġenergy": 2220,
      "Ġlot": 2221,
      "88": 2222,
      "Im": 2223,
      "alf": 2224,
      "Ġspace": 2225,
      "ĠSp": 2226,
      "List": 2227,
      "gment": 2228,
      "Ġdesign": 2229,
      "Ġpolit": 2230,
      "osis": 2231,
      "Ġsat": 2232,
      "Ġmove": 2233,
      "Ġkey": 2234,
      "Ġcrit": 2235,
      "return": 2236,
      "top": 2237,
      "}{\\": 2238,
      "cont": 2239,
      "Ġsection": 2240,
      "ibility": 2241,
      "Ġdiscuss": 2242,
      "ison": 2243,
      "olution": 2244,
      "ries": 2245,
      "Ġinvestig": 2246,
      "Ġlevels": 2247,
      ":#": 2248,
      "ued": 2249,
      "rist": 2250,
      "CO": 2251,
      "Ġfore": 2252,
      "Ġthing": 2253,
      "Ġtalk": 2254,
      "arr": 2255,
      "iment": 2256,
      "Ġchildren": 2257,
      "ystem": 2258,
      "Ġstep": 2259,
      "ohn": 2260,
      "ding": 2261,
      "Ġlater": 2262,
      "chan": 2263,
      "ED": 2264,
      "Ġresponse": 2265,
      "ering": 2266,
      "ling": 2267,
      "Ġcompany": 2268,
      "ique": 2269,
      "ĠShe": 2270,
      "Ġtotal": 2271,
      "Ġalong": 2272,
      "Ġ)": 2273,
      "Ġcur": 2274,
      "AB": 2275,
      "ift": 2276,
      "ising": 2277,
      "omet": 2278,
      "ĠAt": 2279,
      "Ġrange": 2280,
      "Ġprim": 2281,
      "^{-": 2282,
      "Ġactivity": 2283,
      "ustom": 2284,
      "Ġpract": 2285,
      "Ġassociated": 2286,
      "sel": 2287,
      "Ġdone": 2288,
      "Ġcertain": 2289,
      "acy": 2290,
      "ption": 2291,
      "An": 2292,
      "queuebot": 2293,
      "sequ": 2294,
      "icense": 2295,
      "ivity": 2296,
      "Ġdidn": 2297,
      "Ġgroups": 2298,
      "Ġrequire": 2299,
      "ĠNid": 2300,
      "Ġphys": 2301,
      "ension": 2302,
      "head": 2303,
      "enn": 2304,
      "outh": 2305,
      "Ġbit": 2306,
      "Ġterms": 2307,
      "sub": 2308,
      "amples": 2309,
      "ava": 2310,
      "span": 2311,
      "69": 2312,
      "Ġexist": 2313,
      "test": 2314,
      "Ġ([": 2315,
      "Ġenough": 2316,
      "Ġmass": 2317,
      "ival": 2318,
      "indow": 2319,
      "Sh": 2320,
      "Ġagree": 2321,
      "Ġalready": 2322,
      "Ġshort": 2323,
      "85": 2324,
      "Ġ>": 2325,
      "aken": 2326,
      "AD": 2327,
      "Ġport": 2328,
      "ressed": 2329,
      "roid": 2330,
      "proposed": 2331,
      "ails": 2332,
      "ĠRep": 2333,
      "andom": 2334,
      "âĢ¦": 2335,
      "mit": 2336,
      "ocal": 2337,
      "table": 2338,
      "Ġtell": 2339,
      "Ġneg": 2340,
      "cret": 2341,
      "Ġactually": 2342,
      "Ġdoesn": 2343,
      "Ġbase": 2344,
      "47": 2345,
      "rix": 2346,
      "ony": 2347,
      "Ġ=>": 2348,
      "iction": 2349,
      "HE": 2350,
      "Ġaway": 2351,
      "Ġrelations": 2352,
      "Ġfri": 2353,
      "ources": 2354,
      "Ġcompared": 2355,
      ")(": 2356,
      "Ġsent": 2357,
      "ependent": 2358,
      "Ġid": 2359,
      "MS": 2360,
      "Ġamount": 2361,
      "arc": 2362,
      "uture": 2363,
      "Ġprovided": 2364,
      "95": 2365,
      "Ġdiff": 2366,
      "side": 2367,
      "Ġresearch": 2368,
      "odes": 2369,
      "Ġflu": 2370,
      "uation": 2371,
      "Ġaccording": 2372,
      "ĠUniversity": 2373,
      "Ġmor": 2374,
      "ams": 2375,
      "Ġtold": 2376,
      "omic": 2377,
      "pped": 2378,
      "65": 2379,
      "LL": 2380,
      "Ġamong": 2381,
      "ister": 2382,
      "ules": 2383,
      "utes": 2384,
      "order": 2385,
      "Ġvol": 2386,
      "Ġ`": 2387,
      "Ġseason": 2388,
      "Ġrequired": 2389,
      "Ġoften": 2390,
      "most": 2391,
      "Ġwomen": 2392,
      "Ġlo": 2393,
      "sw": 2394,
      "31": 2395,
      "Al": 2396,
      "App": 2397,
      "IG": 2398,
      "ores": 2399,
      "How": 2400,
      "import": 2401,
      "Ġstrong": 2402,
      "Ġkind": 2403,
      "Ġfix": 2404,
      "ands": 2405,
      "ours": 2406,
      "Ġthought": 2407,
      "ession": 2408,
      "Ġearly": 2409,
      "II": 2410,
      "oor": 2411,
      "ties": 2412,
      "rightarrow": 2413,
      "Ċĉĉĉ": 2414,
      "Ġestim": 2415,
      "Ġfinal": 2416,
      "Ġmaking": 2417,
      "iving": 2418,
      "MA": 2419,
      "des": 2420,
      "fl": 2421,
      "xi": 2422,
      "Ġconduct": 2423,
      "Ġsubject": 2424,
      "Ġmillion": 2425,
      "leg": 2426,
      "yle": 2427,
      "class": 2428,
      "Ġmoney": 2429,
      "Ġnetwork": 2430,
      "Ġparticip": 2431,
      "ection": 2432,
      "Ġfrequ": 2433,
      "Ġenc": 2434,
      "Ġmax": 2435,
      "ĠAmerican": 2436,
      "Ġstructure": 2437,
      "Ġcomplex": 2438,
      "Ġinclude": 2439,
      "Ġdetect": 2440,
      "duced": 2441,
      "Ġmultiple": 2442,
      "Ġcourse": 2443,
      "Ġmiss": 2444,
      "Ġthough": 2445,
      "Ġ/*": 2446,
      "Ar": 2447,
      "che": 2448,
      "02": 2449,
      "67": 2450,
      "Ġsec": 2451,
      "ians": 2452,
      "Ġage": 2453,
      "Ġcou": 2454,
      "stit": 2455,
      "url": 2456,
      "Ġcalcul": 2457,
      "Ġinj": 2458,
      "ĠSee": 2459,
      "ĠBe": 2460,
      "ĠCo": 2461,
      "Ġobserved": 2462,
      "ai": 2463,
      "asing": 2464,
      "mp": 2465,
      "Ġacross": 2466,
      "Ġmen": 2467,
      "Ġblock": 2468,
      "Ġaff": 2469,
      "Ġnecess": 2470,
      "Ġmonths": 2471,
      "rect": 2472,
      "Ġbecome": 2473,
      "Ġlove": 2474,
      "Ġdevelopment": 2475,
      "oper": 2476,
      "ung": 2477,
      "ball": 2478,
      "Ġmeasure": 2479,
      "OS": 2480,
      "ama": 2481,
      "49": 2482,
      "time": 2483,
      "Ġmechan": 2484,
      "89": 2485,
      "Ġobtained": 2486,
      "lete": 2487,
      "Ġbook": 2488,
      "Ġincrease": 2489,
      "ortun": 2490,
      "Ġevent": 2491,
      "Ġcountry": 2492,
      "uff": 2493,
      "Ġcomplet": 2494,
      "Cont": 2495,
      "../": 2496,
      "ensity": 2497,
      "orth": 2498,
      "Ġdoing": 2499,
      "ĠĠĠĠĠĠĠĠĠĠĠĠ": 2500,
      "Ġpositive": 2501,
      "Ġmatter": 2502,
      "\")": 2503,
      "Ġlog": 2504,
      "Ġstring": 2505,
      "Ġdeath": 2506,
      "aces": 2507,
      "wh": 2508,
      "UT": 2509,
      "ales": 2510,
      "Ġlay": 2511,
      "ĠMay": 2512,
      "CC": 2513,
      "Ġcomput": 2514,
      "Ġestabl": 2515,
      "]).": 2516,
      "Ġrole": 2517,
      "uit": 2518,
      "Ġupon": 2519,
      "Ġauthor": 2520,
      "Test": 2521,
      "Ġrequest": 2522,
      "Ġdem": 2523,
      "ained": 2524,
      "pone": 2525,
      "Ġ([@": 2526,
      "place": 2527,
      "Ġdescribed": 2528,
      "Ġworking": 2529,
      "itch": 2530,
      "Ġsurface": 2531,
      "Ġnormal": 2532,
      "Ġvoid": 2533,
      "Ġwa": 2534,
      "ids": 2535,
      "Ġeffects": 2536,
      "ĠâĢĺ": 2537,
      "oms": 2538,
      "eq": 2539,
      "Ġjob": 2540,
      "Ġdom": 2541,
      "ĠAss": 2542,
      "Ġpoints": 2543,
      "Ġlikely": 2544,
      "Ġservice": 2545,
      "Ġwin": 2546,
      "ks": 2547,
      "Ġversion": 2548,
      "artment": 2549,
      "Ġconditions": 2550,
      "Ġdefendant": 2551,
      "Ġfood": 2552,
      "ĠTe": 2553,
      "iter": 2554,
      "Ġ{\\": 2555,
      "ley": 2556,
      "DE": 2557,
      "Ġthird": 2558,
      "ĠPal": 2559,
      "Ġcompon": 2560,
      "Ġsequence": 2561,
      "ache": 2562,
      "Ġstandard": 2563,
      "size": 2564,
      "uk": 2565,
      "Ġlower": 2566,
      "Ġann": 2567,
      "ruction": 2568,
      "Ġdrug": 2569,
      "Ġseries": 2570,
      "erc": 2571,
      "eb": 2572,
      "aling": 2573,
      "Ġdou": 2574,
      "viron": 2575,
      "Ġinde": 2576,
      "Ġeval": 2577,
      "Ġspecial": 2578,
      "68": 2579,
      "}^": 2580,
      "hold": 2581,
      "iation": 2582,
      "Ġapproach": 2583,
      ")*": 2584,
      "af": 2585,
      "itud": 2586,
      "Ġperformed": 2587,
      "US": 2588,
      "Ġfuture": 2589,
      "istic": 2590,
      "Ġclear": 2591,
      "ĠÎ": 2592,
      "Ġchanges": 2593,
      "Ġmicro": 2594,
      "Ġep": 2595,
      "icy": 2596,
      "pm": 2597,
      "illed": 2598,
      "ideo": 2599,
      "Ġnight": 2600,
      "Ind": 2601,
      "Ġlength": 2602,
      "Ġcreate": 2603,
      "bib": 2604,
      "Ġtax": 2605,
      "Ġfib": 2606,
      "Ġinhib": 2607,
      "ãģ": 2608,
      "amm": 2609,
      "Ġrespons": 2610,
      "imum": 2611,
      "Ġhappen": 2612,
      "sigma": 2613,
      "Ġfoc": 2614,
      "No": 2615,
      "Ġtext": 2616,
      "minist": 2617,
      "Ġred": 2618,
      "Ġcoun": 2619,
      "Ġfive": 2620,
      "Ġseen": 2621,
      "ceed": 2622,
      "mathbf": 2623,
      "medi": 2624,
      "Ġprior": 2625,
      "Ġconcer": 2626,
      "\\_": 2627,
      "iles": 2628,
      "cd": 2629,
      "Ġcause": 2630,
      "uppose": 2631,
      "Ġbar": 2632,
      "Ġdefined": 2633,
      "ogn": 2634,
      "There": 2635,
      "ered": 2636,
      "Ġconnect": 2637,
      "Ġtoget": 2638,
      "ternal": 2639,
      "cription": 2640,
      "Ġtogether": 2641,
      "Ġdecision": 2642,
      "aff": 2643,
      "Ġclos": 2644,
      "Ġemb": 2645,
      "On": 2646,
      "Ġdeb": 2647,
      "Ġproperty": 2648,
      "Ġsepar": 2649,
      "ĠOb": 2650,
      "Ġrelated": 2651,
      "Col": 2652,
      "ĊĊĊ": 2653,
      "pri": 2654,
      "ĠĊ": 2655,
      "Ġyet": 2656,
      "ager": 2657,
      "Ġbenef": 2658,
      "date": 2659,
      "Ġassess": 2660,
      "ilit": 2661,
      "Ġyoung": 2662,
      "Ġlimit": 2663,
      "Ġaccount": 2664,
      "numer": 2665,
      "Ġincreased": 2666,
      "eters": 2667,
      "Ġaddress": 2668,
      "Ġadded": 2669,
      "wise": 2670,
      "Ġfund": 2671,
      "Ġdefin": 2672,
      "Ġvir": 2673,
      "Ġcontract": 2674,
      "ios": 2675,
      "atter": 2676,
      "Ġfactors": 2677,
      "ached": 2678,
      "Ġmakes": 2679,
      "oph": 2680,
      "Ġclin": 2681,
      "ĠCar": 2682,
      "Ġprotein": 2683,
      "Ġcut": 2684,
      "plement": 2685,
      "Ġneeds": 2686,
      "Ġcancer": 2687,
      "Ġhouse": 2688,
      "ĠCont": 2689,
      "ĠGen": 2690,
      "Ġart": 2691,
      "ounds": 2692,
      "mber": 2693,
      "angu": 2694,
      "ero": 2695,
      "Ġblood": 2696,
      "ched": 2697,
      "ND": 2698,
      "Ġsocial": 2699,
      "ones": 2700,
      "Ġcult": 2701,
      "Ġflow": 2702,
      "uments": 2703,
      "fact": 2704,
      "Ġregard": 2705,
      "til": 2706,
      "Ġuser": 2707,
      "position": 2708,
      "bo": 2709,
      "Ġnear": 2710,
      "ĠĠĠĠĠĠĠĠĠĠĠĠĠĠĠĠĠĠĠĠĠĠĠĠĠĠĠĠĠĠĠĠĠĠĠĠĠĠĠĠĠĠĠĠĠĠĠĠ": 2711,
      "Ġgre": 2712,
      "irm": 2713,
      "Ġsite": 2714,
      "istance": 2715,
      "Ġbelieve": 2716,
      "uration": 2717,
      "load": 2718,
      "Ġtoday": 2719,
      "Ġadditional": 2720,
      "itting": 2721,
      "'d": 2722,
      "Ġconsist": 2723,
      "Val": 2724,
      "sy": 2725,
      "Ġeng": 2726,
      "87": 2727,
      "year": 2728,
      "Ġear": 2729,
      "sm": 2730,
      "rec": 2731,
      "urity": 2732,
      "Ġmembers": 2733,
      "util": 2734,
      "}_": 2735,
      "Ġdemon": 2736,
      "Ġsex": 2737,
      "Ġfactor": 2738,
      "Ġpast": 2739,
      "ĠCan": 2740,
      "Ġ40": 2741,
      "Ġapplication": 2742,
      "Ġstory": 2743,
      "umn": 2744,
      "Ġviol": 2745,
      "pping": 2746,
      "ĠWith": 2747,
      "Ġshows": 2748,
      "ĠAfter": 2749,
      "Ġ...": 2750,
      "Ġcolor": 2751,
      "value": 2752,
      "ucle": 2753,
      "raft": 2754,
      "Ġconcent": 2755,
      "now": 2756,
      "idered": 2757,
      "Ġdisease": 2758,
      "Ġprivate": 2759,
      "gree": 2760,
      "Ġmeet": 2761,
      "Ġshowed": 2762,
      "ros": 2763,
      "ogen": 2764,
      "net": 2765,
      "leq": 2766,
      "Ġ21": 2767,
      "Ġsystems": 2768,
      "ĠJohn": 2769,
      "Ġvarious": 2770,
      "86": 2771,
      "Ġcannot": 2772,
      "Ġfun": 2773,
      "umber": 2774,
      "Ġmarket": 2775,
      "lt": 2776,
      "lim": 2777,
      "Ġaffect": 2778,
      "Ġwrit": 2779,
      "beta": 2780,
      "Ġconv": 2781,
      "Ġ$(": 2782,
      "Ġquant": 2783,
      "Ġincluded": 2784,
      "Ġ(*": 2785,
      "%)": 2786,
      "Ġexc": 2787,
      "Ġever": 2788,
      "nection": 2789,
      "Ġentire": 2790,
      "sk": 2791,
      "Ġele": 2792,
      "apt": 2793,
      "ĠFig": 2794,
      "ING": 2795,
      "include": 2796,
      "Ġbelow": 2797,
      "atus": 2798,
      "Ġconsidered": 2799,
      "ground": 2800,
      "xim": 2801,
      "abor": 2802,
      "Ġsoft": 2803,
      "Ġgetting": 2804,
      "CL": 2805,
      "Ġsix": 2806,
      "Ġtook": 2807,
      "ĠCO": 2808,
      "Ġpopulation": 2809,
      "Ġfalse": 2810,
      "ĠPat": 2811,
      "lied": 2812,
      "Ġcorrespon": 2813,
      "\"}).": 2814,
      "ĠĠĠĠĠĠĠĠĠĠĠĠĠ": 2815,
      "\");": 2816,
      "lor": 2817,
      "zy": 2818,
      "ĠCent": 2819,
      "Ġvar": 2820,
      "Ġmind": 2821,
      "Ġreceived": 2822,
      "77": 2823,
      "Ġnull": 2824,
      "cing": 2825,
      "vey": 2826,
      "Ġdistribution": 2827,
      "Ġcamp": 2828,
      "Ġstre": 2829,
      "Ġcame": 2830,
      "icult": 2831,
      "File": 2832,
      "So": 2833,
      "ike": 2834,
      "ulated": 2835,
      "OT": 2836,
      "čĊ": 2837,
      "Ġdivided": 2838,
      "ĠMore": 2839,
      "Ġexec": 2840,
      "Ġitem": 2841,
      "Ġothers": 2842,
      "Ġeduc": 2843,
      "Ġdemonstr": 2844,
      "Ġlooking": 2845,
      "Ġintegr": 2846,
      "Ġanaly": 2847,
      "array": 2848,
      "obal": 2849,
      "/*": 2850,
      "Ġbegin": 2851,
      "rho": 2852,
      "ME": 2853,
      "Ġill": 2854,
      "atures": 2855,
      "Ġonce": 2856,
      "Ġdecre": 2857,
      "Â±": 2858,
      "aging": 2859,
      "izing": 2860,
      "Ġbreak": 2861,
      "Enumer": 2862,
      "ĠCal": 2863,
      "],[@": 2864,
      "ĠÂ§": 2865,
      "uly": 2866,
      "Ġimmun": 2867,
      "Ġecon": 2868,
      "comm": 2869,
      "arg": 2870,
      "Ġey": 2871,
      "une": 2872,
      "Ġrandom": 2873,
      ")}": 2874,
      "TR": 2875,
      "Ġpick": 2876,
      "Ġpubl": 2877,
      "vironment": 2878,
      "ply": 2879,
      "ĠAct": 2880,
      "03": 2881,
      "do": 2882,
      "Ġair": 2883,
      "Ġrelationship": 2884,
      "06": 2885,
      "delta": 2886,
      "unch": 2887,
      "ĠChrist": 2888,
      "Ġanti": 2889,
      "Ġrather": 2890,
      "theta": 2891,
      "where": 2892,
      "ises": 2893,
      "Ġ${\\": 2894,
      "ensive": 2895,
      "pose": 2896,
      "Ġexam": 2897,
      "ĠThen": 2898,
      "atab": 2899,
      "Ġcommunity": 2900,
      "dro": 2901,
      "Ġprotect": 2902,
      "lying": 2903,
      "Ġdam": 2904,
      "file": 2905,
      "ij": 2906,
      "ĠAm": 2907,
      "IL": 2908,
      "Ġsearch": 2909,
      "------------": 2910,
      "Ġinitial": 2911,
      "mary": 2912,
      "Ġstates": 2913,
      "tered": 2914,
      "76": 2915,
      "])": 2916,
      "body": 2917,
      "Ġtw": 2918,
      "Key": 2919,
      "chie": 2920,
      "Ġartic": 2921,
      "UR": 2922,
      "nu": 2923,
      "74": 2924,
      "AA": 2925,
      "Item": 2926,
      "View": 2927,
      "Ġcontent": 2928,
      "Ġmom": 2929,
      "pper": 2930,
      "wards": 2931,
      "pack": 2932,
      "tempt": 2933,
      "Ġmus": 2934,
      "ĠNot": 2935,
      "All": 2936,
      "ried": 2937,
      "($": 2938,
      "Ġtaken": 2939,
      "Ġtrying": 2940,
      "Ġassum": 2941,
      "Context": 2942,
      "anks": 2943,
      "Ġwent": 2944,
      "Ġneeded": 2945,
      "hing": 2946,
      "avor": 2947,
      "Ġdevice": 2948,
      "ocr": 2949,
      "abla": 2950,
      "Ġalmost": 2951,
      "Ġhistory": 2952,
      "54": 2953,
      "++": 2954,
      "Ġappear": 2955,
      "see": 2956,
      "Ph": 2957,
      "htt": 2958,
      "atal": 2959,
      "iding": 2960,
      "param": 2961,
      "reed": 2962,
      "Ġsimple": 2963,
      "Ġbring": 2964,
      "ĠYork": 2965,
      "Add": 2966,
      "comes": 2967,
      "oud": 2968,
      ".)": 2969,
      "ender": 2970,
      "Ġsignificantly": 2971,
      "84": 2972,
      "Ġhalf": 2973,
      "Ġchall": 2974,
      "iqu": 2975,
      "verse": 2976,
      "ĠNe": 2977,
      "Ġattack": 2978,
      "ĠCount": 2979,
      "ains": 2980,
      "alculate": 2981,
      "log": 2982,
      "Ġhom": 2983,
      "Ġprog": 2984,
      "Ġsus": 2985,
      "Ġheart": 2986,
      "Ġ(\\[": 2987,
      "ĠBy": 2988,
      "mitted": 2989,
      "Ġanything": 2990,
      "59": 2991,
      "Wh": 2992,
      "Ġpattern": 2993,
      "Ġwhole": 2994,
      "PS": 2995,
      "Ġtable": 2996,
      "Ġremov": 2997,
      "Ġdest": 2998,
      "uses": 2999,
      "light": 3000,
      "oo": 3001,
      "ellant": 3002,
      "Ġregion": 3003,
      "ottom": 3004,
      "cular": 3005,
      "aged": 3006,
      "Ġtum": 3007,
      "ĠĠĠĠĠĠĠĠĠĠĠĠĠĠ": 3008,
      "oll": 3009,
      "ĠOne": 3010,
      "ires": 3011,
      "Ġbehav": 3012,
      "')": 3013,
      "Figure": 3014,
      "Delta": 3015,
      "https": 3016,
      "ober": 3017,
      "Ġgenes": 3018,
      "IV": 3019,
      "CH": 3020,
      "aced": 3021,
      "with": 3022,
      "ication": 3023,
      "ĠMan": 3024,
      "199": 3025,
      "Ġjo": 3026,
      "}}\\": 3027,
      "rid": 3028,
      "ĠDr": 3029,
      "Ġimpact": 3030,
      "atural": 3031,
      "Ġexperience": 3032,
      "Ġdecl": 3033,
      "using": 3034,
      "Ġsolution": 3035,
      "Ġq": 3036,
      "ĠSte": 3037,
      "With": 3038,
      "come": 3039,
      "Ġrespectively": 3040,
      "Ġinvolved": 3041,
      "Ġang": 3042,
      "Ġcoll": 3043,
      "Look": 3044,
      "oman": 3045,
      "ĠIN": 3046,
      "bit": 3047,
      "ederal": 3048,
      "anced": 3049,
      "Ġloss": 3050,
      "rack": 3051,
      "like": 3052,
      "ament": 3053,
      "001": 3054,
      "Set": 3055,
      "ino": 3056,
      "Ġdocument": 3057,
      "ĠCD": 3058,
      "ĠMy": 3059,
      "Ġrat": 3060,
      "Ġseems": 3061,
      "Des": 3062,
      "Ob": 3063,
      "inter": 3064,
      "Ġtool": 3065,
      "Ġpolice": 3066,
      "Ġdifficult": 3067,
      "Ġassert": 3068,
      "pecially": 3069,
      "anguage": 3070,
      "Ġge": 3071,
      "Ġmedia": 3072,
      "isf": 3073,
      "Ġachie": 3074,
      "etition": 3075,
      "quad": 3076,
      "........": 3077,
      "Group": 3078,
      "tes": 3079,
      "iments": 3080,
      "rad": 3081,
      "ĠMc": 3082,
      "Ġ29": 3083,
      "resident": 3084,
      "Ġblack": 3085,
      "Ġexact": 3086,
      "bor": 3087,
      "ĠMr": 3088,
      "Ġpatient": 3089,
      "fully": 3090,
      "43": 3091,
      "atively": 3092,
      "Ġcontact": 3093,
      "more": 3094,
      "Ġformer": 3095,
      "fs": 3096,
      "Ġpair": 3097,
      "inding": 3098,
      "Ġbound": 3099,
      "Ġeff": 3100,
      "mathrm": 3101,
      "Ġdistribut": 3102,
      "bre": 3103,
      "Ġproblems": 3104,
      "$-": 3105,
      "Ġ%": 3106,
      "ĠPart": 3107,
      "Ġattempt": 3108,
      "duction": 3109,
      "Ġparty": 3110,
      "list": 3111,
      "Ġadj": 3112,
      "Ġface": 3113,
      "Ġimprove": 3114,
      "dis": 3115,
      "Ġla": 3116,
      "Ġcompar": 3117,
      "based": 3118,
      "Ġ22": 3119,
      "Ġdifference": 3120,
      "Exp": 3121,
      "Mod": 3122,
      "Form": 3123,
      "Ġcustom": 3124,
      "Ġheld": 3125,
      "psilon": 3126,
      "hest": 3127,
      "Ġproced": 3128,
      "Ġpaper": 3129,
      "nabla": 3130,
      "Ġproduction": 3131,
      "ches": 3132,
      "Ġthus": 3133,
      "era": 3134,
      "Ġcomes": 3135,
      "Ġphase": 3136,
      "Ġprec": 3137,
      "agement": 3138,
      "Ġimplement": 3139,
      "}$,": 3140,
      "Ġsubst": 3141,
      "Un": 3142,
      "my": 3143,
      "ran": 3144,
      "lier": 3145,
      "circ": 3146,
      "ĠTGen": 3147,
      "Ġtemper": 3148,
      "Ġver": 3149,
      "ulations": 3150,
      "sq": 3151,
      "onal": 3152,
      "Ġbad": 3153,
      "Ġdig": 3154,
      "Ġchem": 3155,
      "*,": 3156,
      "Ġ},": 3157,
      "Ġservices": 3158,
      "Ġground": 3159,
      "Ġfra": 3160,
      "Ġinstead": 3161,
      "Ġpan": 3162,
      "Ġpers": 3163,
      "42": 3164,
      "Ġdim": 3165,
      "Ġissues": 3166,
      "gamma": 3167,
      "Ġreve": 3168,
      "Ġintro": 3169,
      "Ġaccepted": 3170,
      "Ġstudents": 3171,
      "\\\\": 3172,
      "Ġgrowth": 3173,
      "Ġce": 3174,
      "Ġcity": 3175,
      "Ġfall": 3176,
      "ledge": 3177,
      "Ġmotion": 3178,
      "CA": 3179,
      "Ġpredict": 3180,
      "orld": 3181,
      "eps": 3182,
      "ĠĠĠĠĠĠĠĠĠĠĠĠĠĠĠ": 3183,
      "Ġadminist": 3184,
      "Ġpolitical": 3185,
      "When": 3186,
      "\\{": 3187,
      "Ġansw": 3188,
      "ĠEng": 3189,
      "Se": 3190,
      "ĠGu": 3191,
      "infinity": 3192,
      "Ġaud": 3193,
      "ĠMed": 3194,
      ")=": 3195,
      "ttp": 3196,
      "word": 3197,
      "Ġinput": 3198,
      "ĠDep": 3199,
      "Ġmethods": 3200,
      "Ġofficial": 3201,
      "RA": 3202,
      "ze": 3203,
      "Ġmagn": 3204,
      "Ġrelease": 3205,
      "Ġpret": 3206,
      "Ġdepend": 3207,
      "Ġ2016": 3208,
      "overed": 3209,
      "Ġdiagn": 3210,
      "Ġeasy": 3211,
      "CS": 3212,
      "Ġdeal": 3213,
      "Ġrecent": 3214,
      "ese": 3215,
      "Ġminutes": 3216,
      "sl": 3217,
      "Ġtaking": 3218,
      "ilities": 3219,
      "aintiff": 3220,
      "su": 3221,
      "olic": 3222,
      "Ġclose": 3223,
      "Not": 3224,
      "rim": 3225,
      "aled": 3226,
      "Ġparent": 3227,
      "rror": 3228,
      "rt": 3229,
      "Ġprovides": 3230,
      "Ġcorrect": 3231,
      "That": 3232,
      "function": 3233,
      "acc": 3234,
      "Ġtypes": 3235,
      "...\"": 3236,
      "ĠLicense": 3237,
      "Ġvalid": 3238,
      "Ġcross": 3239,
      "Ġsomeone": 3240,
      "ying": 3241,
      "omega": 3242,
      "na": 3243,
      "Ġlive": 3244,
      "ĠCor": 3245,
      "Ġmargin": 3246,
      "Ġfig": 3247,
      "ĠMar": 3248,
      "Ġcal": 3249,
      "Ġroom": 3250,
      "ĠÂ±": 3251,
      "Ġidea": 3252,
      "Ġcompl": 3253,
      "ronic": 3254,
      "Ġprobably": 3255,
      "\";": 3256,
      "Ġbrain": 3257,
      "hers": 3258,
      "Ġasked": 3259,
      "46": 3260,
      "Qu": 3261,
      "Ġhours": 3262,
      "Ġelement": 3263,
      "DH": 3264,
      "eration": 3265,
      "ites": 3266,
      "ilt": 3267,
      "Ġindust": 3268,
      "ĠDem": 3269,
      "}$.": 3270,
      "range": 3271,
      "Ġ&&": 3272,
      "Ġprevent": 3273,
      "Ġcreated": 3274,
      "Ġtherefore": 3275,
      "Ġstarted": 3276,
      "pre": 3277,
      "icon": 3278,
      "ĠDes": 3279,
      "clusion": 3280,
      "ips": 3281,
      "itten": 3282,
      "Ġfunctions": 3283,
      "71": 3284,
      "fr": 3285,
      "aign": 3286,
      "Ġquality": 3287,
      "ĠId": 3288,
      "Ġ28": 3289,
      "Ġclust": 3290,
      "Ġwar": 3291,
      "Ġstop": 3292,
      "ĠGod": 3293,
      "Ġproducts": 3294,
      "EX": 3295,
      "Ġvideo": 3296,
      "Ġevalu": 3297,
      "ĠPe": 3298,
      "rapy": 3299,
      "08": 3300,
      "Ġdisplay": 3301,
      "ribute": 3302,
      "Ġrights": 3303,
      "ĠSystem": 3304,
      "09": 3305,
      "Ġisn": 3306,
      "ĠDef": 3307,
      "Ġtheory": 3308,
      "ĠMon": 3309,
      "Ġitself": 3310,
      "Ġsamples": 3311,
      "urb": 3312,
      "user": 3313,
      "Ġproperties": 3314,
      "CD": 3315,
      "Ġ23": 3316,
      "astic": 3317,
      "ev": 3318,
      "Ġnothing": 3319,
      "ĠJust": 3320,
      "Ġland": 3321,
      "ccording": 3322,
      "Ġinstall": 3323,
      "Ġcand": 3324,
      "istics": 3325,
      "Ġclinical": 3326,
      "Ġdire": 3327,
      "ĠEuro": 3328,
      "Ġindex": 3329,
      "Ġeffort": 3330,
      "ember": 3331,
      "Ġwrong": 3332,
      "63": 3333,
      "Ġenvironment": 3334,
      "----------------------------------------------------------------": 3335,
      "../../": 3336,
      "ii": 3337,
      "apan": 3338,
      "58": 3339,
      "Ġaverage": 3340,
      "Ġgirl": 3341,
      "Ġindependent": 3342,
      "inally": 3343,
      "Ġstra": 3344,
      "Ġago": 3345,
      "Ġplayers": 3346,
      "oat": 3347,
      "hel": 3348,
      "Ġload": 3349,
      "52": 3350,
      "omas": 3351,
      "Ġmatch": 3352,
      "Ġnecessary": 3353,
      "trans": 3354,
      "rc": 3355,
      "Ġsatisf": 3356,
      "ĠNational": 3357,
      "Ġdetermined": 3358,
      "big": 3359,
      "ging": 3360,
      "rite": 3361,
      "Ġvia": 3362,
      "ief": 3363,
      "Ġcompan": 3364,
      "td": 3365,
      "Ġ!=": 3366,
      "uous": 3367,
      "arily": 3368,
      "ills": 3369,
      "Ġwords": 3370,
      "uth": 3371,
      "Ġderiv": 3372,
      "Table": 3373,
      "gl": 3374,
      "Ġsimply": 3375,
      "57": 3376,
      "ĠSch": 3377,
      "Ġhost": 3378,
      "Ġcopy": 3379,
      "rupt": 3380,
      "Ġetc": 3381,
      "\\}": 3382,
      "Ġcontext": 3383,
      "tilde": 3384,
      "Ġgene": 3385,
      "Ġespecially": 3386,
      "Ġoriginal": 3387,
      "Ġimages": 3388,
      "ecause": 3389,
      "Ġpressure": 3390,
      "omy": 3391,
      "width": 3392,
      "Ġste": 3393,
      "Ġworks": 3394,
      "Ġfinanc": 3395,
      "ugin": 3396,
      "Ġdate": 3397,
      "vere": 3398,
      "Ġshare": 3399,
      "Ġprimary": 3400,
      "Ġnumbers": 3401,
      "ĠST": 3402,
      "ospital": 3403,
      "pen": 3404,
      "čĊĠĠĠĠĠĠĠ": 3405,
      "rief": 3406,
      "ffer": 3407,
      "itude": 3408,
      "ĠIm": 3409,
      "ĠThus": 3410,
      "Ġsil": 3411,
      "ogle": 3412,
      "Ġsample": 3413,
      "amed": 3414,
      "Ġcard": 3415,
      "Ġcorrel": 3416,
      "Ġpresented": 3417,
      "Ġcred": 3418,
      "urch": 3419,
      "chi": 3420,
      "Ġcomplete": 3421,
      "Ġpersonal": 3422,
      "Ġoccur": 3423,
      "ĠPol": 3424,
      "ĠInc": 3425,
      "ĠPresident": 3426,
      "Ġdetermine": 3427,
      "umb": 3428,
      "Ġcontinue": 3429,
      "At": 3430,
      "Ġpage": 3431,
      "Ġfollows": 3432,
      "inion": 3433,
      "Ġlearn": 3434,
      "rown": 3435,
      "Ġoffice": 3436,
      "Ġmach": 3437,
      "Ġinflu": 3438,
      "char": 3439,
      "![": 3440,
      "53": 3441,
      "js": 3442,
      "ĠMin": 3443,
      "ĠHouse": 3444,
      "}^{\\": 3445,
      "Ċĉĉĉĉĉĉ": 3446,
      "px": 3447,
      "56": 3448,
      "Ġlack": 3449,
      "}=": 3450,
      "ĠOF": 3451,
      "Ġidentified": 3452,
      "ĠMe": 3453,
      "\\])": 3454,
      "tau": 3455,
      "api": 3456,
      "Ġjudgment": 3457,
      "selves": 3458,
      "Ġrele": 3459,
      "Ġdrink": 3460,
      "BC": 3461,
      "ĠJan": 3462,
      "Ġmedical": 3463,
      "Ġoutside": 3464,
      "Ġdefault": 3465,
      "rew": 3466,
      "aves": 3467,
      "field": 3468,
      "Ġwhite": 3469,
      "Ġpresence": 3470,
      ")^": 3471,
      "times": 3472,
      "earch": 3473,
      "block": 3474,
      "Ġperformance": 3475,
      "ĠSince": 3476,
      "Ġclean": 3477,
      "My": 3478,
      "Ġfem": 3479,
      "Ġreference": 3480,
      "Ġrunning": 3481,
      "Ġvariables": 3482,
      "ĠCounty": 3483,
      "Ġlonger": 3484,
      "ENT": 3485,
      "aur": 3486,
      "ĊĊĠĠĠĠĠĠ": 3487,
      "ux": 3488,
      "ram": 3489,
      "Ġnews": 3490,
      "Ġ2015": 3491,
      "UN": 3492,
      "Ġquick": 3493,
      "51": 3494,
      "hood": 3495,
      "Ġ<<": 3496,
      "ington": 3497,
      "comp": 3498,
      "Ġinside": 3499,
      "Ġstatus": 3500,
      "Ġsal": 3501,
      "Ġtiss": 3502,
      "ĠBo": 3503,
      "RNA": 3504,
      "ana": 3505,
      "ste": 3506,
      "Get": 3507,
      "ada": 3508,
      "Ġdegree": 3509,
      "ĠTrump": 3510,
      "Ġhope": 3511,
      "^{(": 3512,
      "ags": 3513,
      "Ġarray": 3514,
      "ferences": 3515,
      "lation": 3516,
      "static": 3517,
      "Ġeffective": 3518,
      "Ġexperiment": 3519,
      "41": 3520,
      "vare": 3521,
      "Ġ?": 3522,
      "Ġstri": 3523,
      "Ġ26": 3524,
      "Ġextra": 3525,
      "ili": 3526,
      "Ġimpl": 3527,
      "utions": 3528,
      "Ġpolicy": 3529,
      "Ġelements": 3530,
      "Ad": 3531,
      "Ġfoot": 3532,
      "ionic": 3533,
      "Ġlate": 3534,
      "Ġinvention": 3535,
      "Ġapproxim": 3536,
      "ĠHol": 3537,
      "lay": 3538,
      "uel": 3539,
      "Ġgames": 3540,
      "ĠDo": 3541,
      "Ġmodels": 3542,
      "\".": 3543,
      "book": 3544,
      ")$.": 3545,
      "ynam": 3546,
      "Ġrecogn": 3547,
      "}(\\": 3548,
      "Ġhtt": 3549,
      "section": 3550,
      "ĠMarch": 3551,
      "osition": 3552,
      "Ġsem": 3553,
      "ĠRed": 3554,
      "Ġalle": 3555,
      "Ġmaintain": 3556,
      "ĠÃ": 3557,
      "atform": 3558,
      "Ġlines": 3559,
      "rows": 3560,
      "Ġmessage": 3561,
      "ĠÐ": 3562,
      "Ġmut": 3563,
      "ĠEn": 3564,
      "\\].": 3565,
      "ĠEurope": 3566,
      "path": 3567,
      "uild": 3568,
      "Ġess": 3569,
      "Ġ->": 3570,
      "Ġhttps": 3571,
      "Ġox": 3572,
      "Ġavoid": 3573,
      "varepsilon": 3574,
      "Ġ2017": 3575,
      "AG": 3576,
      "ĠOR": 3577,
      "ula": 3578,
      "Ġeverything": 3579,
      "mat": 3580,
      "Ġfire": 3581,
      "Ġprinc": 3582,
      "Def": 3583,
      "Ġbur": 3584,
      "ĠCity": 3585,
      "$\\": 3586,
      "72": 3587,
      "itation": 3588,
      "Ġwanted": 3589,
      "Ġremainder": 3590,
      "((": 3591,
      "Ġsignal": 3592,
      "Lambda": 3593,
      "istry": 3594,
      "Ġautom": 3595,
      "adding": 3596,
      "Ġbinary": 3597,
      "Ġdistrict": 3598,
      "Ġpresident": 3599,
      "fered": 3600,
      "Ġdirectly": 3601,
      "ĠJapan": 3602,
      "aving": 3603,
      "Ġmm": 3604,
      "Ġcry": 3605,
      "ĠGe": 3606,
      "Ġcandid": 3607,
      "ded": 3608,
      "ĠAust": 3609,
      "augh": 3610,
      "Ġopportun": 3611,
      "SD": 3612,
      "enced": 3613,
      "Ġareas": 3614,
      "Ġstrateg": 3615,
      "Ġlanguage": 3616,
      "ults": 3617,
      "Ġweeks": 3618,
      "Ġsense": 3619,
      "Ġfit": 3620,
      "Ġund": 3621,
      "ĠPar": 3622,
      "Ġability": 3623,
      "Ġvisual": 3624,
      "hic": 3625,
      "Ġresid": 3626,
      "iddle": 3627,
      "Index": 3628,
      "actions": 3629,
      "sqrt": 3630,
      "allow": 3631,
      "ĠQu": 3632,
      "Ġpreviously": 3633,
      "Ġmoment": 3634,
      "}.": 3635,
      "ĠWill": 3636,
      "PI": 3637,
      "čĊĠĠĠ": 3638,
      "Ġmap": 3639,
      "Ġexcept": 3640,
      "Ġchann": 3641,
      "ĠSim": 3642,
      "ishing": 3643,
      "box": 3644,
      "public": 3645,
      "orph": 3646,
      ")**": 3647,
      "ditional": 3648,
      "Ġrepe": 3649,
      "cast": 3650,
      "Ġoutput": 3651,
      "}}$": 3652,
      "ĠDist": 3653,
      "Ġclaims": 3654,
      "sim": 3655,
      "Ġsort": 3656,
      "Ġmole": 3657,
      "Ġwalk": 3658,
      "tee": 3659,
      "Ġconstruct": 3660,
      "Ġphysical": 3661,
      "Ġgreater": 3662,
      "Lookup": 3663,
      "Ġmix": 3664,
      "resh": 3665,
      "Ġdiscl": 3666,
      "Ġincludes": 3667,
      "Ġreduced": 3668,
      "FT": 3669,
      "asons": 3670,
      "ordin": 3671,
      "Ġparameters": 3672,
      "map": 3673,
      "ĠPr": 3674,
      "lementary": 3675,
      "Or": 3676,
      "lin": 3677,
      "osph": 3678,
      "ission": 3679,
      "Ġforce": 3680,
      "ĠWar": 3681,
      "Ġlimited": 3682,
      "ĠWhile": 3683,
      "gest": 3684,
      "000000": 3685,
      "Ġmeasured": 3686,
      "gor": 3687,
      "Ġprint": 3688,
      "Ġ///": 3689,
      "IR": 3690,
      "OL": 3691,
      "term": 3692,
      "ĠRuss": 3693,
      "Ġcontroll": 3694,
      "Ġaccur": 3695,
      "Ġfavor": 3696,
      "Ġusually": 3697,
      "Ġfront": 3698,
      ".[": 3699,
      "ĠRepublic": 3700,
      "Ġforward": 3701,
      "Ġ(-": 3702,
      "07": 3703,
      "ĠSu": 3704,
      "ĠDav": 3705,
      "Ġconstit": 3706,
      "Ġexpress": 3707,
      "62": 3708,
      "pite": 3709,
      "point": 3710,
      "Ġsurv": 3711,
      "levant": 3712,
      "82": 3713,
      "base": 3714,
      "Ġwhose": 3715,
      "wood": 3716,
      "Ġcharge": 3717,
      "vec": 3718,
      "ĠAmerica": 3719,
      "isions": 3720,
      "mpt": 3721,
      "iven": 3722,
      "Ġacid": 3723,
      "////////": 3724,
      "Ġir": 3725,
      "ague": 3726,
      "Ġmember": 3727,
      "!!": 3728,
      "Ġdensity": 3729,
      "ivil": 3730,
      "but": 3731,
      "Ġsaf": 3732,
      "reme": 3733,
      "ĠHis": 3734,
      "aining": 3735,
      "lege": 3736,
      "Ġlost": 3737,
      "ops": 3738,
      "ellow": 3739,
      "Ġhttp": 3740,
      "Ġquite": 3741,
      "pecific": 3742,
      "Ġball": 3743,
      "clus": 3744,
      "ĠReg": 3745,
      "Ġarticle": 3746,
      "ĠDis": 3747,
      "Ġrule": 3748,
      "long": 3749,
      "void": 3750,
      "Ġnotice": 3751,
      "Ġbuilding": 3752,
      "dom": 3753,
      "down": 3754,
      "ĠIntern": 3755,
      "Ġdifferences": 3756,
      "Ġbehind": 3757,
      "ML": 3758,
      "rote": 3759,
      "Ġtransfer": 3760,
      "Ġvariable": 3761,
      "error": 3762,
      "Ġpict": 3763,
      "Ġvict": 3764,
      "pan": 3765,
      "non": 3766,
      "ufact": 3767,
      "ĊĊĠĠĠĠĠ": 3768,
      "Ġperfect": 3769,
      "Ġhyp": 3770,
      "Ġstay": 3771,
      "rial": 3772,
      "Ġbecame": 3773,
      "Ġincreasing": 3774,
      "Ġpractice": 3775,
      "Ġtreated": 3776,
      "Ġfinancial": 3777,
      "ned": 3778,
      "002": 3779,
      "]{},": 3780,
      "Ġgrant": 3781,
      "));": 3782,
      "OP": 3783,
      "Of": 3784,
      "ĠIS": 3785,
      "Ġselect": 3786,
      "Ġcontribut": 3787,
      "New": 3788,
      "Ġens": 3789,
      "Ġbank": 3790,
      "hbar": 3791,
      "Ġstar": 3792,
      "Ġspecies": 3793,
      "Ġmemory": 3794,
      "Image": 3795,
      "Ġpublished": 3796,
      "package": 3797,
      "BS": 3798,
      "Error": 3799,
      "^+": 3800,
      "Ġvot": 3801,
      "Ġslow": 3802,
      "aches": 3803,
      "supp": 3804,
      "ĠAf": 3805,
      "Ġstatic": 3806,
      "Ġscreen": 3807,
      "Ġcampaign": 3808,
      "ography": 3809,
      "nown": 3810,
      "ĊĠĠĠĠĠĠĠĠĠĠĠĠĠĠĠĠĠĠĠĠĠĠĠĠĠĠĠĠĠĠĠĠ": 3811,
      "ĠSer": 3812,
      "Ġonline": 3813,
      "fra": 3814,
      ")$,": 3815,
      "print": 3816,
      "Ġisol": 3817,
      "Ġapplied": 3818,
      "Ġevents": 3819,
      "refore": 3820,
      "from": 3821,
      "Ġagreement": 3822,
      "ffi": 3823,
      "Ġsaw": 3824,
      "Ġtemperature": 3825,
      "Ġaccom": 3826,
      "Ġgenerally": 3827,
      "Ġpie": 3828,
      "âĢĲ": 3829,
      "Ġstress": 3830,
      "perty": 3831,
      "aries": 3832,
      "ĠOur": 3833,
      "Ġbasis": 3834,
      "________": 3835,
      "Ġexecut": 3836,
      "Ġanim": 3837,
      "Ġmention": 3838,
      "Ġdeveloped": 3839,
      "Ġbroad": 3840,
      "Ġhighly": 3841,
      "Ġcoming": 3842,
      "Ġ[*": 3843,
      "arest": 3844,
      "gorith": 3845,
      "oken": 3846,
      "Ġinternal": 3847,
      "Ġfollowed": 3848,
      "Ġmovie": 3849,
      "Ġfrequency": 3850,
      "link": 3851,
      "Ġten": 3852,
      "Ġ60": 3853,
      "Ġrefer": 3854,
      "NID": 3855,
      "Ġclosed": 3856,
      "Ġcenter": 3857,
      "Ġsoftware": 3858,
      "Ġpoly": 3859,
      "ĠHere": 3860,
      "Ġstatement": 3861,
      "atur": 3862,
      "Ġ[**": 3863,
      "Ġprep": 3864,
      "cho": 3865,
      "Ġround": 3866,
      "max": 3867,
      "Ġnumer": 3868,
      "sing": 3869,
      "pret": 3870,
      "olve": 3871,
      "Ġrecently": 3872,
      "Ġtraining": 3873,
      "Ġfilms": 3874,
      "iverse": 3875,
      "rast": 3876,
      "Ġful": 3877,
      "ĠBr": 3878,
      "ĠString": 3879,
      "Ġsaying": 3880,
      "73": 3881,
      "Ġappropri": 3882,
      "ds": 3883,
      "Ġknowledge": 3884,
      "Ġnode": 3885,
      "ĠTHE": 3886,
      "orem": 3887,
      "Ġoffer": 3888,
      "Ġappeal": 3889,
      "encies": 3890,
      "Element": 3891,
      "Ġ~": 3892,
      "Ġconnection": 3893,
      "Ġalthough": 3894,
      "Ġdirector": 3895,
      "ĠAlthough": 3896,
      "Ġhyper": 3897,
      "Ġnucle": 3898,
      "Ġwebs": 3899,
      "ĠFirst": 3900,
      "Ġhot": 3901,
      "Ġrates": 3902,
      "Ġfriend": 3903,
      "Ġdouble": 3904,
      "Ġmis": 3905,
      "ental": 3906,
      "ĠJud": 3907,
      "hesis": 3908,
      "Ġargument": 3909,
      "HO": 3910,
      "Ġutil": 3911,
      "met": 3912,
      "BR": 3913,
      "ĠNorth": 3914,
      "Ġsett": 3915,
      "Ġvehic": 3916,
      "state": 3917,
      "Ġtrust": 3918,
      "Ġtakes": 3919,
      "Ġsoon": 3920,
      "build": 3921,
      "ĠAb": 3922,
      "Ġcommit": 3923,
      "Ġconsum": 3924,
      "Ġtrack": 3925,
      "Ġpurpose": 3926,
      "93": 3927,
      "och": 3928,
      "erve": 3929,
      "Ġcam": 3930,
      "Ġleave": 3931,
      "ibrary": 3932,
      "Ġ2012": 3933,
      "Ġfeatures": 3934,
      "Ġwritten": 3935,
      "Ġhighest": 3936,
      "Ġnegative": 3937,
      "Value": 3938,
      "ades": 3939,
      "ĠPer": 3940,
      "Ed": 3941,
      "ken": 3942,
      "Ġ2013": 3943,
      "Ġ2014": 3944,
      "Ġparticularly": 3945,
      "Par": 3946,
      "Ġsuit": 3947,
      "ĠOct": 3948,
      "Ġimmedi": 3949,
      "Ġanswer": 3950,
      "Ã¡": 3951,
      "Ġnatural": 3952,
      "Ġ\\\\": 3953,
      "aker": 3954,
      "ners": 3955,
      "atives": 3956,
      "Ġur": 3957,
      "Ġdetails": 3958,
      "Text": 3959,
      "Ġtitle": 3960,
      "ĠInt": 3961,
      "Ġcompet": 3962,
      "php": 3963,
      "Ġunit": 3964,
      "ĠPhys": 3965,
      "Int": 3966,
      "Ġmid": 3967,
      "Ġ2018": 3968,
      "Ġregular": 3969,
      "ĠWorld": 3970,
      "ĠEd": 3971,
      "ĠPalace": 3972,
      "LO": 3973,
      "ĠGr": 3974,
      "ournal": 3975,
      "overline": 3976,
      "``": 3977,
      "Ġaltern": 3978,
      "Ġactive": 3979,
      "oke": 3980,
      "xl": 3981,
      "otic": 3982,
      "ocy": 3983,
      "prime": 3984,
      "Ġfailed": 3985,
      "['": 3986,
      "Ġ2010": 3987,
      "Bbb": 3988,
      "rangle": 3989,
      "Ġsufficient": 3990,
      "ĊĠĠĠĠĠĠĠĠĠĠĠĠĠĠĠĠĠĠĠĠĠĠĠ": 3991,
      "83": 3992,
      "Ġbox": 3993,
      "Ġshall": 3994,
      "\\,": 3995,
      "Ġmother": 3996,
      "Ġhor": 3997,
      "Ġconstant": 3998,
      "Ġpretty": 3999,
      "ming": 4000,
      "ĠWash": 4001,
      "Fl": 4002,
      "oon": 4003,
      "ãĤ": 4004,
      "erate": 4005,
      "ĠII": 4006,
      "amine": 4007,
      "ĠAp": 4008,
      "Ġstars": 4009,
      "elt": 4010,
      "Ġstyle": 4011,
      "epsilon": 4012,
      "97": 4013,
      "Ġfixed": 4014,
      "overy": 4015,
      "Ġconfig": 4016,
      "########": 4017,
      "Ġframe": 4018,
      "Ġrev": 4019,
      "Ġrot": 4020,
      "UL": 4021,
      "Ġapply": 4022,
      "Ġ||": 4023,
      "atabase": 4024,
      "Object": 4025,
      "Ġderivative": 4026,
      "source": 4027,
      "eline": 4028,
      "Ġ^": 4029,
      "Ġways": 4030,
      "imate": 4031,
      "SS": 4032,
      "Ġsqu": 4033,
      "ĠSen": 4034,
      "Ġunique": 4035,
      "Ġpain": 4036,
      "Ġproceed": 4037,
      "ĠGo": 4038,
      "Ġimag": 4039,
      "Ġsche": 4040,
      "ĠDemocr": 4041,
      "DA": 4042,
      "Ġfailure": 4043,
      "*.": 4044,
      "Ġtried": 4045,
      "ethyl": 4046,
      "Ġdesigned": 4047,
      "pril": 4048,
      "Ġquestions": 4049,
      "Ġeducation": 4050,
      "IM": 4051,
      "pat": 4052,
      "Ġgas": 4053,
      "Ġvs": 4054,
      "Ċĉĉĉĉ": 4055,
      "Ġlib": 4056,
      "iforn": 4057,
      "Ġnearest": 4058,
      "Ġserious": 4059,
      "zed": 4060,
      "ervice": 4061,
      "Ġbehavior": 4062,
      "]^": 4063,
      "lig": 4064,
      "ĠHar": 4065,
      "anger": 4066,
      "\"></": 4067,
      "ĠHealth": 4068,
      "cale": 4069,
      "Be": 4070,
      "Ġchoice": 4071,
      "Ġcorresponding": 4072,
      "Bl": 4073,
      "Ðµ": 4074,
      "Ġple": 4075,
      "Ġneigh": 4076,
      "Ġbuy": 4077,
      "rate": 4078,
      "Ġcaused": 4079,
      "bon": 4080,
      "pace": 4081,
      "hern": 4082,
      "Ġglobal": 4083,
      "Ġcompanies": 4084,
      "joy": 4085,
      "ĠAg": 4086,
      "Ġenh": 4087,
      "Ġglass": 4088,
      "Ġcentral": 4089,
      "Ps": 4090,
      "Ġandroid": 4091,
      "Ġcurrently": 4092,
      "Ġpackages": 4093,
      "Ġdirection": 4094,
      "81": 4095,
      "\\<": 4096,
      "ĠCong": 4097,
      "Ġprofess": 4098,
      "Ġhydro": 4099,
      "61": 4100,
      "En": 4101,
      "eah": 4102,
      "wide": 4103,
      "Ġproposed": 4104,
      "Ġord": 4105,
      "plugin": 4106,
      "Ġtransform": 4107,
      "Ġopinion": 4108,
      "Ġlarger": 4109,
      "Ġcountries": 4110,
      "Ġessential": 4111,
      "iam": 4112,
      "len": 4113,
      "ĠCir": 4114,
      "ĠNow": 4115,
      "Ġmanufact": 4116,
      "Ġdevices": 4117,
      "cos": 4118,
      "ĠFurther": 4119,
      "ĠJune": 4120,
      "Ġemerg": 4121,
      "Ġindividuals": 4122,
      "Path": 4123,
      "âĢĥ": 4124,
      "Ġrelative": 4125,
      "isms": 4126,
      "iated": 4127,
      "Ġnational": 4128,
      "Ġcomment": 4129,
      "ports": 4130,
      "Ġanyone": 4131,
      "Ġthemselves": 4132,
      "Ġcover": 4133,
      "One": 4134,
      "roph": 4135,
      "Ġrecomm": 4136,
      "ĠJuly": 4137,
      "varphi": 4138,
      "Ð¾": 4139,
      "Ġwatch": 4140,
      "elling": 4141,
      "Ġzero": 4142,
      "AM": 4143,
      "rs": 4144,
      "Ġnote": 4145,
      "aching": 4146,
      "Exception": 4147,
      "Ġindustry": 4148,
      "Ġ_{": 4149,
      "Ġbegan": 4150,
      "Ġsites": 4151,
      "bt": 4152,
      "Ġstaff": 4153,
      "define": 4154,
      "Ġsubstant": 4155,
      "oe": 4156,
      "Ġfinding": 4157,
      "Ġcontaining": 4158,
      "SP": 4159,
      "Ġwall": 4160,
      "ĊĠĠĠĠĠĠĠĠĠĠĠĠĠ": 4161,
      "Ġimm": 4162,
      "aily": 4163,
      "Ġbackground": 4164,
      "Ġidentify": 4165,
      "Ġsituation": 4166,
      "96": 4167,
      "under": 4168,
      "Ġwidth": 4169,
      "oles": 4170,
      "Ġconver": 4171,
      "irmed": 4172,
      "Ġfocus": 4173,
      "group": 4174,
      "estern": 4175,
      "ĠDepartment": 4176,
      "FF": 4177,
      "itter": 4178,
      "Ġmi": 4179,
      "ĠBar": 4180,
      "Ġmilit": 4181,
      "struct": 4182,
      "oma": 4183,
      "Ġscale": 4184,
      "Ġshowing": 4185,
      "Ġearlier": 4186,
      "Ġthreat": 4187,
      "Ġgenerated": 4188,
      "indows": 4189,
      "Ġvers": 4190,
      "related": 4191,
      "Ġeasily": 4192,
      "Ġratio": 4193,
      "ha": 4194,
      "Ġinform": 4195,
      "Ġ2019": 4196,
      "Ġwrite": 4197,
      "ĠSome": 4198,
      "index": 4199,
      "ĠTherefore": 4200,
      "ĠGroup": 4201,
      "Ġauth": 4202,
      "Ġcomponent": 4203,
      "Ġspl": 4204,
      "Ġheav": 4205,
      "izes": 4206,
      "ifornia": 4207,
      "Ct": 4208,
      "ULL": 4209,
      "Ġsources": 4210,
      "exp": 4211,
      "Ġtechnology": 4212,
      "den": 4213,
      "ny": 4214,
      "omin": 4215,
      "Ġalgorith": 4216,
      "ĠGeneral": 4217,
      "mid": 4218,
      "alle": 4219,
      "Ġfindings": 4220,
      "Ġdrive": 4221,
      "Ġcosts": 4222,
      "Cs": 4223,
      "|^": 4224,
      "Ġ27": 4225,
      "Ġpopular": 4226,
      "Ġlegal": 4227,
      "itors": 4228,
      "rip": 4229,
      "Ġuseful": 4230,
      "Ġtask": 4231,
      "Ġrelevant": 4232,
      "illing": 4233,
      "Ġreleased": 4234,
      "Ġoverall": 4235,
      "Ġextract": 4236,
      "ATE": 4237,
      "Ġtransition": 4238,
      "Ġmetab": 4239,
      "Ġparticipants": 4240,
      "uge": 4241,
      "Ġbeaut": 4242,
      "Ġwasn": 4243,
      "Enumerable": 4244,
      "gu": 4245,
      "start": 4246,
      "Ġsympt": 4247,
      "Ġfiled": 4248,
      "Ġcapt": 4249,
      "Ġmaterials": 4250,
      "bionic": 4251,
      "Ġdark": 4252,
      "ster": 4253,
      "Ġ\\<": 4254,
      "ĠDNA": 4255,
      "Ġequal": 4256,
      "Ġsafety": 4257,
      "Ġsound": 4258,
      "Ġfederal": 4259,
      "Ġdraw": 4260,
      "State": 4261,
      "vention": 4262,
      "().": 4263,
      "enu": 4264,
      "ĠStud": 4265,
      "Ġclearly": 4266,
      "Ġdefinition": 4267,
      "ailed": 4268,
      "Ġfriends": 4269,
      "Ġbrief": 4270,
      "igen": 4271,
      "Ġestablished": 4272,
      "Ġ__": 4273,
      "item": 4274,
      "break": 4275,
      "uary": 4276,
      "Ġrestr": 4277,
      "unc": 4278,
      "Ġoption": 4279,
      "Ġoptical": 4280,
      "Ġsle": 4281,
      "Ġplease": 4282,
      "Ġinfe": 4283,
      "Ġliter": 4284,
      "Ġ]": 4285,
      "Ġtou": 4286,
      "Ġled": 4287,
      "Ġstd": 4288,
      "ocol": 4289,
      "Ġmanagement": 4290,
      "levision": 4291,
      "ĠWashington": 4292,
      "*~": 4293,
      "98": 4294,
      "orage": 4295,
      "Ġhit": 4296,
      "irth": 4297,
      "ĠSouth": 4298,
      "Ġalone": 4299,
      "Ġfields": 4300,
      "Ġcontains": 4301,
      "********************************": 4302,
      "Gamma": 4303,
      "Ġnature": 4304,
      "Ġdeep": 4305,
      "Ġrequires": 4306,
      "Ġcircum": 4307,
      "Ġmag": 4308,
      "Ġrecept": 4309,
      "Ġreplace": 4310,
      "Ġstage": 4311,
      "ĠGl": 4312,
      "Ġprefer": 4313,
      "Inst": 4314,
      "Ġintern": 4315,
      "Ġspeed": 4316,
      "From": 4317,
      "Ġfine": 4318,
      "arning": 4319,
      "Ġgave": 4320,
      "ĠSuppose": 4321,
      "izer": 4322,
      "Ġregions": 4323,
      "Ġheight": 4324,
      "Ġhearing": 4325,
      "Ġcomputer": 4326,
      "Ġfiber": 4327,
      "Ġlat": 4328,
      "Ġselected": 4329,
      "Sub": 4330,
      "Ġplaintiff": 4331,
      "Ġappropriate": 4332,
      "aneous": 4333,
      "}-": 4334,
      "ĠAustral": 4335,
      "ĠSep": 4336,
      "ifically": 4337,
      "cluded": 4338,
      "MO": 4339,
      "ening": 4340,
      "heck": 4341,
      "Ġpsy": 4342,
      "Ġcritical": 4343,
      "ham": 4344,
      "aly": 4345,
      "\"><": 4346,
      "Ġplayer": 4347,
      "Trans": 4348,
      "Ġcomponents": 4349,
      "De": 4350,
      "node": 4351,
      "Ġprop": 4352,
      "Ġstudent": 4353,
      "Le": 4354,
      "la": 4355,
      "Ġaw": 4356,
      "Ġweb": 4357,
      "================================": 4358,
      "xml": 4359,
      "ĠAug": 4360,
      "ulate": 4361,
      "rier": 4362,
      "Ġgives": 4363,
      "/>": 4364,
      "stream": 4365,
      "Ġliving": 4366,
      "Ġque": 4367,
      "ait": 4368,
      "Ġuint": 4369,
      "Ġsynt": 4370,
      "Ġserver": 4371,
      "EC": 4372,
      "Now": 4373,
      "Ġax": 4374,
      "Ġmys": 4375,
      "that": 4376,
      "Ġproduce": 4377,
      "Ġproduced": 4378,
      "Ġexperi": 4379,
      "Â°": 4380,
      "à¥": 4381,
      "Ġoptions": 4382,
      "94": 4383,
      "length": 4384,
      "semb": 4385,
      "Ġprot": 4386,
      "Ġequival": 4387,
      "ille": 4388,
      "ĠCons": 4389,
      "coming": 4390,
      "Ġscore": 4391,
      "fil": 4392,
      "Ġantib": 4393,
      ">,": 4394,
      "Ġeight": 4395,
      "ĠID": 4396,
      "ĠApril": 4397,
      "Ġtransport": 4398,
      "script": 4399,
      "ĠComp": 4400,
      "OM": 4401,
      "Ġmur": 4402,
      "Ġmorning": 4403,
      "ĠAfric": 4404,
      "Calculate": 4405,
      "iency": 4406,
      "Ġforeign": 4407,
      "Size": 4408,
      "rought": 4409,
      "quest": 4410,
      "dev": 4411,
      "poses": 4412,
      "Ġlooks": 4413,
      "change": 4414,
      "Ġprime": 4415,
      "Ġfeature": 4416,
      "cm": 4417,
      "fn": 4418,
      "yond": 4419,
      "Ġrepl": 4420,
      "Ġstated": 4421,
      "Ġinstit": 4422,
      "Ġmulti": 4423,
      "Code": 4424,
      "count": 4425,
      "known": 4426,
      "herm": 4427,
      "osing": 4428,
      "Ġlocation": 4429,
      "Ġreports": 4430,
      "Ġoperation": 4431,
      "ĠAND": 4432,
      "ĠPa": 4433,
      "anded": 4434,
      "Ġfast": 4435,
      "Ġpurch": 4436,
      "Ġpo": 4437,
      "ÂłÂł": 4438,
      "ĠVal": 4439,
      "Ġextrem": 4440,
      "GroupBy": 4441,
      "DR": 4442,
      "dim": 4443,
      "ees": 4444,
      "Ġ);": 4445,
      "room": 4446,
      "ibly": 4447,
      "Ġallowed": 4448,
      "ĠWhite": 4449,
      "oring": 4450,
      "Ġexperiments": 4451,
      "Ġreceive": 4452,
      "EG": 4453,
      "Ġstore": 4454,
      "pass": 4455,
      "plate": 4456,
      "Ġactual": 4457,
      "Ġequation": 4458,
      "Ġregarding": 4459,
      "ius": 4460,
      "asis": 4461,
      "ĠChar": 4462,
      "Ġlinear": 4463,
      "Ġlayer": 4464,
      "Ġreasons": 4465,
      "enses": 4466,
      "appro": 4467,
      "Ġreduce": 4468,
      "SH": 4469,
      "iring": 4470,
      "ldots": 4471,
      "icha": 4472,
      "Ġgoal": 4473,
      "pected": 4474,
      "Ġappears": 4475,
      "Ġwriting": 4476,
      "91": 4477,
      "Ġmac": 4478,
      "ĠSchool": 4479,
      "ockt": 4480,
      "Ġphen": 4481,
      "Ġmort": 4482,
      "obile": 4483,
      "iques": 4484,
      "Ġgoes": 4485,
      "apping": 4486,
      "ened": 4487,
      "anch": 4488,
      "ancy": 4489,
      "acity": 4490,
      "ĠThomas": 4491,
      "');": 4492,
      ")-": 4493,
      "500": 4494,
      "She": 4495,
      "Ġbinding": 4496,
      "Ġoil": 4497,
      "Ġpadding": 4498,
      "Ġsecret": 4499,
      "Ġinterpret": 4500,
      "Class": 4501,
      "Do": 4502,
      "Suppose": 4503,
      "Ġauthors": 4504,
      "rie": 4505,
      "Ġgets": 4506,
      "tember": 4507,
      "Ġproteins": 4508,
      "Ġincome": 4509,
      "}=\\": 4510,
      "Ġtree": 4511,
      "input": 4512,
      "Ġarrest": 4513,
      "Ġmode": 4514,
      "Ġdecided": 4515,
      "Ġvector": 4516,
      "Ġcouple": 4517,
      "Ġmechanism": 4518,
      "Ġeconomic": 4519,
      "Ġtim": 4520,
      "Ġbeyond": 4521,
      "Ġ/>": 4522,
      "gery": 4523,
      "Ġdetected": 4524,
      "Ġwebsite": 4525,
      "^[@": 4526,
      "ford": 4527,
      "Ġmer": 4528,
      "Ġstudio": 4529,
      "Ġacqu": 4530,
      "ĠDistrict": 4531,
      "Ġwave": 4532,
      "Ġparties": 4533,
      "Ġfeed": 4534,
      "Ġhimself": 4535,
      "Ġhar": 4536,
      "Ġinstance": 4537,
      "Ġleading": 4538,
      "Ġallows": 4539,
      "Ġinjury": 4540,
      "cell": 4541,
      "Ġhospital": 4542,
      "amin": 4543,
      "ressive": 4544,
      "Ġrap": 4545,
      "pd": 4546,
      "ĠSec": 4547,
      "Ġclub": 4548,
      "){#": 4549,
      "Ġengine": 4550,
      "bur": 4551,
      "ĠSy": 4552,
      "Ġdead": 4553,
      "Ġtumor": 4554,
      "Ġdro": 4555,
      "Ġdynam": 4556,
      "Ġnoted": 4557,
      "Ġeveryone": 4558,
      "cember": 4559,
      "oding": 4560,
      "Ġcoordin": 4561,
      "DP": 4562,
      "init": 4563,
      "iful": 4564,
      "Ġyes": 4565,
      "ĠMart": 4566,
      "Ġworked": 4567,
      "Ġlocated": 4568,
      "Ġsupported": 4569,
      "band": 4570,
      "Ġchanged": 4571,
      ".$": 4572,
      "Sec": 4573,
      "vis": 4574,
      "Ġorg": 4575,
      "Ġshoot": 4576,
      "Ġparts": 4577,
      "cules": 4578,
      ".*": 4579,
      "Ġà¤": 4580,
      "Ġ32": 4581,
      "Ġformation": 4582,
      "bin": 4583,
      "Ġ(\\": 4584,
      "ĠChina": 4585,
      "Ġfiles": 4586,
      "}_{\\": 4587,
      "ĠAN": 4588,
      "ocation": 4589,
      "Ġenjoy": 4590,
      "Ġinterview": 4591,
      "ico": 4592,
      "ociety": 4593,
      "Ġbab": 4594,
      "Ġbecomes": 4595,
      "Ġapplications": 4596,
      "Ġcompletely": 4597,
      "nes": 4598,
      "ooth": 4599,
      "rum": 4600,
      "Ġri": 4601,
      "Ġpull": 4602,
      "oted": 4603,
      "Ġproof": 4604,
      "Ġinfinity": 4605,
      "ĠTrans": 4606,
      "uz": 4607,
      "Ġstim": 4608,
      "Ġplatform": 4609,
      "Ġqual": 4610,
      "Ġsafe": 4611,
      "Ġsecurity": 4612,
      "PO": 4613,
      "Ġsmaller": 4614,
      "haps": 4615,
      "Ġmess": 4616,
      "PR": 4617,
      "mark": 4618,
      "inct": 4619,
      "Ġgun": 4620,
      "Ġ${{\\": 4621,
      "They": 4622,
      "Ġprice": 4623,
      "Ġprograms": 4624,
      "ĠCalifornia": 4625,
      "Ġtissue": 4626,
      "Count": 4627,
      "FA": 4628,
      "Ġaim": 4629,
      "Ġwrote": 4630,
      "ĠSm": 4631,
      "Ġleaders": 4632,
      "Ġitems": 4633,
      "orney": 4634,
      "odies": 4635,
      "ensions": 4636,
      "ovember": 4637,
      "Ġcalculated": 4638,
      "Ġconnected": 4639,
      "TP": 4640,
      "Ġeffic": 4641,
      "ĠSw": 4642,
      "apter": 4643,
      "Ġarch": 4644,
      "Ġformat": 4645,
      "Ġmice": 4646,
      "umin": 4647,
      "Ġsubsequ": 4648,
      "Ġexpressed": 4649,
      "Ġbasic": 4650,
      "Ġsummary": 4651,
      "ometry": 4652,
      "which": 4653,
      "Time": 4654,
      "ĠFl": 4655,
      "Ġcool": 4656,
      "reet": 4657,
      "Ġ($": 4658,
      "Ġdistributed": 4659,
      "Ġdie": 4660,
      "Ġnames": 4661,
      "Ġtests": 4662,
      "Ġchalleng": 4663,
      "ithub": 4664,
      "Ġ31": 4665,
      "Ġ2011": 4666,
      "Ġinsert": 4667,
      "(),": 4668,
      "Ġfair": 4669,
      "Ġbal": 4670,
      "Sc": 4671,
      "ader": 4672,
      "Ġseek": 4673,
      "Ġactivities": 4674,
      "iate": 4675,
      "xs": 4676,
      "Ġeq": 4677,
      "Ġles": 4678,
      "ĠGerm": 4679,
      "Ġconcentration": 4680,
      "Ġeyes": 4681,
      "Ġfresh": 4682,
      "icip": 4683,
      "oses": 4684,
      "Ġyourself": 4685,
      "Ġ2009": 4686,
      "Ġmatrix": 4687,
      "True": 4688,
      "EL": 4689,
      "enge": 4690,
      "Ġconstruction": 4691,
      "Ġbuilt": 4692,
      "Ġmeaning": 4693,
      "Ġstreng": 4694,
      "Ġcarry": 4695,
      "Ġculture": 4696,
      "ae": 4697,
      "Ġdog": 4698,
      "Ġ35": 4699,
      "Ġresulting": 4700,
      "Ġdistance": 4701,
      "Ġreflect": 4702,
      "Ġindicate": 4703,
      "attle": 4704,
      "._": 4705,
      "acters": 4706,
      "ini": 4707,
      "Ġseven": 4708,
      "Ġplayed": 4709,
      "Model": 4710,
      "fo": 4711,
      "langle": 4712,
      "Ġ00": 4713,
      "Ġpoor": 4714,
      "Ġfight": 4715,
      "Ġbillion": 4716,
      "otype": 4717,
      "ĠTex": 4718,
      "Ġscient": 4719,
      "Ġ90": 4720,
      "Ġbug": 4721,
      "ĠUSA": 4722,
      "~~": 4723,
      "Ġweak": 4724,
      "ĠMoreover": 4725,
      "Box": 4726,
      "Ð°": 4727,
      "istant": 4728,
      "opl": 4729,
      "Ġjury": 4730,
      "active": 4731,
      "Ġillust": 4732,
      "Big": 4733,
      "bra": 4734,
      "iet": 4735,
      "kg": 4736,
      "Ġdiss": 4737,
      "Ġsurvey": 4738,
      "Ġtesting": 4739,
      "brane": 4740,
      "Ġmajority": 4741,
      "Ġcycle": 4742,
      "encing": 4743,
      "ride": 4744,
      "Ġbul": 4745,
      "Ġhon": 4746,
      "Ġusers": 4747,
      "ensional": 4748,
      "dict": 4749,
      "Ġpen": 4750,
      "Ġassume": 4751,
      "Ġemail": 4752,
      "Ġgrav": 4753,
      "Ġice": 4754,
      "ĠWest": 4755,
      "ĠOf": 4756,
      "Ġexactly": 4757,
      "Ġmal": 4758,
      "Ġtown": 4759,
      "urance": 4760,
      "Ġstock": 4761,
      "ĠBrit": 4762,
      "anged": 4763,
      "Ġotherwise": 4764,
      "Ġtelevision": 4765,
      "EST": 4766,
      "Ġrevealed": 4767,
      "Event": 4768,
      "ka": 4769,
      "Ġrow": 4770,
      "Ġreaction": 4771,
      "osite": 4772,
      "Ġcomplic": 4773,
      "MI": 4774,
      "lish": 4775,
      "ĠObama": 4776,
      "ĠJanuary": 4777,
      "Sigma": 4778,
      "call": 4779,
      "ls": 4780,
      "Ġrules": 4781,
      "Ġphone": 4782,
      "SA": 4783,
      "^âĪĴ": 4784,
      "inst": 4785,
      "Ġconcept": 4786,
      "Ġscript": 4787,
      "Ġroad": 4788,
      "Ġthroughout": 4789,
      "rated": 4790,
      "ĠFrom": 4791,
      "Ġsomet": 4792,
      "ĠCenter": 4793,
      "*(": 4794,
      "cil": 4795,
      "ART": 4796,
      "gn": 4797,
      "iform": 4798,
      "ĠFeb": 4799,
      "Ġsets": 4800,
      "Ġcrim": 4801,
      "Ġadvant": 4802,
      "*-": 4803,
      "After": 4804,
      "Over": 4805,
      "Ġsold": 4806,
      "ĠAccording": 4807,
      "ĠData": 4808,
      "ĠGover": 4809,
      "ounced": 4810,
      "title": 4811,
      "Ġarri": 4812,
      "lick": 4813,
      "mor": 4814,
      "Ġwoman": 4815,
      "Ġones": 4816,
      "icted": 4817,
      "Ġopportunity": 4818,
      "Ġstream": 4819,
      "ĠBecause": 4820,
      "ube": 4821,
      "Ġcloud": 4822,
      "Ġinteresting": 4823,
      "DHC": 4824,
      "Ġband": 4825,
      "ications": 4826,
      "abs": 4827,
      "ĠPublic": 4828,
      "Ġdefine": 4829,
      "Ġrecords": 4830,
      "pective": 4831,
      "Ġstudios": 4832,
      "efore": 4833,
      "cap": 4834,
      "Ġsn": 4835,
      "Ġdoc": 4836,
      "Ġprobe": 4837,
      "Ġchrom": 4838,
      "Ġreduction": 4839,
      "Ġreasonable": 4840,
      "iance": 4841,
      "Ġwide": 4842,
      "Ġmount": 4843,
      "ĠTable": 4844,
      "iller": 4845,
      "duce": 4846,
      "######": 4847,
      "main": 4848,
      "Ġtherapy": 4849,
      "Ġplaying": 4850,
      "mega": 4851,
      "ĠIndian": 4852,
      ".\\": 4853,
      "Ġbrought": 4854,
      "Ġthous": 4855,
      "ĠTw": 4856,
      "======": 4857,
      "CG": 4858,
      "force": 4859,
      "ĠOctober": 4860,
      "gy": 4861,
      "rend": 4862,
      "ĠSeptember": 4863,
      "itis": 4864,
      "adem": 4865,
      "ĠHigh": 4866,
      "Ġconserv": 4867,
      "Ġgraph": 4868,
      "Ġindicated": 4869,
      "Array": 4870,
      "PD": 4871,
      "PP": 4872,
      "Ġoun": 4873,
      "Ġcore": 4874,
      "Ġaspect": 4875,
      "Ġprepar": 4876,
      "Ġconsistent": 4877,
      "Ġachieve": 4878,
      "Ġmachine": 4879,
      "Ġhous": 4880,
      "Ġmovies": 4881,
      "iot": 4882,
      "Ġ\"\"": 4883,
      "Ġobvious": 4884,
      "Ġsetting": 4885,
      "Ġskin": 4886,
      "post": 4887,
      "};": 4888,
      "Ġdu": 4889,
      "ctors": 4890,
      "ĠTra": 4891,
      "Ġbreast": 4892,
      "FL": 4893,
      "Ġfat": 4894,
      "ara": 4895,
      "otimes": 4896,
      "ĠMor": 4897,
      "--------------------": 4898,
      "ĠResearch": 4899,
      "cdot": 4900,
      "čĊĠĠ": 4901,
      "onic": 4902,
      "Ġcateg": 4903,
      "Ġnamed": 4904,
      "Ġlov": 4905,
      "Ġgal": 4906,
      "ĠBank": 4907,
      "ĠNovember": 4908,
      "Ġattention": 4909,
      "Ġturned": 4910,
      "atson": 4911,
      "arter": 4912,
      "olved": 4913,
      "ĠDecember": 4914,
      ".'": 4915,
      "Man": 4916,
      "Pl": 4917,
      "fort": 4918,
      "ky": 4919,
      "Ġbirth": 4920,
      "ĠAng": 4921,
      "ĠMal": 4922,
      "Ġremains": 4923,
      "ingly": 4924,
      "ĠMat": 4925,
      "Dis": 4926,
      "ĠĠĠĠĠĠĠĠĠĠĠĠĠĠĠĠĠĠĠĠĠĠĠĠĠĠĠĠĠĠĠĠĠĠĠĠĠĠĠĠĠĠĠĠĠĠĠĠĠĠĠĠĠĠĠĠĠĠĠĠĠĠĠĠĠĠĠĠĠĠĠĠĠĠĠĠĠĠĠĠĠĠĠĠĠĠĠĠĠĠĠĠĠĠĠĠĠĠĠĠĠĠĠĠĠĠĠĠĠĠĠĠĠĠĠĠĠĠĠĠĠĠĠĠĠĠĠĠ": 4927,
      "Ġmusic": 4928,
      "Build": 4929,
      "Ġcategory": 4930,
      "mmet": 4931,
      "ãĢ": 4932,
      "Ġmanner": 4933,
      "Ġparameter": 4934,
      "Ġmaximum": 4935,
      "Ġpul": 4936,
      "Ġexpos": 4937,
      "ĠGet": 4938,
      "Ġknew": 4939,
      "Ġinstr": 4940,
      "Ġderived": 4941,
      "Ġvolume": 4942,
      "Ġcharacters": 4943,
      "ĠTGenLookup": 4944,
      "ares": 4945,
      "ĠâĪĴ": 4946,
      "ĠLa": 4947,
      "Ġsymmet": 4948,
      "Ġsurpr": 4949,
      "stitute": 4950,
      "FS": 4951,
      "Ġswitch": 4952,
      "free": 4953,
      "Ġswe": 4954,
      "oura": 4955,
      "Ġanalys": 4956,
      "Ġworth": 4957,
      "Ġmoving": 4958,
      "Ġseparate": 4959,
      "Ġcomments": 4960,
      "github": 4961,
      "Ġlives": 4962,
      "Ġgreen": 4963,
      "ESS": 4964,
      "java": 4965,
      "Ġ:=": 4966,
      "Ġhappened": 4967,
      "Ġvirt": 4968,
      "Ġadministration": 4969,
      "Ġvictim": 4970,
      "PA": 4971,
      "rations": 4972,
      "Ġdefense": 4973,
      "Config": 4974,
      "Ġembod": 4975,
      "Out": 4976,
      "ĠCode": 4977,
      "ifest": 4978,
      "Ġremember": 4979,
      "Ġboard": 4980,
      "Ġfully": 4981,
      "dot": 4982,
      "Ġdra": 4983,
      "icit": 4984,
      "enty": 4985,
      "ersion": 4986,
      "Ġhealthy": 4987,
      "ĠIL": 4988,
      "Ġheard": 4989,
      "Ġresistance": 4990,
      "ĠInter": 4991,
      "Ġscen": 4992,
      "Ġ2007": 4993,
      "Ġenter": 4994,
      "adow": 4995,
      "Ġexerc": 4996,
      "Ġobjects": 4997,
      "Supp": 4998,
      "WR": 4999,
      "bul": 5000,
      "Ġfather": 5001,
      "pty": 5002,
      "Ġprocedure": 5003,
      "Ġer": 5004,
      "Ġrank": 5005,
      "Ġmaybe": 5006,
      "Ġcolumn": 5007,
      "ĠSection": 5008,
      ")).": 5009,
      "Ġcivil": 5010,
      "Ġphosph": 5011,
      "Here": 5012,
      "Ġwonder": 5013,
      "jection": 5014,
      "Ġdatabase": 5015,
      "pling": 5016,
      "Ġremoved": 5017,
      "Ġinn": 5018,
      "lication": 5019,
      "());": 5020,
      "Ġoperator": 5021,
      "Ġcrime": 5022,
      "Ġcounter": 5023,
      "92": 5024,
      "Ġstru": 5025,
      "cons": 5026,
      "Ġready": 5027,
      "TI": 5028,
      "you": 5029,
      "Ġpow": 5030,
      "rael": 5031,
      "abled": 5032,
      "Ġuses": 5033,
      ".$$": 5034,
      "Me": 5035,
      "mail": 5036,
      "athe": 5037,
      "&\\": 5038,
      "NS": 5039,
      "itness": 5040,
      "Ġtowards": 5041,
      "ĠIP": 5042,
      "Ġprove": 5043,
      "Ġshape": 5044,
      "']": 5045,
      "Ġcook": 5046,
      "Ġsevere": 5047,
      "User": 5048,
      "lam": 5049,
      "Ġreach": 5050,
      "Ġstarting": 5051,
      "Ġelectr": 5052,
      "Address": 5053,
      "ãĥ": 5054,
      "Ġsend": 5055,
      "Ġnor": 5056,
      "ĠCG": 5057,
      "Ġchance": 5058,
      "Ġ2008": 5059,
      "Ġadjust": 5060,
      "hi": 5061,
      "otal": 5062,
      "Ġlearning": 5063,
      "ĠAugust": 5064,
      "Ġproviding": 5065,
      "Ġcatal": 5066,
      "ĠPre": 5067,
      "ĠRec": 5068,
      "Ġslight": 5069,
      "Ġ;": 5070,
      "Ġult": 5071,
      "Ġhappy": 5072,
      "^+^": 5073,
      "ÑĤ": 5074,
      "Ġmg": 5075,
      "Ġstuff": 5076,
      "Ġconsequ": 5077,
      "ĠEven": 5078,
      "ĠCongress": 5079,
      "Rec": 5080,
      "iem": 5081,
      "ĠFound": 5082,
      "upreme": 5083,
      "Ġfacts": 5084,
      "Ġhands": 5085,
      "Ġcareer": 5086,
      "check": 5087,
      "Ġaware": 5088,
      "Ġthrow": 5089,
      "Ġlabor": 5090,
      "Ġremove": 5091,
      "Ġdrugs": 5092,
      "pol": 5093,
      "Ġbottom": 5094,
      "Ġrelatively": 5095,
      "Ġabsol": 5096,
      "ĠAssoci": 5097,
      "Ġpanel": 5098,
      "frame": 5099,
      "Ġcircumst": 5100,
      "Ġcontrast": 5101,
      "Ġscience": 5102,
      "Ġ80": 5103,
      "model": 5104,
      "subset": 5105,
      "eria": 5106,
      "Ġhear": 5107,
      "ventional": 5108,
      "ifying": 5109,
      "Ġmilitary": 5110,
      "Ġsymptoms": 5111,
      "uint": 5112,
      "ĊĊĠĠĠĠĠĠĠĠĠĠĠ": 5113,
      "Ġign": 5114,
      "itro": 5115,
      "ĠCON": 5116,
      "ĠDirect": 5117,
      "Ġmeeting": 5118,
      "Ġquickly": 5119,
      "Ġimmediately": 5120,
      "[^": 5121,
      "^*": 5122,
      "ils": 5123,
      "iday": 5124,
      "0001": 5125,
      "Ġshot": 5126,
      "Ġpaid": 5127,
      "hermox": 5128,
      "Ġsometimes": 5129,
      "Ġyield": 5130,
      "ĠEl": 5131,
      "\\],": 5132,
      "Ġrespond": 5133,
      "Ġcharacteristics": 5134,
      "Ġportion": 5135,
      "Ġestablish": 5136,
      "sembly": 5137,
      "can": 5138,
      "{{": 5139,
      "Ġded": 5140,
      "Ġ\\,": 5141,
      "Ġ{{\\": 5142,
      "]\\],": 5143,
      "Ġhandle": 5144,
      "Ġsuggested": 5145,
      "ichael": 5146,
      "material": 5147,
      "Ġ(!": 5148,
      "amd": 5149,
      "Ġreading": 5150,
      "Ġvehicle": 5151,
      "BI": 5152,
      "ĠRule": 5153,
      "Ġshift": 5154,
      "Ġstraight": 5155,
      "BO": 5156,
      "\\*": 5157,
      "},\\": 5158,
      "Ġuns": 5159,
      "Ġampl": 5160,
      "Ġcollect": 5161,
      "undred": 5162,
      "Ġsolid": 5163,
      "Ġtag": 5164,
      "Ġpeak": 5165,
      "Ġelectro": 5166,
      "Ġneighbor": 5167,
      "Ġinternational": 5168,
      "Pre": 5169,
      "]:": 5170,
      "lib": 5171,
      "ris": 5172,
      "Ġnearly": 5173,
      "ackson": 5174,
      "going": 5175,
      "Ġunderstanding": 5176,
      "Ġkin": 5177,
      "PL": 5178,
      "TH": 5179,
      "Ġgradu": 5180,
      "Ġdebt": 5181,
      "Ġsleep": 5182,
      "Ġsen": 5183,
      "unk": 5184,
      "Ġlaws": 5185,
      "Ġmoved": 5186,
      "Ġcomparison": 5187,
      "Ġensure": 5188,
      "TER": 5189,
      "ĠSan": 5190,
      "Ġsuccessful": 5191,
      "Ġtalking": 5192,
      "lamm": 5193,
      "Ġwife": 5194,
      "eloc": 5195,
      "Ġlabel": 5196,
      "Ġexists": 5197,
      "Ġdemonstrated": 5198,
      "BA": 5199,
      "TGen": 5200,
      "buntu": 5201,
      "Ġbed": 5202,
      "aran": 5203,
      "Ġmiddle": 5204,
      "Ġ45": 5205,
      "ruit": 5206,
      "create": 5207,
      "Ġsurgery": 5208,
      "Ġsusp": 5209,
      "ĠSub": 5210,
      "ĠInst": 5211,
      "Ġcommerc": 5212,
      "Map": 5213,
      "ktop": 5214,
      "local": 5215,
      "Ã³": 5216,
      "aste": 5217,
      "imony": 5218,
      "ĠTest": 5219,
      "lywood": 5220,
      "duc": 5221,
      "Ġrace": 5222,
      "ondon": 5223,
      "usepackage": 5224,
      "Ġsexual": 5225,
      "Ġson": 5226,
      "Ġpal": 5227,
      "anta": 5228,
      "Ġrul": 5229,
      "ĠNULL": 5230,
      "Ġcounsel": 5231,
      "eles": 5232,
      "Ġprem": 5233,
      "Ġgiving": 5234,
      "Ab": 5235,
      "[]": 5236,
      "asic": 5237,
      "uted": 5238,
      "ĠIll": 5239,
      "Ġfunctional": 5240,
      "Ġvisit": 5241,
      "Omega": 5242,
      "cin": 5243,
      "py": 5244,
      "ĠAtt": 5245,
      "roller": 5246,
      "FP": 5247,
      "Ġdaily": 5248,
      "ida": 5249,
      "ĠBro": 5250,
      "Ġjoint": 5251,
      "avel": 5252,
      "Ġapparent": 5253,
      "endant": 5254,
      "ATION": 5255,
      "ĠCommission": 5256,
      "Ġchoose": 5257,
      "page": 5258,
      "ĠMark": 5259,
      "Ġrelig": 5260,
      "ĊĠĠĠĠĠĠĠĠĠĠĠĠĠĠĠĠĠĠĠĠĠĠĠĠĠĠĠ": 5261,
      "Ġanimals": 5262,
      "CE": 5263,
      "Ġthread": 5264,
      "ĠEast": 5265,
      "Ġimproved": 5266,
      "Ġbool": 5267,
      "Ġkids": 5268,
      "Format": 5269,
      "Ġmyself": 5270,
      "igration": 5271,
      "ĠKing": 5272,
      "Ġupd": 5273,
      "Ġtrade": 5274,
      "Ġfigure": 5275,
      "Ġwarr": 5276,
      "ffice": 5277,
      "Ġformed": 5278,
      "Ġ2003": 5279,
      "Ġelectron": 5280,
      "ln": 5281,
      "well": 5282,
      "xy": 5283,
      "Ġaward": 5284,
      "atever": 5285,
      "Ġunc": 5286,
      "Ġliqu": 5287,
      "Ġnovel": 5288,
      "ĠCommun": 5289,
      "Ġmeasures": 5290,
      "Ġdiagnosis": 5291,
      "Ġcluster": 5292,
      "Ġchannel": 5293,
      "HT": 5294,
      "atically": 5295,
      "ĠMod": 5296,
      "RL": 5297,
      "ica": 5298,
      "Ġtoward": 5299,
      "acing": 5300,
      "Ġlooked": 5301,
      "Ġ37": 5302,
      "Ġappellant": 5303,
      "ITY": 5304,
      "Ġstructures": 5305,
      "_-": 5306,
      "det": 5307,
      "Ġborder": 5308,
      "Ġsup": 5309,
      "Ġhair": 5310,
      "Ġcarried": 5311,
      "Ġmissing": 5312,
      "DS": 5313,
      "Why": 5314,
      "cence": 5315,
      "Ġonto": 5316,
      "pload": 5317,
      "Ġsubstr": 5318,
      "Ġincreases": 5319,
      "Ġanalyzed": 5320,
      "icial": 5321,
      "roy": 5322,
      "003": 5323,
      "Ġdismiss": 5324,
      "dered": 5325,
      "Ġbenefit": 5326,
      "Ġinfluence": 5327,
      "Ð¸": 5328,
      "ĠSE": 5329,
      "ĠRE": 5330,
      "izations": 5331,
      "Ġagents": 5332,
      "Ġfilter": 5333,
      "Ġexisting": 5334,
      "Ġeye": 5335,
      "stein": 5336,
      "frak": 5337,
      "Ġmentioned": 5338,
      "/**": 5339,
      "gt": 5340,
      "Ġinduced": 5341,
      "ĠMus": 5342,
      "aught": 5343,
      "Ġblog": 5344,
      "ĠRev": 5345,
      "Ġconfirmed": 5346,
      "ĠSuper": 5347,
      "QL": 5348,
      "})$": 5349,
      "aters": 5350,
      "orter": 5351,
      "Ġreli": 5352,
      "ĠPost": 5353,
      "Ġevolution": 5354,
      "ĠAlso": 5355,
      "Ġedge": 5356,
      "color": 5357,
      "While": 5358,
      "Ġbeautiful": 5359,
      "ĠMo": 5360,
      "Ġplas": 5361,
      "Ġ:)": 5362,
      "Ġserved": 5363,
      "Ġpackage": 5364,
      "eed": 5365,
      "orb": 5366,
      "Ġcontinuous": 5367,
      "Ġparents": 5368,
      "oom": 5369,
      "Ġok": 5370,
      "asion": 5371,
      "Ġconducted": 5372,
      "Ġchallenge": 5373,
      "ĠDavid": 5374,
      "ĠInternational": 5375,
      "ĠFord": 5376,
      "Ġcriminal": 5377,
      "Ġsell": 5378,
      "Ġbud": 5379,
      "Ġconc": 5380,
      "ĠField": 5381,
      "ruary": 5382,
      "Ġdiscussed": 5383,
      "nonumber": 5384,
      "bottom": 5385,
      "Ġrac": 5386,
      "ilies": 5387,
      "Ġarrange": 5388,
      "Ġemot": 5389,
      "Ġalgorithm": 5390,
      "CM": 5391,
      "TO": 5392,
      "ita": 5393,
      "ĠSP": 5394,
      "ĠPark": 5395,
      "Ġexhib": 5396,
      "Ġcommand": 5397,
      "Ġincor": 5398,
      "phone": 5399,
      "ĠStreet": 5400,
      "128": 5401,
      "Ġbuffer": 5402,
      "appa": 5403,
      "Ġexplained": 5404,
      "Ġcombination": 5405,
      "cr": 5406,
      "ĠSupreme": 5407,
      "RI": 5408,
      "ä¸": 5409,
      "Ġearn": 5410,
      "open": 5411,
      "Ġcycl": 5412,
      "Ġlegis": 5413,
      "/(": 5414,
      "mar": 5415,
      "Ġfelt": 5416,
      "othe": 5417,
      "ria": 5418,
      "Ġagent": 5419,
      "Ġmedium": 5420,
      "ĠIsrael": 5421,
      "ĠBlack": 5422,
      "ĠÎ¼": 5423,
      "Ġbright": 5424,
      "Ġnice": 5425,
      "uty": 5426,
      "ights": 5427,
      "Ġcapital": 5428,
      "Ġfemale": 5429,
      "ĠEuropean": 5430,
      "ĠJudge": 5431,
      "Well": 5432,
      "war": 5433,
      "igation": 5434,
      "ĠSupp": 5435,
      "thon": 5436,
      "psi": 5437,
      "Ġvariety": 5438,
      "Ġoperations": 5439,
      "Ġtechniques": 5440,
      "Ġtypically": 5441,
      "Ġresponsible": 5442,
      "Ġapproximately": 5443,
      "Default": 5444,
      "core": 5445,
      "uing": 5446,
      "Ġproport": 5447,
      "ignment": 5448,
      "ĠStand": 5449,
      "Ġroot": 5450,
      "Ġrare": 5451,
      "content": 5452,
      "Ġtouch": 5453,
      "Aut": 5454,
      "GE": 5455,
      "jw": 5456,
      "opic": 5457,
      "Ġplate": 5458,
      "Ġplaced": 5459,
      "Ġ<-": 5460,
      "Fr": 5461,
      "RR": 5462,
      "Ġbond": 5463,
      "Ġ(**": 5464,
      "ĠDet": 5465,
      "Ġspecifically": 5466,
      "Ġmovement": 5467,
      "Ġbenefits": 5468,
      "Ġnation": 5469,
      "Ġalge": 5470,
      "ĠOh": 5471,
      "ALL": 5472,
      "ĠBoard": 5473,
      "Oh": 5474,
      "flow": 5475,
      "ipe": 5476,
      "Ġâ": 5477,
      "ĠSur": 5478,
      "Ġvo": 5479,
      "query": 5480,
      "Ġthanks": 5481,
      "Ġtravel": 5482,
      "allel": 5483,
      "hol": 5484,
      "tree": 5485,
      "ĠSet": 5486,
      "Ġblue": 5487,
      "Ġguid": 5488,
      "Ġideal": 5489,
      "Ġalleged": 5490,
      "Ġplant": 5491,
      "Ġ2006": 5492,
      "IPv": 5493,
      "Ġofficials": 5494,
      "kit": 5495,
      "ya": 5496,
      "erial": 5497,
      "Ġmill": 5498,
      "ĠTH": 5499,
      "Ġupper": 5500,
      "ellig": 5501,
      "Ġthinking": 5502,
      "Ġstatist": 5503,
      "idden": 5504,
      "Ġdamage": 5505,
      "Ġagreed": 5506,
      "olds": 5507,
      "Ġcharged": 5508,
      "\\[[@": 5509,
      "False": 5510,
      "IO": 5511,
      "Ġcop": 5512,
      "Ġfa": 5513,
      "ĠOther": 5514,
      "Ġtele": 5515,
      "Ġsecondary": 5516,
      "Ġpurposes": 5517,
      "Ġsuggests": 5518,
      "small": 5519,
      "Ġprepared": 5520,
      "*]{}": 5521,
      "Ġhundred": 5522,
      "Ġreject": 5523,
      "ĠTime": 5524,
      "Ġsto": 5525,
      "Ġcollected": 5526,
      "Ġabsence": 5527,
      "omb": 5528,
      "ifier": 5529,
      "Ġvac": 5530,
      "rome": 5531,
      "Ġcompr": 5532,
      "ario": 5533,
      "Ġguess": 5534,
      "Ġstatute": 5535,
      "Ġorigin": 5536,
      "Ġalternative": 5537,
      "Script": 5538,
      "iant": 5539,
      "oto": 5540,
      "ĠDel": 5541,
      "config": 5542,
      "ariant": 5543,
      "operator": 5544,
      "Ġstrength": 5545,
      ":\\": 5546,
      "PC": 5547,
      "Sim": 5548,
      "hand": 5549,
      "ĠCoun": 5550,
      "ĠDon": 5551,
      "Ġdiet": 5552,
      "Ġcontinued": 5553,
      "Ċĉĉĉĉĉĉĉĉ": 5554,
      "Ġpackageset": 5555,
      "itivity": 5556,
      "ĠAc": 5557,
      "Ġforms": 5558,
      "ĠNews": 5559,
      "Ġloop": 5560,
      "Enumerator": 5561,
      "ato": 5562,
      "Ġcockt": 5563,
      "olar": 5564,
      "rab": 5565,
      "Ġdetection": 5566,
      "Ġestimated": 5567,
      "Act": 5568,
      "Ġwindow": 5569,
      "Ġplaces": 5570,
      "Ġtrig": 5571,
      "Ġspir": 5572,
      "Ġfinally": 5573,
      "ĠIndia": 5574,
      "Ġorganization": 5575,
      "Ġcircuit": 5576,
      "Ġcert": 5577,
      "Ġpool": 5578,
      "Ġcoverage": 5579,
      "Ġpsych": 5580,
      "Ġextremely": 5581,
      "';": 5582,
      "Ġcit": 5583,
      "Ġwire": 5584,
      "ingu": 5585,
      "ĠMA": 5586,
      "Ġcreating": 5587,
      "Ġcauses": 5588,
      "Ġremaining": 5589,
      "Ġchemical": 5590,
      "Ġcast": 5591,
      "racy": 5592,
      "Ġexpert": 5593,
      "anned": 5594,
      "specific": 5595,
      "ĠSuch": 5596,
      "ĠLaw": 5597,
      "}}{": 5598,
      "Ġwhereas": 5599,
      "Ġguy": 5600,
      "Ġsummer": 5601,
      "ĠFigure": 5602,
      "ĠHollywood": 5603,
      "Ġmetabol": 5604,
      "ĠTexas": 5605,
      "Ġselection": 5606,
      "rypt": 5607,
      "Ġtransl": 5608,
      "Ġ95": 5609,
      "Ġinteger": 5610,
      "Ġemployees": 5611,
      "tri": 5612,
      "à¸": 5613,
      "ename": 5614,
      "Ġcold": 5615,
      "Ġhop": 5616,
      "Ġlibrary": 5617,
      "Ġtruth": 5618,
      "Ġsyn": 5619,
      "rench": 5620,
      "Ġconfirm": 5621,
      "ĠTwo": 5622,
      "**(-": 5623,
      "Ġ36": 5624,
      "ĠUK": 5625,
      "berg": 5626,
      "Ġwouldn": 5627,
      "Ġ70": 5628,
      "......": 5629,
      "ĠĠĠĠĠĠĠĠĠĠĠĠĠĠĠĠĠĠĠ": 5630,
      "Ġprocessing": 5631,
      "Ġappeared": 5632,
      "ync": 5633,
      "Ġspectrum": 5634,
      "aughter": 5635,
      "Ġinfection": 5636,
      "rees": 5637,
      "ouble": 5638,
      "AND": 5639,
      "Ġdelay": 5640,
      "ographic": 5641,
      "board": 5642,
      "/-": 5643,
      "mand": 5644,
      "Ġeth": 5645,
      "ĠAut": 5646,
      "Ġregul": 5647,
      ">(": 5648,
      "parent": 5649,
      "run": 5650,
      "tings": 5651,
      "Ġlock": 5652,
      "sole": 5653,
      "Ġminimum": 5654,
      "jwatson": 5655,
      "Mult": 5656,
      "bol": 5657,
      "van": 5658,
      "ÃŃ": 5659,
      "ĠAR": 5660,
      "Ġveloc": 5661,
      "resents": 5662,
      "Ġju": 5663,
      "ĠJew": 5664,
      "Ġgeneration": 5665,
      "Ġwants": 5666,
      "Ġcontained": 5667,
      "SU": 5668,
      "Yes": 5669,
      "ca": 5670,
      "asp": 5671,
      "Ġelection": 5672,
      "Ġcollection": 5673,
      "olean": 5674,
      "Ġoptim": 5675,
      "Ġleads": 5676,
      "Ass": 5677,
      "cher": 5678,
      "Ġpil": 5679,
      "ĠCalculate": 5680,
      "Ġoutcome": 5681,
      "Ġdistinct": 5682,
      "Ġmotor": 5683,
      "Ġprofessional": 5684,
      "\"/>": 5685,
      "Fil": 5686,
      "cs": 5687,
      "ech": 5688,
      "rd": 5689,
      "reate": 5690,
      "Ġinequ": 5691,
      "Ġcalls": 5692,
      "Ġobservations": 5693,
      "Ext": 5694,
      "TE": 5695,
      "ï¼": 5696,
      "Ġ((": 5697,
      "ĠEach": 5698,
      "Ġinterface": 5699,
      "ĠYour": 5700,
      "Ġhistor": 5701,
      "Ġcircumstances": 5702,
      "Card": 5703,
      "atin": 5704,
      "Ġstrain": 5705,
      "ĠJe": 5706,
      "Ġinteraction": 5707,
      "Ġroll": 5708,
      "Ġtested": 5709,
      "Ġassociation": 5710,
      "':": 5711,
      "document": 5712,
      "soft": 5713,
      "raint": 5714,
      "Ġconj": 5715,
      "**]{}": 5716,
      "ĠFIG": 5717,
      "Ġresources": 5718,
      "Ġkilled": 5719,
      "Ġspread": 5720,
      "valid": 5721,
      "Ġexposure": 5722,
      "Message": 5723,
      "inger": 5724,
      "ĠAdd": 5725,
      "Ġtestimony": 5726,
      "\"},": 5727,
      "First": 5728,
      "gar": 5729,
      "tra": 5730,
      "ener": 5731,
      "Ġdream": 5732,
      "Ġhuge": 5733,
      "ĠHer": 5734,
      "Ġworkers": 5735,
      "Ġprogress": 5736,
      "Ġcorrelation": 5737,
      "Ġrapid": 5738,
      "SI": 5739,
      "Ġserve": 5740,
      "Ġprocesses": 5741,
      "Ġresearc": 5742,
      "Ġcyt": 5743,
      "Our": 5744,
      "otes": 5745,
      "005": 5746,
      "Ġ48": 5747,
      "Ġuniform": 5748,
      "Ġupdate": 5749,
      "object": 5750,
      "Ġdigital": 5751,
      "Ġwarrant": 5752,
      "bug": 5753,
      "Ġsales": 5754,
      "Ġhour": 5755,
      "Ġrepro": 5756,
      "ado": 5757,
      "ĠNOT": 5758,
      "Ġadapt": 5759,
      "Ġcapacity": 5760,
      "Ġdomain": 5761,
      "MM": 5762,
      "vest": 5763,
      "Ġcir": 5764,
      "Ġpark": 5765,
      "Ġbill": 5766,
      "Ġanimal": 5767,
      "ĠAnt": 5768,
      "ago": 5769,
      "Ġadopt": 5770,
      "ears": 5771,
      "Ġpassed": 5772,
      "Ġholding": 5773,
      "ĠIII": 5774,
      "Ġvote": 5775,
      "olden": 5776,
      "###": 5777,
      "Ġcorpor": 5778,
      "Ġelectric": 5779,
      "%,": 5780,
      "Ġactions": 5781,
      "orry": 5782,
      "Ġnil": 5783,
      "ĠIran": 5784,
      "Ġ2000": 5785,
      "universe": 5786,
      "ferent": 5787,
      "Ġstudied": 5788,
      "Ġwait": 5789,
      "dots": 5790,
      "hs": 5791,
      "pad": 5792,
      "Î²": 5793,
      "inate": 5794,
      "image": 5795,
      "irt": 5796,
      "assert": 5797,
      "ĠJames": 5798,
      "Ġarm": 5799,
      "Ġspeak": 5800,
      "ĠÃĹ": 5801,
      "Ġstrategy": 5802,
      "Ġpicture": 5803,
      "Ġcamera": 5804,
      "case": 5805,
      "Ġcru": 5806,
      "omorph": 5807,
      "anges": 5808,
      "}}(": 5809,
      "Ġgrowing": 5810,
      "db": 5811,
      "uman": 5812,
      "asek": 5813,
      "([": 5814,
      "IF": 5815,
      "MT": 5816,
      "orge": 5817,
      "Ġadding": 5818,
      "Ġreturned": 5819,
      "ĠJapanese": 5820,
      "iers": 5821,
      "Ġintent": 5822,
      "Ġfeeling": 5823,
      "Ġconcentrations": 5824,
      "Ġliterature": 5825,
      "how": 5826,
      "Ġdanger": 5827,
      "xture": 5828,
      "Ġsmooth": 5829,
      "Ġsteps": 5830,
      "itz": 5831,
      "ogene": 5832,
      "Ġcommunication": 5833,
      "Ġscheme": 5834,
      "Co": 5835,
      "ivery": 5836,
      "Ġnorm": 5837,
      "Ġefficient": 5838,
      "ptions": 5839,
      "Ġdespite": 5840,
      "Ġmorph": 5841,
      "/\\": 5842,
      "Ġmist": 5843,
      "Ġquery": 5844,
      "ABLE": 5845,
      "ĠFebruary": 5846,
      "Current": 5847,
      "pg": 5848,
      "pir": 5849,
      "yr": 5850,
      "style": 5851,
      "urt": 5852,
      "Ġrepresents": 5853,
      "Ġsequences": 5854,
      "Ġgirls": 5855,
      "ĠFoundation": 5856,
      ">>": 5857,
      "kappa": 5858,
      "Ġil": 5859,
      "Ġdrop": 5860,
      "ilarly": 5861,
      "ĠRel": 5862,
      "ells": 5863,
      "Ġclient": 5864,
      "Ġintended": 5865,
      "Ġthank": 5866,
      "cluding": 5867,
      "Ġowners": 5868,
      "secut": 5869,
      "stitution": 5870,
      "ĠAustralia": 5871,
      "Ġadvantage": 5872,
      "101": 5873,
      "End": 5874,
      "lo": 5875,
      "pb": 5876,
      "what": 5877,
      "reshold": 5878,
      "ĠKe": 5879,
      "Ġminor": 5880,
      "Ġconflic": 5881,
      "Ġdiscussion": 5882,
      "Ref": 5883,
      "pa": 5884,
      "Ġtend": 5885,
      "Ġconven": 5886,
      "ĠPR": 5887,
      "**]{},": 5888,
      "endment": 5889,
      "process": 5890,
      ")*(": 5891,
      "Ġadministr": 5892,
      "Ġcommercial": 5893,
      "level": 5894,
      "Ġtechnique": 5895,
      "opyright": 5896,
      "Ġbeginning": 5897,
      ")=\\": 5898,
      "Ġeat": 5899,
      "tex": 5900,
      "ĠRos": 5901,
      "ocket": 5902,
      "Ġsurround": 5903,
      "ĠFurthermore": 5904,
      "='": 5905,
      "Can": 5906,
      "zon": 5907,
      "isher": 5908,
      "Ġoffered": 5909,
      "Ġreached": 5910,
      "stract": 5911,
      "omial": 5912,
      "Ġlicense": 5913,
      "result": 5914,
      "Ġunits": 5915,
      "Ġpolic": 5916,
      "Ġfamilies": 5917,
      "SC": 5918,
      "YP": 5919,
      "dem": 5920,
      "Ġexcess": 5921,
      "Ġmanager": 5922,
      "Ġapproved": 5923,
      "Ġcertainly": 5924,
      ",_": 5925,
      "ql": 5926,
      "ĠAL": 5927,
      "ĠĠĠĠĠĠĠĠĠĠĠĠĠĠĠĠĠ": 5928,
      "Ġformula": 5929,
      "Ġkept": 5930,
      "Ġprojects": 5931,
      "Ġdecreased": 5932,
      "Equ": 5933,
      "Ġhab": 5934,
      "ĠSN": 5935,
      "Ġstable": 5936,
      "Ġunf": 5937,
      "ernel": 5938,
      "VER": 5939,
      "lif": 5940,
      "Ġdoll": 5941,
      "icated": 5942,
      "aser": 5943,
      "Ġlab": 5944,
      "ĠTV": 5945,
      "ĠAD": 5946,
      "ĠDan": 5947,
      "server": 5948,
      "Per": 5949,
      "Ġpetition": 5950,
      "Ġmale": 5951,
      "osc": 5952,
      "***": 5953,
      "ector": 5954,
      "Ġ2020": 5955,
      "Ġinvestigation": 5956,
      "first": 5957,
      "})\\": 5958,
      "real": 5959,
      "Ġcatch": 5960,
      "Ġdied": 5961,
      "Ġcardi": 5962,
      "Line": 5963,
      "Number": 5964,
      "mic": 5965,
      "za": 5966,
      "}+": 5967,
      "edy": 5968,
      "ĠCirc": 5969,
      "operatorname": 5970,
      "(&": 5971,
      "md": 5972,
      "istered": 5973,
      "Ġnone": 5974,
      "img": 5975,
      "riage": 5976,
      "Ġ33": 5977,
      "Ġ34": 5978,
      "angasek": 5979,
      "Ġdocuments": 5980,
      "mas": 5981,
      "Ġpy": 5982,
      "Ġclick": 5983,
      "ponent": 5984,
      "Ġcharges": 5985,
      "mem": 5986,
      "Ġtour": 5987,
      "icity": 5988,
      "ett": 5989,
      "ĠBen": 5990,
      "ĠEm": 5991,
      "Ġmonitor": 5992,
      "Ġletter": 5993,
      "Ġlinks": 5994,
      "ometric": 5995,
      "Ġsurvival": 5996,
      "Ġrise": 5997,
      "Info": 5998,
      "Ġcompleted": 5999,
      "Ġprotected": 6000,
      "Ġassuming": 6001,
      "event": 6002,
      "Ġwitness": 6003,
      "Ġdat": 6004,
      "Ġadult": 6005,
      "ansion": 6006,
      "Ġsave": 6007,
      "Ġentered": 6008,
      "Ġevaluated": 6009,
      "itely": 6010,
      "Ġconvert": 6011,
      "erved": 6012,
      "Ġraised": 6013,
      "Ġruns": 6014,
      "ASS": 6015,
      "Ġcombined": 6016,
      "allowbreak": 6017,
      "ĠMost": 6018,
      "rient": 6019,
      "ĠNon": 6020,
      "ĠEv": 6021,
      "ĠâĢ¦": 6022,
      "Ġcoe": 6023,
      "Ġmodule": 6024,
      "Ġentry": 6025,
      "Ġlargest": 6026,
      "Ġoperating": 6027,
      "true": 6028,
      "sky": 6029,
      "CF": 6030,
      "token": 6031,
      "ĠCa": 6032,
      "00000": 6033,
      "ĠList": 6034,
      "Ġagency": 6035,
      "INT": 6036,
      "Ġdescribe": 6037,
      "Ġmeasurements": 6038,
      "Ġing": 6039,
      "edge": 6040,
      "Ġdry": 6041,
      "Ġ2002": 6042,
      "Ġopening": 6043,
      "Ġbrand": 6044,
      "Ġmagnetic": 6045,
      "Ġcryst": 6046,
      "Ġequivalent": 6047,
      ".](": 6048,
      "car": 6049,
      "lee": 6050,
      "Ġconventional": 6051,
      "Ġrout": 6052,
      "ĠLondon": 6053,
      "Ġchain": 6054,
      "Ġunless": 6055,
      "Ġcollege": 6056,
      "Ġgenerate": 6057,
      "Ġproperly": 6058,
      "Ġefforts": 6059,
      ".</": 6060,
      "bi": 6061,
      "inn": 6062,
      "Ġwild": 6063,
      "Ġpush": 6064,
      "iled": 6065,
      "erset": 6066,
      "tyle": 6067,
      "Ġsymb": 6068,
      "Ġ/**": 6069,
      "Ġencoura": 6070,
      "sin": 6071,
      "Ġsan": 6072,
      "Ġlip": 6073,
      "weight": 6074,
      "Ġtraditional": 6075,
      "Ġtrials": 6076,
      "Ġguys": 6077,
      "Ġschools": 6078,
      "Ġrequirements": 6079,
      "Log": 6080,
      "vate": 6081,
      "itled": 6082,
      "ascular": 6083,
      "ĠOpen": 6084,
      "Ġ2005": 6085,
      "Ġpopulations": 6086,
      "Ġresponses": 6087,
      "Ġton": 6088,
      "Ġsrc": 6089,
      "Ġtypical": 6090,
      "Ġaffected": 6091,
      "Ġpatterns": 6092,
      "Ġjoined": 6093,
      "Ġpiece": 6094,
      "house": 6095,
      "iny": 6096,
      "ĠpH": 6097,
      "ipment": 6098,
      "Ġcandidate": 6099,
      "Ġrepeated": 6100,
      "Ġmurder": 6101,
      "Date": 6102,
      "Fact": 6103,
      "Î±": 6104,
      "inte": 6105,
      "inner": 6106,
      "ano": 6107,
      "ĠTO": 6108,
      "output": 6109,
      "ologies": 6110,
      "160": 6111,
      "ashion": 6112,
      "imon": 6113,
      "ĠTheorem": 6114,
      "Inter": 6115,
      "Ġmodern": 6116,
      "Ġclasses": 6117,
      "unday": 6118,
      "Ġrecorded": 6119,
      "Ġsky": 6120,
      "XXXXXXXX": 6121,
      "Ġmolecular": 6122,
      "NO": 6123,
      "Su": 6124,
      "icians": 6125,
      "ĠMichael": 6126,
      "Ġarbit": 6127,
      "Ġliver": 6128,
      "Ġaccord": 6129,
      "urrence": 6130,
      "0000000000": 6131,
      "airs": 6132,
      "Ġjudge": 6133,
      "Ġstrugg": 6134,
      "Ġliquid": 6135,
      "mt": 6136,
      "Ġnav": 6137,
      "ĠRoy": 6138,
      "Ġactivation": 6139,
      "Ġdenied": 6140,
      "legal": 6141,
      "rary": 6142,
      "Ġahead": 6143,
      "sect": 6144,
      "Instance": 6145,
      "Ġfract": 6146,
      "ading": 6147,
      "Ġpros": 6148,
      "ubl": 6149,
      "Ġcouldn": 6150,
      "Ġprobability": 6151,
      "čĊč": 6152,
      "alt": 6153,
      "Ġmo": 6154,
      "Ġgain": 6155,
      "ads": 6156,
      "outhern": 6157,
      "typ": 6158,
      "Ġdirected": 6159,
      "Ġarguments": 6160,
      "while": 6161,
      "Are": 6162,
      "inated": 6163,
      "Ġstored": 6164,
      "venue": 6165,
      "Query": 6166,
      "Ġprotocol": 6167,
      "ira": 6168,
      "idge": 6169,
      "Ġshared": 6170,
      "Ġresidence": 6171,
      "Ġintensity": 6172,
      "Ġincident": 6173,
      "Property": 6174,
      "ĠTGenLookupElement": 6175,
      "gers": 6176,
      "Ð½": 6177,
      "reated": 6178,
      "isation": 6179,
      "Ġstorage": 6180,
      "Ġmere": 6181,
      "author": 6182,
      "Ġfootball": 6183,
      ">&": 6184,
      "high": 6185,
      "Ġwid": 6186,
      "oul": 6187,
      "ously": 6188,
      ")$$": 6189,
      "Ġdetermination": 6190,
      "google": 6191,
      "Ġangle": 6192,
      "Ġsession": 6193,
      "Ġnut": 6194,
      "ĠTGenGroupBy": 6195,
      "ĠWestern": 6196,
      "Ġrelation": 6197,
      "())": 6198,
      "Ġparticles": 6199,
      "ĠEnglish": 6200,
      "NF": 6201,
      "scale": 6202,
      "iced": 6203,
      "Ġheat": 6204,
      "cknow": 6205,
      "hens": 6206,
      "zyme": 6207,
      "Ġcele": 6208,
      "Ġcontrolled": 6209,
      "aturday": 6210,
      "Ġter": 6211,
      "Ġpun": 6212,
      "Ġresolution": 6213,
      "Ġspot": 6214,
      "space": 6215,
      "ĠTechn": 6216,
      "Ġslightly": 6217,
      "gent": 6218,
      "eric": 6219,
      "Ġgone": 6220,
      "ĠSam": 6221,
      "Ġshock": 6222,
      "Ġplans": 6223,
      "anging": 6224,
      "arian": 6225,
      "Ġunderlying": 6226,
      "Ġmostly": 6227,
      "ĠSecond": 6228,
      "Ġmembrane": 6229,
      "Ġcriteria": 6230,
      "Ġannounced": 6231,
      "Ġtools": 6232,
      "Ġintroduced": 6233,
      "Ġexperimental": 6234,
      "Ġrecommend": 6235,
      ":**": 6236,
      "MR": 6237,
      "std": 6238,
      "ialog": 6239,
      "Ġchronic": 6240,
      "Ġcompare": 6241,
      "Ġimplic": 6242,
      "Ġamaz": 6243,
      "Ġsignals": 6244,
      "Ġauthority": 6245,
      "Ġepis": 6246,
      "ĠParty": 6247,
      "Ã£": 6248,
      "Ġhighlight": 6249,
      "Ġerrors": 6250,
      "ĠScott": 6251,
      "args": 6252,
      "Ġprocedures": 6253,
      "Since": 6254,
      "tical": 6255,
      "Ġelev": 6256,
      "Ġconclusion": 6257,
      "Ġneut": 6258,
      "Ġ38": 6259,
      "Ġkid": 6260,
      "Ġoffers": 6261,
      "Ġowner": 6262,
      "ĠClass": 6263,
      "ĠJustice": 6264,
      "Ġlatest": 6265,
      "*)": 6266,
      "urer": 6267,
      "Ġdose": 6268,
      "ĠAny": 6269,
      "Ġcurve": 6270,
      "Ġdecrease": 6271,
      "Ġgalax": 6272,
      "Don": 6273,
      "Menu": 6274,
      "]),": 6275,
      "girl": 6276,
      "Ã¤": 6277,
      "alysis": 6278,
      "uries": 6279,
      "usband": 6280,
      "ĠUnion": 6281,
      "onald": 6282,
      "OC": 6283,
      "Op": 6284,
      "just": 6285,
      "Ġforces": 6286,
      "ĠGra": 6287,
      "Ġdoor": 6288,
      "Ġunion": 6289,
      "Ġinflamm": 6290,
      "summary": 6291,
      "Ð»": 6292,
      "Ġodd": 6293,
      "ĠSpec": 6294,
      "Ġstation": 6295,
      "osure": 6296,
      "ĠBoth": 6297,
      "Ġofficers": 6298,
      "Ġisolated": 6299,
      "Ġheavy": 6300,
      "dimensional": 6301,
      "ĠGovernment": 6302,
      "Ġanalyses": 6303,
      "inet": 6304,
      "istent": 6305,
      "ĠOut": 6306,
      "------------------------": 6307,
      "Ġspent": 6308,
      "uesday": 6309,
      "iversal": 6310,
      "Ġtempor": 6311,
      "Ġfluid": 6312,
      "Ġcategories": 6313,
      "EE": 6314,
      "TA": 6315,
      "iling": 6316,
      "Ġextent": 6317,
      "Ġhappens": 6318,
      "bullet": 6319,
      "ameter": 6320,
      "ĠDuring": 6321,
      "Ġabuse": 6322,
      "Ġkill": 6323,
      "Ġ+=": 6324,
      "Ġperhaps": 6325,
      "Ġ2004": 6326,
      "Ġcentury": 6327,
      "Ġdemand": 6328,
      "Best": 6329,
      "CIT": 6330,
      "Field": 6331,
      "ygen": 6332,
      "Ġmobile": 6333,
      "004": 6334,
      "Ġagg": 6335,
      "Ġpossibility": 6336,
      "Ġsociety": 6337,
      "ĠHist": 6338,
      "Ġjava": 6339,
      "ipal": 6340,
      "ĠInte": 6341,
      "Ġintra": 6342,
      "Ġinvolve": 6343,
      "Controller": 6344,
      "Ste": 6345,
      "ci": 6346,
      "ĠRob": 6347,
      "Ġmeant": 6348,
      "}}_": 6349,
      "ypes": 6350,
      "Ġgovern": 6351,
      "Ġinterests": 6352,
      "Ġjobs": 6353,
      "ĠPeople": 6354,
      "gence": 6355,
      "ville": 6356,
      "hent": 6357,
      "erry": 6358,
      "eds": 6359,
      "Ġdownload": 6360,
      "media": 6361,
      "Ġideas": 6362,
      "Ġsentence": 6363,
      "/(-": 6364,
      "Last": 6365,
      "arth": 6366,
      "Ġ(\"": 6367,
      "Ġapplicable": 6368,
      "Ġholds": 6369,
      "Ġsubstrate": 6370,
      "rig": 6371,
      "Ġwhom": 6372,
      "ĠWil": 6373,
      "ĠLou": 6374,
      "Ġcommitted": 6375,
      "Ġdescription": 6376,
      "Ġfloat": 6377,
      "Ġeventually": 6378,
      "Ġmixed": 6379,
      "host": 6380,
      "Â§": 6381,
      "Ġwind": 6382,
      "itory": 6383,
      "oday": 6384,
      "Ġoutcomes": 6385,
      "Ġquarter": 6386,
      "Ġelim": 6387,
      "Ġtrend": 6388,
      "Ġquantum": 6389,
      "Ġcredit": 6390,
      "HR": 6391,
      "Ġcra": 6392,
      "icine": 6393,
      "agon": 6394,
      "Ġjur": 6395,
      "ords": 6396,
      "125": 6397,
      "==========": 6398,
      "Ġsupply": 6399,
      "Ġdiseases": 6400,
      "Ġreferred": 6401,
      "Ġneighborhood": 6402,
      "Hand": 6403,
      "SW": 6404,
      "gs": 6405,
      "nel": 6406,
      "tw": 6407,
      "icens": 6408,
      "ston": 6409,
      "ĠCF": 6410,
      "Ġweap": 6411,
      "Ġdisk": 6412,
      "ymph": 6413,
      "Ġposted": 6414,
      "lem": 6415,
      "ĠSum": 6416,
      "Ġserum": 6417,
      "Ġexplain": 6418,
      "Ġadvanced": 6419,
      "Ġfaith": 6420,
      ")?": 6421,
      "write": 6422,
      "Ġlose": 6423,
      "ayer": 6424,
      "ĠHill": 6425,
      "underset": 6426,
      "However": 6427,
      "obert": 6428,
      "({": 6429,
      "Post": 6430,
      "sens": 6431,
      "ws": 6432,
      "Ġecho": 6433,
      "oting": 6434,
      "sem": 6435,
      "ĠPM": 6436,
      "ĠBra": 6437,
      "ĠHIV": 6438,
      "Ġfeet": 6439,
      "Ġflat": 6440,
      "Ġinsurance": 6441,
      "Ġprotection": 6442,
      "ortunately": 6443,
      "Ġhypot": 6444,
      "Ġsubstantial": 6445,
      "cup": 6446,
      "last": 6447,
      "esis": 6448,
      "Ġbra": 6449,
      "Ġbacter": 6450,
      "ĠMex": 6451,
      "Ġapprec": 6452,
      "Ġreturns": 6453,
      "Ġteams": 6454,
      "pled": 6455,
      "Ġgenetic": 6456,
      "othing": 6457,
      "Ġattract": 6458,
      "Ġmortality": 6459,
      "pbio": 6460,
      "Gl": 6461,
      "See": 6462,
      "jo": 6463,
      "atrix": 6464,
      "itect": 6465,
      "ĠĠĠĠĠĠĠĠĠĠĠĠĠĠĠĠĠĠĠĠĠĠ": 6466,
      "ĠHence": 6467,
      "ĠNote": 6468,
      "----------------------------": 6469,
      "Ġsupposed": 6470,
      "Ġcandidates": 6471,
      "Ġtrou": 6472,
      "Ġnodes": 6473,
      "vee": 6474,
      "ĠPri": 6475,
      "Ġimaging": 6476,
      "ĠAmericans": 6477,
      "Ġinterested": 6478,
      "Ġoccurs": 6479,
      ")/(-": 6480,
      "ĠCanada": 6481,
      ".[@": 6482,
      "ednes": 6483,
      "Ġfans": 6484,
      "Ġvent": 6485,
      "Ġhaven": 6486,
      "Ġneuro": 6487,
      "Ġissued": 6488,
      "Ġdoubt": 6489,
      "ĠBritish": 6490,
      "BB": 6491,
      "\\'": 6492,
      "Ġion": 6493,
      "Ġcash": 6494,
      "Ġburn": 6495,
      "Ġnp": 6496,
      "Ġcomfort": 6497,
      "ĠGreen": 6498,
      "Ġofficer": 6499,
      "Ġoccurred": 6500,
      "300": 6501,
      "PU": 6502,
      "xp": 6503,
      "Ġfirm": 6504,
      "ĠPI": 6505,
      "**)": 6506,
      "ptr": 6507,
      "Status": 6508,
      "Ġincub": 6509,
      "Ġgrand": 6510,
      "Ġmechanisms": 6511,
      "Ġviolence": 6512,
      "({{\\": 6513,
      "According": 6514,
      "TD": 6515,
      "Ġhol": 6516,
      "Ġconvers": 6517,
      "Ġ\"[": 6518,
      "ĠFe": 6519,
      "aine": 6520,
      "Ġgenome": 6521,
      "Ġdiag": 6522,
      "Ġsolutions": 6523,
      "ridge": 6524,
      "Ġexercise": 6525,
      "cb": 6526,
      "care": 6527,
      "null": 6528,
      "Ġtherm": 6529,
      "erated": 6530,
      "Ġcable": 6531,
      "eturn": 6532,
      "iders": 6533,
      "Ġwhatever": 6534,
      "older": 6535,
      "ĠDirector": 6536,
      "Ġvelocity": 6537,
      "nb": 6538,
      "Ġfab": 6539,
      "Ġlung": 6540,
      "Ġexception": 6541,
      "Ġplus": 6542,
      "okes": 6543,
      "Ġpartners": 6544,
      "Ġaccum": 6545,
      "Ġbrother": 6546,
      "Ġimagine": 6547,
      ")}}": 6548,
      "Pe": 6549,
      "Ġvi": 6550,
      "Ġdesired": 6551,
      "Ġempty": 6552,
      "Ġpatent": 6553,
      "\"}.": 6554,
      "Ġindicates": 6555,
      "Ġaccuracy": 6556,
      "Ġsquare": 6557,
      "Ġsubsequent": 6558,
      "Pat": 6559,
      "Ġsust": 6560,
      "Ġ500": 6561,
      "Ġapopt": 6562,
      "Ġmetal": 6563,
      "Ġidentity": 6564,
      "Ġoccup": 6565,
      "Ġassessment": 6566,
      "Ġaudience": 6567,
      ".-": 6568,
      "iary": 6569,
      "}]": 6570,
      "Ġmental": 6571,
      "ĠMet": 6572,
      "ĠPress": 6573,
      "illa": 6574,
      "ĠKore": 6575,
      "Ġteac": 6576,
      "cope": 6577,
      "Ġreceptor": 6578,
      "ednesday": 6579,
      "Ġ--------------------------------": 6580,
      "ctx": 6581,
      "status": 6582,
      "ceived": 6583,
      "Ġsigned": 6584,
      "ĠLeague": 6585,
      "More": 6586,
      "cor": 6587,
      "normal": 6588,
      "Ġut": 6589,
      "Ġwel": 6590,
      "Ġborn": 6591,
      "aratus": 6592,
      "ĊĠĠĠĠĠĠĠĠĠĠĠĠ": 6593,
      "Request": 6594,
      "ĠTrust": 6595,
      "ĠIslam": 6596,
      "Ġplasma": 6597,
      "Att": 6598,
      "VD": 6599,
      "[\"": 6600,
      "vals": 6601,
      "zen": 6602,
      "ĠType": 6603,
      "ĠAre": 6604,
      "Ġprolif": 6605,
      "Ġplane": 6606,
      "Ġoffset": 6607,
      "Ġexamined": 6608,
      "Med": 6609,
      "VA": 6610,
      "[/": 6611,
      "dr": 6612,
      "rics": 6613,
      "src": 6614,
      "Ġvert": 6615,
      "induced": 6616,
      "Ġfreed": 6617,
      "arp": 6618,
      "omes": 6619,
      "ĠCI": 6620,
      "abilities": 6621,
      "ĠPWR": 6622,
      "ĠHam": 6623,
      "ĠFOR": 6624,
      "inder": 6625,
      "info": 6626,
      "Ġconcerns": 6627,
      "ĠRepublican": 6628,
      "Ġbatter": 6629,
      "Ġlit": 6630,
      "Ġvariation": 6631,
      "Reg": 6632,
      "ancing": 6633,
      "Ġinvestigate": 6634,
      "ĠAppe": 6635,
      "Ġincorpor": 6636,
      "ror": 6637,
      "atan": 6638,
      "Ġinner": 6639,
      "ĠMs": 6640,
      "Ġneur": 6641,
      "actic": 6642,
      "ipher": 6643,
      "riter": 6644,
      "standing": 6645,
      "Source": 6646,
      "Ġring": 6647,
      "Ġscene": 6648,
      "ĠYes": 6649,
      "Ġguaran": 6650,
      "Ġdiscovery": 6651,
      "Ġdelivery": 6652,
      "Rep": 6653,
      "dy": 6654,
      "Ã§": 6655,
      "Ġmit": 6656,
      "Ġstories": 6657,
      ".....": 6658,
      "ĠUsing": 6659,
      "akers": 6660,
      "Ġdisp": 6661,
      "XXX": 6662,
      "Ġstatements": 6663,
      "ursday": 6664,
      "Ġimmune": 6665,
      "Ġimplementation": 6666,
      "ĠCompany": 6667,
      "Ġpilot": 6668,
      "lar": 6669,
      "istan": 6670,
      "ditionally": 6671,
      "Ġlisted": 6672,
      "Ġcapable": 6673,
      "Ġrestaur": 6674,
      "Ġfocused": 6675,
      "supplementary": 6676,
      "ĠCouncil": 6677,
      "Style": 6678,
      "Ġdust": 6679,
      "Ġstick": 6680,
      "ĠGR": 6681,
      "ĠGal": 6682,
      "ĠInstitute": 6683,
      "Ġ41": 6684,
      "Ġcoh": 6685,
      "utional": 6686,
      "Ġdeveloping": 6687,
      "Ġpositions": 6688,
      "Ġplanning": 6689,
      "Ġexistence": 6690,
      "Ġmeasurement": 6691,
      "Ġthousands": 6692,
      "Ric": 6693,
      "Te": 6694,
      "Ġtox": 6695,
      "anda": 6696,
      "emma": 6697,
      "hedul": 6698,
      "Ġextension": 6699,
      "ĠScience": 6700,
      "hemical": 6701,
      "Ġvirus": 6702,
      "Some": 6703,
      "TT": 6704,
      "[\\": 6705,
      "Ġaid": 6706,
      "ura": 6707,
      "Ġ55": 6708,
      "Ġenforce": 6709,
      "ĠSecret": 6710,
      "ĠCommit": 6711,
      "ductor": 6712,
      "Ġstandards": 6713,
      "Ġpicked": 6714,
      "////////////////": 6715,
      "ĠGoogle": 6716,
      "caps": 6717,
      "mole": 6718,
      "eding": 6719,
      "ulin": 6720,
      "ĠBre": 6721,
      "ĠNO": 6722,
      "ĠLi": 6723,
      "Ġchurch": 6724,
      "pert": 6725,
      "ĠUnder": 6726,
      "ĠIns": 6727,
      "Ġpeace": 6728,
      "Ġremark": 6729,
      "Ġrepresented": 6730,
      "iveness": 6731,
      "Ġflex": 6732,
      "Ġgau": 6733,
      "ĠĠĠĠĠĠĠĠĠĠĠĠĠĠĠĠĠĠĠĠ": 6734,
      "Ġassay": 6735,
      "web": 6736,
      "126": 6737,
      "ĠPaul": 6738,
      "Click": 6739,
      "Ã¼": 6740,
      "Ġthreshold": 6741,
      "ĠPlease": 6742,
      "osen": 6743,
      "ĠRem": 6744,
      "Ġ75": 6745,
      "150": 6746,
      "Ġdecisions": 6747,
      "Ġbelong": 6748,
      "Ġfinite": 6749,
      "header": 6750,
      "Ã£o": 6751,
      "LA": 6752,
      "SM": 6753,
      "Ġharm": 6754,
      "connect": 6755,
      "ĠCollege": 6756,
      "Ġgranted": 6757,
      "ĠDemocratic": 6758,
      "anes": 6759,
      "iler": 6760,
      "amily": 6761,
      "irus": 6762,
      "ĠMicro": 6763,
      "Ġinteractions": 6764,
      "ampions": 6765,
      "Ġletters": 6766,
      "herent": 6767,
      "Comp": 6768,
      "Ġfluores": 6769,
      "Ġbudget": 6770,
      "}|": 6771,
      "icate": 6772,
      "Ġexternal": 6773,
      "Ġaren": 6774,
      "ĠGood": 6775,
      "ĠEvery": 6776,
      "These": 6777,
      "Ġgoals": 6778,
      "Ġpharm": 6779,
      "Ġregulation": 6780,
      "Ġequipment": 6781,
      "ORT": 6782,
      "Read": 6783,
      "Ġpowerful": 6784,
      "cretion": 6785,
      "ĠAssociation": 6786,
      "inux": 6787,
      "Ġjournal": 6788,
      "Ġkit": 6789,
      "Ġapparatus": 6790,
      "poss": 6791,
      "ponse": 6792,
      "Ġcarbon": 6793,
      "clear": 6794,
      "Ġsymbol": 6795,
      "Min": 6796,
      "Up": 6797,
      "gments": 6798,
      "ĠĠĠĠĠĠĠĠĠĠĠĠĠĠĠĠĠĠ": 6799,
      "ĠFinally": 6800,
      "\"]": 6801,
      "ipp": 6802,
      "ker": 6803,
      "ĠDE": 6804,
      "ĠDay": 6805,
      "Ġrou": 6806,
      "ĠLook": 6807,
      "ude": 6808,
      "ĠEU": 6809,
      "Ġreplacement": 6810,
      "doc": 6811,
      "čĊĉ": 6812,
      "Ġcovered": 6813,
      "Ġwish": 6814,
      "isa": 6815,
      "ostic": 6816,
      "Ġadvert": 6817,
      "Ġrecall": 6818,
      "blog": 6819,
      "Ġelectronic": 6820,
      "Ġcontrols": 6821,
      "Ġsubjects": 6822,
      "Ġjoin": 6823,
      "Ġboundary": 6824,
      "Just": 6825,
      "Ġlatter": 6826,
      "ulf": 6827,
      "client": 6828,
      "ĊĠĠĠĠĠĠĠĠĠĠĠĠĠĠ": 6829,
      "Ġpreval": 6830,
      "Ġsignaling": 6831,
      "Ġexpand": 6832,
      "Ġknows": 6833,
      "Ġauto": 6834,
      "Ġadvance": 6835,
      "Ġinstrument": 6836,
      "NU": 6837,
      "Î¼": 6838,
      "Ġtal": 6839,
      "Ġcof": 6840,
      "Ġdraft": 6841,
      "etime": 6842,
      "âĢ²": 6843,
      "ellants": 6844,
      "Ġradio": 6845,
      "Ġsensitivity": 6846,
      "Ġestimate": 6847,
      "dependent": 6848,
      "Ñģ": 6849,
      "ĠArm": 6850,
      "contain": 6851,
      "Ġcoach": 6852,
      "INE": 6853,
      "Ġmetric": 6854,
      "Ġallowing": 6855,
      "longrightarrow": 6856,
      "Ġefficiency": 6857,
      "Ġresearchers": 6858,
      "Ġaccordance": 6859,
      "rich": 6860,
      "Ġinsp": 6861,
      "Ġthick": 6862,
      "Ġvess": 6863,
      "isted": 6864,
      "ĠLib": 6865,
      "}}}": 6866,
      "comple": 6867,
      "Ġmodified": 6868,
      "Ġsmart": 6869,
      "ship": 6870,
      "Ġimportance": 6871,
      "Ġexplicit": 6872,
      "missions": 6873,
      "Ġlesions": 6874,
      "Ġpolicies": 6875,
      "'$": 6876,
      "Ġ------------": 6877,
      "ounce": 6878,
      "road": 6879,
      "Ġcompens": 6880,
      "fected": 6881,
      "Ġtrain": 6882,
      "Ġhelped": 6883,
      "Ġconfidence": 6884,
      "Ġchanging": 6885,
      "Ġassessed": 6886,
      "Ġsuitable": 6887,
      "Ġhousing": 6888,
      "message": 6889,
      "yan": 6890,
      "itative": 6891,
      "ĠSa": 6892,
      "ĠAlex": 6893,
      "Ġstack": 6894,
      "abil": 6895,
      "acebook": 6896,
      "Ġappoint": 6897,
      "2019": 6898,
      "Ġexplan": 6899,
      "Ġexperienced": 6900,
      "][@": 6901,
      "ĠSunday": 6902,
      "Ġ$(\\": 6903,
      "Ġvary": 6904,
      "Ġvacc": 6905,
      "uns": 6906,
      "apers": 6907,
      "Ġtraffic": 6908,
      "Ġfloor": 6909,
      "Ġremained": 6910,
      "clusive": 6911,
      "Ġvoice": 6912,
      "Call": 6913,
      "Ġfear": 6914,
      "Ġrent": 6915,
      "ilos": 6916,
      "rag": 6917,
      "Ġexamples": 6918,
      "ĠRich": 6919,
      "âĢĿ.": 6920,
      "Ġdesc": 6921,
      "Ġdetailed": 6922,
      "Ġmainly": 6923,
      "Ġdriving": 6924,
      "Ġbooks": 6925,
      "Ġevaluation": 6926,
      "cdots": 6927,
      "Ġclosest": 6928,
      "QU": 6929,
      "je": 6930,
      "lm": 6931,
      "Ġpure": 6932,
      "Ġnine": 6933,
      "..\"": 6934,
      "Ġtransmission": 6935,
      "Ġidentification": 6936,
      "ĠAppellant": 6937,
      "Ġconcern": 6938,
      "ĠChristian": 6939,
      "Phi": 6940,
      "rendip": 6941,
      ">.": 6942,
      "Rem": 6943,
      "faces": 6944,
      "ishes": 6945,
      "ĠService": 6946,
      "inese": 6947,
      "Ġdepending": 6948,
      "Ġdepartment": 6949,
      "Ġrestrict": 6950,
      "dir": 6951,
      "lg": 6952,
      "lies": 6953,
      "lock": 6954,
      "uations": 6955,
      "Ġhusband": 6956,
      "ĠĠĠĠĠĠĠĠĠĠĠĠĠĠĠĠĠĠĠĠĠĠĠ": 6957,
      "ĠFederal": 6958,
      "ĠUp": 6959,
      "Result": 6960,
      "Ġolder": 6961,
      "VID": 6962,
      "Ġnet": 6963,
      "ĠON": 6964,
      "Ġspring": 6965,
      "Ġlimits": 6966,
      "ĠIndex": 6967,
      "ĠMonday": 6968,
      "Ġlearned": 6969,
      "Ġnuclear": 6970,
      "CON": 6971,
      "Tool": 6972,
      "cial": 6973,
      "law": 6974,
      "Ġreality": 6975,
      "omer": 6976,
      "ĠEq": 6977,
      "Ġcompounds": 6978,
      "Ġ42": 6979,
      "cyp": 6980,
      "Ġmarriage": 6981,
      "rendipity": 6982,
      "Method": 6983,
      "dt": 6984,
      "zo": 6985,
      "inv": 6986,
      "ĠCath": 6987,
      "Ġassembly": 6988,
      "Ġexchange": 6989,
      "ĠDec": 6990,
      "ĠHD": 6991,
      "ĠFrench": 6992,
      "Ġspecified": 6993,
      "Ġresidents": 6994,
      "=======": 6995,
      "cyphermox": 6996,
      "Service": 6997,
      "font": 6998,
      "nc": 6999,
      "Ġpin": 7000,
      "Ġconcluded": 7001,
      "Ġintellig": 7002,
      "Ġ52": 7003,
      "Ġguide": 7004,
      "month": 7005,
      "Ġleader": 7006,
      "Ġvisible": 7007,
      "ĠArt": 7008,
      "Ġ1998": 7009,
      "ĠFriday": 7010,
      "Ġinvestigated": 7011,
      "layout": 7012,
      "ĠANY": 7013,
      "Hz": 7014,
      "ĠWAR": 7015,
      "empt": 7016,
      "ructions": 7017,
      "Ġ});": 7018,
      "Ġexpansion": 7019,
      "Ġ***": 7020,
      "Any": 7021,
      "Ġindeed": 7022,
      "Ġsod": 7023,
      "rog": 7024,
      "sey": 7025,
      "ĠJava": 7026,
      "Ġminim": 7027,
      "Ġdepends": 7028,
      "LECT": 7029,
      "Ġbias": 7030,
      "ĠRussian": 7031,
      "%;": 7032,
      "ias": 7033,
      "tool": 7034,
      "Ã¶": 7035,
      "Ġtun": 7036,
      "Ġboy": 7037,
      "Ġlif": 7038,
      "ĠCT": 7039,
      "ĠCheck": 7040,
      "raction": 7041,
      "ĠMur": 7042,
      "Ġheter": 7043,
      "format": 7044,
      "ĊĊĊĊĊ": 7045,
      "product": 7046,
      "Ġoffense": 7047,
      "Ġzone": 7048,
      "Ġsuggesting": 7049,
      "Ġlimitations": 7050,
      "Americ": 7051,
      "ola": 7052,
      "Ġ\\{": 7053,
      "Ġspend": 7054,
      "Ġannual": 7055,
      "Ġexcell": 7056,
      "Ġappearance": 7057,
      "ĠSenate": 7058,
      "Ġpropag": 7059,
      ")^{": 7060,
      "NT": 7061,
      "RAN": 7062,
      "after": 7063,
      "ders": 7064,
      "itable": 7065,
      "eless": 7066,
      "ĠTimes": 7067,
      "ĠSaturday": 7068,
      "Ġrich": 7069,
      "Ġspat": 7070,
      "Ġ64": 7071,
      "Ġnetworks": 7072,
      "Ġdefinitely": 7073,
      "Ġeconomy": 7074,
      "underline": 7075,
      "MB": 7076,
      "]--": 7077,
      "pc": 7078,
      "onna": 7079,
      "sts": 7080,
      "ĠMa": 7081,
      "Ġvide": 7082,
      "Ġsea": 7083,
      "ĠOver": 7084,
      "Ġplays": 7085,
      "apache": 7086,
      "Ġrecovery": 7087,
      "ĠChurch": 7088,
      "Ġreceiving": 7089,
      "ĠWhy": 7090,
      "Ġversus": 7091,
      "Ġmessages": 7092,
      "<<": 7093,
      "May": 7094,
      "kt": 7095,
      "Ġcat": 7096,
      "Ġnan": 7097,
      "Ġusual": 7098,
      "Ġenroll": 7099,
      "Ġentitled": 7100,
      "Ġcalling": 7101,
      "Ġgreatest": 7102,
      "Ġhousehold": 7103,
      "Ġstrains": 7104,
      "Ġjuice": 7105,
      "ĠCommittee": 7106,
      "Ġtub": 7107,
      "Ġacknow": 7108,
      "Ġsch": 7109,
      "olf": 7110,
      "ĠCam": 7111,
      "Ġ150": 7112,
      "ĠNa": 7113,
      "ĠkTest": 7114,
      "appe": 7115,
      "Ġsynd": 7116,
      "Ġrock": 7117,
      "Ġ2001": 7118,
      "Ġdepression": 7119,
      "default": 7120,
      "Ġspectra": 7121,
      "Ġexecutive": 7122,
      "Ġcelebr": 7123,
      "ĠkTestIs": 7124,
      "Ne": 7125,
      "á»": 7126,
      "het": 7127,
      "Ġwarm": 7128,
      "Ġfif": 7129,
      "ilty": 7130,
      "igr": 7131,
      "ĠMary": 7132,
      "ushed": 7133,
      "ellular": 7134,
      "ariable": 7135,
      "Ġattached": 7136,
      "Ġdiscovered": 7137,
      "cohol": 7138,
      "Ġviews": 7139,
      "Ġradiation": 7140,
      "Ġnecessarily": 7141,
      "Ġdependent": 7142,
      "Ġchannels": 7143,
      "<\\": 7144,
      "gical": 7145,
      "ien": 7146,
      "po": 7147,
      "was": 7148,
      "Ġsides": 7149,
      "ĠCA": 7150,
      "Ġformal": 7151,
      "Ġends": 7152,
      "References": 7153,
      "Expand": 7154,
      "Ġclusters": 7155,
      "Ġdys": 7156,
      "raq": 7157,
      "ĠFil": 7158,
      "00000000": 7159,
      "scrib": 7160,
      "Ġcontinues": 7161,
      "Ġbalance": 7162,
      "PT": 7163,
      "ito": 7164,
      "orial": 7165,
      "ĠOffice": 7166,
      "014": 7167,
      "Ġdepth": 7168,
      "Ġpossibly": 7169,
      "Ġadvice": 7170,
      "Ġconcerned": 7171,
      "Color": 7172,
      "ĠRussia": 7173,
      "```": 7174,
      "Ġalgebra": 7175,
      "]--[@": 7176,
      "ĠTom": 7177,
      "ĠAM": 7178,
      "ĠMS": 7179,
      "ĠHT": 7180,
      "Ġshut": 7181,
      "Ġdetail": 7182,
      "\",\"": 7183,
      "Ġattorney": 7184,
      "inson": 7185,
      "Ġinvestment": 7186,
      "ĠEngland": 7187,
      "Ke": 7188,
      "Link": 7189,
      "zer": 7190,
      "idity": 7191,
      "ĠCopyright": 7192,
      "ĠMass": 7193,
      "rian": 7194,
      "Ġvan": 7195,
      "antly": 7196,
      "Ġscal": 7197,
      "Ġsurve": 7198,
      "Ġconsidering": 7199,
      "Ġspeech": 7200,
      "Ġdemonstrate": 7201,
      "Ġconfiguration": 7202,
      "Us": 7203,
      "åı": 7204,
      "Ġorient": 7205,
      "Ġrender": 7206,
      "ĠRNA": 7207,
      "velopment": 7208,
      "enez": 7209,
      "Ġnumerous": 7210,
      "ĠCircuit": 7211,
      "Pol": 7212,
      "Range": 7213,
      "Ġreverse": 7214,
      "Ġlymph": 7215,
      "Ġsections": 7216,
      "Ġ300": 7217,
      "Ġ44": 7218,
      "Ġoblig": 7219,
      "Ġseeing": 7220,
      "Ġseconds": 7221,
      "Ġasking": 7222,
      "Ġdenote": 7223,
      "Ġrepresentation": 7224,
      "mg": 7225,
      "press": 7226,
      "person": 7227,
      "omal": 7228,
      "ĠBur": 7229,
      "ĠNor": 7230,
      "Ġpept": 7231,
      "Ġdistingu": 7232,
      "Ġinvolving": 7233,
      "Ġachieved": 7234,
      "oral": 7235,
      "ĠTuesday": 7236,
      "ĠSand": 7237,
      "Ġdeg": 7238,
      "ubb": 7239,
      "Ġcomposition": 7240,
      "Ġconsult": 7241,
      "2017": 7242,
      "COL": 7243,
      "ĠDefendant": 7244,
      "Ġprincipal": 7245,
      "Ġphenomen": 7246,
      "AF": 7247,
      "ÑĢ": 7248,
      "Ġcos": 7249,
      "Ġdaughter": 7250,
      "Ġleaves": 7251,
      ")/(": 7252,
      "doi": 7253,
      "110": 7254,
      "cut": 7255,
      "tag": 7256,
      "Ġfashion": 7257,
      "icago": 7258,
      "Ġegg": 7259,
      "ĠCH": 7260,
      "Ġseat": 7261,
      "_{-": 7262,
      "Ġacts": 7263,
      "Ġprovision": 7264,
      "Ġended": 7265,
      "Ġglut": 7266,
      "Ġeasier": 7267,
      "Ġcocktail": 7268,
      "BL": 7269,
      "CI": 7270,
      "iences": 7271,
      "rer": 7272,
      "imately": 7273,
      "ĠSal": 7274,
      "Ġconclude": 7275,
      "Ġhence": 7276,
      "Ġconsent": 7277,
      "idential": 7278,
      "Ġsimpl": 7279,
      "Ġcorre": 7280,
      "ĠPlan": 7281,
      "Please": 7282,
      "inations": 7283,
      "aylor": 7284,
      "endif": 7285,
      "ĠWell": 7286,
      "Ġpla": 7287,
      "Ġplot": 7288,
      "Ġ54": 7289,
      "lient": 7290,
      "Start": 7291,
      "Ġdivision": 7292,
      "lands": 7293,
      "Ġprofile": 7294,
      "Ġenvironmental": 7295,
      "Ġaxis": 7296,
      "Ġbaby": 7297,
      "Dec": 7298,
      "Ġforced": 7299,
      "ĠSoft": 7300,
      "ĠPen": 7301,
      "**(": 7302,
      "ĠWall": 7303,
      "Ġenzyme": 7304,
      "ifications": 7305,
      "Ġpathway": 7306,
      "REG": 7307,
      "Ġbehavi": 7308,
      "Settings": 7309,
      "Ġdimension": 7310,
      "Ġjuris": 7311,
      ")}\\": 7312,
      "SON": 7313,
      "ben": 7314,
      "func": 7315,
      "ulating": 7316,
      "Ġ49": 7317,
      "itti": 7318,
      "Ġreceiver": 7319,
      "Ġ1997": 7320,
      "operative": 7321,
      "Ġuncertain": 7322,
      "Ġamazing": 7323,
      "LI": 7324,
      "css": 7325,
      "ncy": 7326,
      "rine": 7327,
      "Ġbow": 7328,
      "Ġmaster": 7329,
      "ĠFlor": 7330,
      "cles": 7331,
      "Ġjump": 7332,
      "Ġarr": 7333,
      "Ġscope": 7334,
      "âĢĶâĢĶ": 7335,
      "ROM": 7336,
      "Ġreplaced": 7337,
      "Ġatm": 7338,
      "Ġchosen": 7339,
      "Ġ};": 7340,
      "Ġ1990": 7341,
      "Ġpresentation": 7342,
      "Ġguilty": 7343,
      "Ġequations": 7344,
      "contin": 7345,
      "Ġcustomers": 7346,
      "################": 7347,
      "datab": 7348,
      "jackson": 7349,
      "pool": 7350,
      "Ġsav": 7351,
      "Ġoral": 7352,
      "crete": 7353,
      "ympt": 7354,
      "Ġbelieved": 7355,
      "Ġbiological": 7356,
      "Ġfigures": 7357,
      "iconductor": 7358,
      "Ġounce": 7359,
      "!-": 7360,
      "cjwatson": 7361,
      "iative": 7362,
      "sg": 7363,
      "hetic": 7364,
      "ĠMath": 7365,
      "_{+": 7366,
      "Ġpursu": 7367,
      "iddell": 7368,
      "Ġwaiting": 7369,
      "Ġaccompl": 7370,
      "Ġvirtual": 7371,
      "Ġsenior": 7372,
      "Ġstopped": 7373,
      "Ġgauge": 7374,
      "faster": 7375,
      "nav": 7376,
      "etch": 7377,
      "utely": 7378,
      "ĠForm": 7379,
      "Ġsho": 7380,
      "Ġindepend": 7381,
      "Ġdatas": 7382,
      "ĠĊĠĠĠ": 7383,
      "ette": 7384,
      "Ġconference": 7385,
      "ĠBrown": 7386,
      "ĠRobert": 7387,
      "Ġreson": 7388,
      "orders": 7389,
      "effect": 7390,
      "equiv": 7391,
      "Ġspectral": 7392,
      "Ġloan": 7393,
      "ruptcy": 7394,
      "Ġoxygen": 7395,
      "Riem": 7396,
      "aper": 7397,
      "Ġfarm": 7398,
      "elines": 7399,
      "ĠIraq": 7400,
      "rape": 7401,
      "ĠPD": 7402,
      "Ġarter": 7403,
      "aney": 7404,
      "2010": 7405,
      "Ġfinish": 7406,
      "Ġseemed": 7407,
      "Ġintegral": 7408,
      "Ġdistributions": 7409,
      "enezuel": 7410,
      ";\\": 7411,
      "^-": 7412,
      "kin": 7413,
      "win": 7414,
      "asc": 7415,
      "ĠMac": 7416,
      "agen": 7417,
      "Ġleaving": 7418,
      "Ġcommunities": 7419,
      "Ġkeeping": 7420,
      "ĠAfrica": 7421,
      "GG": 7422,
      "MF": 7423,
      "focal": 7424,
      "Ġtens": 7425,
      "Ġsun": 7426,
      "Ġforth": 7427,
      "Ġbecoming": 7428,
      "Ġupload": 7429,
      "lets": 7430,
      "Ġdivers": 7431,
      "Ġsolar": 7432,
      "Ġbaseline": 7433,
      "Ġlayers": 7434,
      "ĠGeorge": 7435,
      "fasterxml": 7436,
      "VE": 7437,
      "Your": 7438,
      "------": 7439,
      "Ġstem": 7440,
      "007": 7441,
      "Ġdefect": 7442,
      "Ġpartial": 7443,
      "Ġrelates": 7444,
      "Ġextended": 7445,
      "Hey": 7446,
      "Ġpassing": 7447,
      "Ġaccurate": 7448,
      "Ð¾Ð": 7449,
      "ĠGermany": 7450,
      "Ġspirit": 7451,
      "Ent": 7452,
      "night": 7453,
      "Ġsought": 7454,
      "Ġduration": 7455,
      "Ġgang": 7456,
      "Ġcontribute": 7457,
      "Ġunable": 7458,
      "Ġoverl": 7459,
      "Ġacadem": 7460,
      "Ġflo": 7461,
      "$$\\": 7462,
      "Ġopened": 7463,
      "Ġmission": 7464,
      "ĠSmith": 7465,
      "databind": 7466,
      "!--": 7467,
      "ao": 7468,
      "fri": 7469,
      "fess": 7470,
      "ĠTR": 7471,
      "ĠCup": 7472,
      "Ġ101": 7473,
      "ĠPort": 7474,
      "ĠFree": 7475,
      "plit": 7476,
      "Ġunknown": 7477,
      "Ġassistance": 7478,
      "Ġpotentially": 7479,
      "Ġbiggest": 7480,
      "Ġlinked": 7481,
      "Ġarchitect": 7482,
      "2000": 7483,
      "hal": 7484,
      "has": 7485,
      "Ġsir": 7486,
      "alty": 7487,
      "Ġmel": 7488,
      "select": 7489,
      "prote": 7490,
      "Node": 7491,
      "Ser": 7492,
      "VT": 7493,
      "mits": 7494,
      "ses": 7495,
      "inals": 7496,
      "Ġcm": 7497,
      "Ġhole": 7498,
      "ĠMany": 7499,
      "usiness": 7500,
      "Ġ++": 7501,
      "Ġobser": 7502,
      "Ġaccident": 7503,
      "Ġresulted": 7504,
      "Ġ**(": 7505,
      "Ġindicating": 7506,
      "Button": 7507,
      "unchpad": 7508,
      "Ġaspects": 7509,
      "Ġpreparation": 7510,
      "Access": 7511,
      "_.": 7512,
      "cers": 7513,
      "hab": 7514,
      "}+\\": 7515,
      "Ġsam": 7516,
      "Ġcart": 7517,
      "Ġdop": 7518,
      "amber": 7519,
      "Ġsugar": 7520,
      "ĠVir": 7521,
      "rowser": 7522,
      "Ġminute": 7523,
      "Ġstrict": 7524,
      "Ġillegal": 7525,
      "Ġapoptosis": 7526,
      ")),": 7527,
      "Ġ--------": 7528,
      "Ġsport": 7529,
      "ĠDi": 7530,
      "ĠLike": 7531,
      "Ġadmitted": 7532,
      "phasis": 7533,
      "Ġspin": 7534,
      "ĠAnn": 7535,
      "Ġafford": 7536,
      "ĠContents": 7537,
      "ĠAfrican": 7538,
      "approved": 7539,
      "Ġreligious": 7540,
      "Ġexcellent": 7541,
      "lang": 7542,
      "mo": 7543,
      "uum": 7544,
      "Ġsale": 7545,
      "orters": 7546,
      "ethe": 7547,
      "âĢĬ": 7548,
      "ĠMad": 7549,
      "ĠBel": 7550,
      "Ġschedul": 7551,
      "Ġ65": 7552,
      "Ġsupporting": 7553,
      "Ġargue": 7554,
      "Ġemployed": 7555,
      "Ġpictures": 7556,
      "Ġproportion": 7557,
      "Ġcitiz": 7558,
      "DC": 7559,
      "SR": 7560,
      "Yeah": 7561,
      "}|\\": 7562,
      "ĠTheir": 7563,
      "fee": 7564,
      "Ġrecip": 7565,
      "Ġminimal": 7566,
      "Ġbusinesses": 7567,
      "Ġemployment": 7568,
      "Ġpercentage": 7569,
      "Ġfrequently": 7570,
      "Ġsecure": 7571,
      "Ġdestroy": 7572,
      "Ġburden": 7573,
      "Sp": 7574,
      "UD": 7575,
      "mL": 7576,
      "erior": 7577,
      "Ġbeat": 7578,
      "oded": 7579,
      "ĠFacebook": 7580,
      "Ġtruly": 7581,
      "common": 7582,
      "Ġpolar": 7583,
      "Ġdecades": 7584,
      "ASH": 7585,
      "Ġmotiv": 7586,
      "ĠFrank": 7587,
      "Ġimprovement": 7588,
      "Ġimplies": 7589,
      "Ġenhance": 7590,
      "Ġpurchase": 7591,
      "ĠSecretary": 7592,
      "UND": 7593,
      "ipping": 7594,
      "hether": 7595,
      "aming": 7596,
      "ĠOnce": 7597,
      "Ġscan": 7598,
      "expected": 7599,
      "ERR": 7600,
      "Ġentertain": 7601,
      "Ġanalog": 7602,
      "Ġworse": 7603,
      "Ġfacilit": 7604,
      "Ġphoto": 7605,
      "Ġfraction": 7606,
      "ĠMinister": 7607,
      "Ġgravity": 7608,
      "wid": 7609,
      "wxl": 7610,
      "zeta": 7611,
      "Ġiron": 7612,
      "enial": 7613,
      "Ġorb": 7614,
      "ĠWork": 7615,
      "ĠWednesday": 7616,
      "itions": 7617,
      "Ġwilling": 7618,
      "Ġthereby": 7619,
      "lik": 7620,
      "Ġdifferential": 7621,
      "amespace": 7622,
      "Ġsensitive": 7623,
      "FE": 7624,
      "zing": 7625,
      "opa": 7626,
      "Ġchief": 7627,
      "=\"#": 7628,
      "Ġcomposite": 7629,
      "Ġsigns": 7630,
      "2011": 7631,
      "2015": 7632,
      "Ġrepresentative": 7633,
      "Ġestimates": 7634,
      "Ġfundament": 7635,
      "Ġentirely": 7636,
      "Ġseeking": 7637,
      "Ġfreedom": 7638,
      "false": 7639,
      "Ġbag": 7640,
      "ĠAPI": 7641,
      "ĠBuild": 7642,
      "Ġordered": 7643,
      "Ġrats": 7644,
      "Ġparallel": 7645,
      "Ġdetermining": 7646,
      "Ġdriver": 7647,
      "Ġinhibition": 7648,
      "Ġevaluate": 7649,
      "Ġoxid": 7650,
      "Ġmaps": 7651,
      "Ġduty": 7652,
      "Ġgonna": 7653,
      "ĠSO": 7654,
      "Ġalter": 7655,
      "ĠHy": 7656,
      "Then": 7657,
      "Ġmanaged": 7658,
      "icks": 7659,
      "Ġprison": 7660,
      "untime": 7661,
      "Ġmatters": 7662,
      "Ġlarg": 7663,
      "ASE": 7664,
      "ĠTwitter": 7665,
      "Ġelectrical": 7666,
      "Ġproliferation": 7667,
      "Ġatmosp": 7668,
      "Buff": 7669,
      "CV": 7670,
      "iological": 7671,
      "ipped": 7672,
      "ups": 7673,
      "internal": 7674,
      "Ġ()": 7675,
      "Strip": 7676,
      "ĠProgram": 7677,
      "Ġreducing": 7678,
      "ĠAmendment": 7679,
      "ĠLouis": 7680,
      "molecules": 7681,
      "Ġlargely": 7682,
      "CK": 7683,
      "ffered": 7684,
      "nox": 7685,
      "ye": 7686,
      "umns": 7687,
      "ĠBay": 7688,
      "ĠNH": 7689,
      "Ġnotes": 7690,
      "inton": 7691,
      "context": 7692,
      "ĠVenezuel": 7693,
      "ixed": 7694,
      "Ġcounty": 7695,
      "MPU": 7696,
      "230": 7697,
      "SL": 7698,
      "][": 7699,
      "Ġfill": 7700,
      "Ġdil": 7701,
      "roke": 7702,
      "otion": 7703,
      "ĠRA": 7704,
      "}},": 7705,
      "neq": 7706,
      "Ġinterval": 7707,
      "123": 7708,
      "ĠChinese": 7709,
      "Ġapproaches": 7710,
      "2004": 7711,
      "ĠLeg": 7712,
      "ĠOnly": 7713,
      "Ġembodiments": 7714,
      "HA": 7715,
      "find": 7716,
      "height": 7717,
      "Ġmil": 7718,
      "Ġdual": 7719,
      "ether": 7720,
      "ĠSl": 7721,
      "ĠServ": 7722,
      "estion": 7723,
      "oston": 7724,
      "Ġenable": 7725,
      "Ġassigned": 7726,
      "apped": 7727,
      "otted": 7728,
      "ĠPhil": 7729,
      "Ġdeliver": 7730,
      "Ġinterpretation": 7731,
      ")+": 7732,
      "Check": 7733,
      "Create": 7734,
      "del": 7735,
      "cean": 7736,
      "Ġven": 7737,
      "opath": 7738,
      "Ġclock": 7739,
      "Ġadults": 7740,
      "}}^": 7741,
      "Ġeffectively": 7742,
      "Ġconsideration": 7743,
      "Ġturns": 7744,
      "Ġrelationships": 7745,
      "Ġorders": 7746,
      "Ġinequality": 7747,
      "inite": 7748,
      "orption": 7749,
      "Ġreb": 7750,
      "ĠSing": 7751,
      "ĠLemma": 7752,
      "ĠEduc": 7753,
      "Ġ39": 7754,
      "Ġmanip": 7755,
      "Ġmanifest": 7756,
      "ontal": 7757,
      "ĠProject": 7758,
      "buk": 7759,
      "equal": 7760,
      "Ġsuccessfully": 7761,
      "ĠÎ²": 7762,
      "Ġinformed": 7763,
      "Ġchallenges": 7764,
      "ĠInstead": 7765,
      "\"),": 7766,
      "400": 7767,
      "Am": 7768,
      "Ġsorry": 7769,
      "Ġfan": 7770,
      "Ġfol": 7771,
      "Ġalt": 7772,
      "ĠName": 7773,
      "uster": 7774,
      "erman": 7775,
      "Ġtestified": 7776,
      "Ġdenomin": 7777,
      "Ġcere": 7778,
      "Ġrecognized": 7779,
      "________________": 7780,
      "Ġsplit": 7781,
      "Base": 7782,
      "MENT": 7783,
      "dm": 7784,
      "ja": 7785,
      "Ġì": 7786,
      "Ġbought": 7787,
      "ructure": 7788,
      "Ġsmok": 7789,
      "Ġsingular": 7790,
      "Part": 7791,
      "UE": 7792,
      "ba": 7793,
      "čĊĠĠĠĠĠĠĠĠĠĠĠ": 7794,
      "rey": 7795,
      "esity": 7796,
      "asure": 7797,
      "uts": 7798,
      "search": 7799,
      "ĠChe": 7800,
      "forms": 7801,
      "Ġpregn": 7802,
      "Ġpartner": 7803,
      "\\]).": 7804,
      "Ġacting": 7805,
      "ĠChicago": 7806,
      "Ġextends": 7807,
      "Ġrequirement": 7808,
      "ĠObject": 7809,
      "Ġfunds": 7810,
      "').": 7811,
      "Row": 7812,
      "]$": 7813,
      "draw": 7814,
      "jud": 7815,
      "men": 7816,
      "etal": 7817,
      "Ġnarr": 7818,
      "ifferent": 7819,
      "Ġvitro": 7820,
      "âĢĿ,": 7821,
      ",\\,": 7822,
      "2005": 7823,
      "ĠApple": 7824,
      "Ġpolitics": 7825,
      "Ġpredicted": 7826,
      "Manager": 7827,
      "Ġstatistical": 7828,
      "RT": 7829,
      "jpg": 7830,
      "çļ": 7831,
      "Ġbanks": 7832,
      "irty": 7833,
      "ests": 7834,
      "Ġ\\>": 7835,
      "ĠInformation": 7836,
      "Ġraise": 7837,
      "para": 7838,
      "Ġdecide": 7839,
      "2016": 7840,
      "Ġskills": 7841,
      "Ġcharacterized": 7842,
      "Ġepit": 7843,
      "Ġsatisfied": 7844,
      ":\"": 7845,
      "=(": 7846,
      "han": 7847,
      "zz": 7848,
      "rep": 7849,
      "Ġcities": 7850,
      "Ġfaster": 7851,
      "Ġboot": 7852,
      "Ġrevers": 7853,
      "ĠTim": 7854,
      "uls": 7855,
      "Ġrough": 7856,
      "Ġneither": 7857,
      "Ġ-!-": 7858,
      "Ġshadow": 7859,
      "Ġ46": 7860,
      "Ġconstraint": 7861,
      "Ġhomes": 7862,
      "Frame": 7863,
      "df": 7864,
      "wer": 7865,
      "seud": 7866,
      "ĠFour": 7867,
      "eller": 7868,
      "ducing": 7869,
      "Ġconsists": 7870,
      "ĠWeb": 7871,
      "Ġcolle": 7872,
      "ollowing": 7873,
      "Ġfeels": 7874,
      "Ġexpensive": 7875,
      "Ġcommonly": 7876,
      "hemat": 7877,
      "Ġlegisl": 7878,
      "!\\": 7879,
      "\").": 7880,
      "SO": 7881,
      "Ġterror": 7882,
      "Ġalcohol": 7883,
      "Ġbutton": 7884,
      "Ġpert": 7885,
      "ĠStar": 7886,
      "ĠÂ£": 7887,
      "Ġpathways": 7888,
      "Ġcorrespond": 7889,
      "Which": 7890,
      "matrix": 7891,
      "ĠWilliam": 7892,
      "Builder": 7893,
      "Ġarrangement": 7894,
      "rapeut": 7895,
      "Ġtoler": 7896,
      "Ġforum": 7897,
      "Ġstaining": 7898,
      "ifies": 7899,
      "ĠBer": 7900,
      "ĠFed": 7901,
      "Ġproved": 7902,
      "Ġattribut": 7903,
      "Ġinfo": 7904,
      "Ġpossession": 7905,
      "coin": 7906,
      "genes": 7907,
      "Ġfourth": 7908,
      "float": 7909,
      "Ġstreet": 7910,
      "iliar": 7911,
      "Ġwidely": 7912,
      "%),": 7913,
      "OK": 7914,
      "match": 7915,
      "Ġosc": 7916,
      "Ġreplic": 7917,
      "ĠSD": 7918,
      "Ġ120": 7919,
      "abet": 7920,
      "acent": 7921,
      "Ġsuff": 7922,
      "ĠFT": 7923,
      "lectric": 7924,
      "Ġretrie": 7925,
      "ĠFrance": 7926,
      "_-_-": 7927,
      "ĠCle": 7928,
      "ifts": 7929,
      "ĠHaw": 7930,
      "ĠRom": 7931,
      "Ġ1999": 7932,
      "255": 7933,
      "]{.": 7934,
      "Ġpossess": 7935,
      "Ġlowest": 7936,
      "Ġfunding": 7937,
      "Ġfraud": 7938,
      "Ġfabric": 7939,
      "Ġvideos": 7940,
      "ĠIr": 7941,
      "ayout": 7942,
      "ĠBit": 7943,
      "icket": 7944,
      "theless": 7945,
      "Ġprices": 7946,
      "ĠUSDHC": 7947,
      "USDHC": 7948,
      "Ġexamination": 7949,
      "Ġfavorite": 7950,
      "ĠMartin": 7951,
      "&&": 7952,
      "EW": 7953,
      "Pr": 7954,
      "json": 7955,
      "rehens": 7956,
      "Ġbeam": 7957,
      "ĠAir": 7958,
      "Ġdelet": 7959,
      "ĠRay": 7960,
      "ildren": 7961,
      "STR": 7962,
      "ĠDescription": 7963,
      "Ġcleaning": 7964,
      "Ġframework": 7965,
      "triangle": 7966,
      "ĠAppeals": 7967,
      "ki": 7968,
      "uv": 7969,
      "čĊĠ": 7970,
      "ĠmRNA": 7971,
      "asy": 7972,
      "Ġthin": 7973,
      "============": 7974,
      "Ġexpr": 7975,
      "Ġ-->": 7976,
      "Ġsuspect": 7977,
      "called": 7978,
      "Ġdollars": 7979,
      "Where": 7980,
      "Ġanc": 7981,
      "ota": 7982,
      "Ġcompetition": 7983,
      "Ġinteract": 7984,
      "Ġsubgroup": 7985,
      "Ġbroken": 7986,
      "graber": 7987,
      "Ġpreferred": 7988,
      "Ġshooting": 7989,
      "Ġscientific": 7990,
      "Ġconjug": 7991,
      "bukkit": 7992,
      "HER": 7993,
      "isco": 7994,
      "Ġbone": 7995,
      "Ġmand": 7996,
      "ĠIV": 7997,
      "elled": 7998,
      "ĠGa": 7999,
      "dule": 8000,
      ")))": 8001,
      "Ġmedian": 8002,
      "Although": 8003,
      "Ġemergency": 8004,
      "%.": 8005,
      "Back": 8006,
      "chen": 8007,
      "iples": 8008,
      "Ġtight": 8009,
      "Ġcb": 8010,
      "Ġfre": 8011,
      "Ġfuel": 8012,
      "ĠAff": 8013,
      "ander": 8014,
      "Ġperipher": 8015,
      "Ġspending": 8016,
      "Ġspaces": 8017,
      "Ġteaching": 8018,
      "mathfrak": 8019,
      "ĠIts": 8020,
      "Ġclassical": 8021,
      "Ġterminal": 8022,
      "2012": 8023,
      "Ġcausing": 8024,
      "ployment": 8025,
      "Ġsensors": 8026,
      "Ġmassive": 8027,
      "Ġtelling": 8028,
      "Ġconstructed": 8029,
      "<?": 8030,
      "Rel": 8031,
      "pu": 8032,
      "Ġcreat": 8033,
      "Ġfilled": 8034,
      "âĢĺ": 8035,
      "Ġvill": 8036,
      "ĠEqu": 8037,
      "Ġcontribution": 8038,
      "Ġacute": 8039,
      "oxid": 8040,
      "ĠQue": 8041,
      "Ġheader": 8042,
      "ĠJohnson": 8043,
      "Ġpairs": 8044,
      "Ġspatial": 8045,
      "cf": 8046,
      "inance": 8047,
      "ĠMem": 8048,
      "ĠMag": 8049,
      "ĠDen": 8050,
      "Ġdiscretion": 8051,
      "ĊĊĉ": 8052,
      "Ġregression": 8053,
      "ucose": 8054,
      "ĠOrgan": 8055,
      "hydro": 8056,
      "Ġstrongly": 8057,
      "Ġcomplaint": 8058,
      "Ġsemiconductor": 8059,
      "Ġnumerical": 8060,
      "Ċĉĉĉĉĉĉĉĉĉ": 8061,
      "çļĦ": 8062,
      "sup": 8063,
      "roduction": 8064,
      "ĠAF": 8065,
      "ĠAT": 8066,
      "Ġpropos": 8067,
      "ĠBern": 8068,
      "Ġsuc": 8069,
      "Ġresource": 8070,
      "ĠJo": 8071,
      "ĠJer": 8072,
      "ĠThursday": 8073,
      "axis": 8074,
      "overrightarrow": 8075,
      "Ġcourts": 8076,
      "Ġestate": 8077,
      "ropy": 8078,
      "mediate": 8079,
      "Ġassumed": 8080,
      "++)": 8081,
      "Ġsettings": 8082,
      "Ġconflict": 8083,
      "nbsp": 8084,
      "ĠFlorida": 8085,
      "Car": 8086,
      "Tab": 8087,
      "current": 8088,
      "Ġsouth": 8089,
      "Ġfont": 8090,
      "ĠEnd": 8091,
      "ĠEarth": 8092,
      "agger": 8093,
      "ĠOffic": 8094,
      "Ġ56": 8095,
      "Ġfeas": 8096,
      "Ġmarked": 8097,
      "Ġtechnical": 8098,
      "grade": 8099,
      "clusions": 8100,
      "Ġdangerous": 8101,
      "mov": 8102,
      "nam": 8103,
      "txt": 8104,
      "zym": 8105,
      "lements": 8106,
      "Ġscores": 8107,
      "Ġregister": 8108,
      "Ġdiscrim": 8109,
      "Ġtopic": 8110,
      "Ġprimarily": 8111,
      "Deserial": 8112,
      "ĠInternet": 8113,
      "Ġhoriz": 8114,
      "Ġcircul": 8115,
      "'.": 8116,
      "CP": 8117,
      "High": 8118,
      "Loc": 8119,
      "di": 8120,
      "Ġmouse": 8121,
      "icular": 8122,
      "icious": 8123,
      "Ġreact": 8124,
      "Ġeating": 8125,
      "Ġran": 8126,
      "ello": 8127,
      "reek": 8128,
      "erves": 8129,
      "250": 8130,
      "2018": 8131,
      "annel": 8132,
      "Ġclosely": 8133,
      "Ġvisualization": 8134,
      "ĠDemocrats": 8135,
      "Ġwatching": 8136,
      "Ġtelephone": 8137,
      "UI": 8138,
      "ĊČ": 8139,
      "only": 8140,
      "Ġment": 8141,
      "Ġlen": 8142,
      "âĢ¢": 8143,
      "rage": 8144,
      "ĠAcc": 8145,
      "ĠArab": 8146,
      "**,": 8147,
      "usal": 8148,
      "Ġrum": 8149,
      "Ġphilos": 8150,
      "Ġhelps": 8151,
      "Ġowned": 8152,
      "Char": 8153,
      "ĠMaybe": 8154,
      "ĠChristmas": 8155,
      "Ġdenominator": 8156,
      "BU": 8157,
      "PIN": 8158,
      "bal": 8159,
      "fit": 8160,
      "kins": 8161,
      "Ġsong": 8162,
      "Ġrenal": 8163,
      "Ġna": 8164,
      "Ġforget": 8165,
      "Ġalleg": 8166,
      "ested": 8167,
      "ĠWindows": 8168,
      "Ġevening": 8169,
      "Ġfinished": 8170,
      "Ġschoolgirl": 8171,
      "Ġpayments": 8172,
      "Ġemployee": 8173,
      "ULT": 8174,
      "Ġupdated": 8175,
      "Go": 8176,
      "SQL": 8177,
      "Ġtit": 8178,
      "alind": 8179,
      "edding": 8180,
      "stood": 8181,
      "ĠCamp": 8182,
      "rays": 8183,
      "Ġ${": 8184,
      "ĠMiller": 8185,
      "Ġdefe": 8186,
      "orthern": 8187,
      "ĠGar": 8188,
      "ĠVol": 8189,
      "plet": 8190,
      "Ġproducing": 8191,
      "Ġgeneric": 8192,
      "mean": 8193,
      "Ġstarts": 8194,
      "Ġobservation": 8195,
      "Command": 8196,
      "Ġdefendants": 8197,
      "Ġsensor": 8198,
      "avelength": 8199,
      "Mar": 8200,
      "]);": 8201,
      "such": 8202,
      "Ġgold": 8203,
      "ĠTaylor": 8204,
      "ĠRad": 8205,
      "Ġsole": 8206,
      "ĊĊĠĠĠĠĠĠĠĠĠĠĠĠĠĠĠĠĠĠĠĠĠĠĠĠĠĠĠĠĠĠĠĠ": 8207,
      "Ġ',": 8208,
      "linear": 8209,
      "show": 8210,
      "Ġfacilities": 8211,
      "Ġtissues": 8212,
      "Ġabsolute": 8213,
      "ĠStandards": 8214,
      "possible": 8215,
      "fi": 8216,
      "atric": 8217,
      "Ġgly": 8218,
      "teen": 8219,
      "ĠLog": 8220,
      "orted": 8221,
      "ĠRead": 8222,
      "Ġinjuries": 8223,
      "Content": 8224,
      "ĠCentral": 8225,
      "inem": 8226,
      "Ġfruit": 8227,
      "Ġbath": 8228,
      "ĠCy": 8229,
      "Ġstability": 8230,
      "Ġhem": 8231,
      "Ġplastic": 8232,
      "Ġdoctor": 8233,
      "ateral": 8234,
      "ĠReal": 8235,
      "otten": 8236,
      "offset": 8237,
      "EXT": 8238,
      "Ġstimul": 8239,
      "Ġruling": 8240,
      "Ġconvenient": 8241,
      "ampionship": 8242,
      "pet": 8243,
      "isters": 8244,
      "Ġdecom": 8245,
      "creen": 8246,
      "Ġrecording": 8247,
      "ĠUnapproved": 8248,
      "Ġapproval": 8249,
      "2013": 8250,
      "iki": 8251,
      "Ġesc": 8252,
      "Ġphotos": 8253,
      "Ġmissed": 8254,
      "Arg": 8255,
      "Who": 8256,
      "Ġ}}": 8257,
      "rosc": 8258,
      "terday": 8259,
      "ĠMont": 8260,
      "Ġexposed": 8261,
      "Ġ<=": 8262,
      "nections": 8263,
      "Ġnoise": 8264,
      "Ġ72": 8265,
      "Ġcoron": 8266,
      "NAME": 8267,
      "Ġinhibitors": 8268,
      "Ġremoval": 8269,
      "charge": 8270,
      "Ġcomplicated": 8271,
      "otherapy": 8272,
      "$(": 8273,
      "LS": 8274,
      "isor": 8275,
      "Ġnerve": 8276,
      "ĠHall": 8277,
      "ĠEX": 8278,
      "Ġ[~": 8279,
      "Ġresc": 8280,
      "ultaneous": 8281,
      "Ġ43": 8282,
      "Ġinvent": 8283,
      "Ġtranscript": 8284,
      "Ġcommunications": 8285,
      "xiety": 8286,
      "Ġutilized": 8287,
      "Ġrejected": 8288,
      "Vis": 8289,
      "Xiv": 8290,
      "sa": 8291,
      "tab": 8292,
      "Ġsitting": 8293,
      "Ġsports": 8294,
      "Ġstages": 8295,
      "ĠMult": 8296,
      "ivo": 8297,
      "Ġneural": 8298,
      "Ġactors": 8299,
      "Ġcommission": 8300,
      "Ġrob": 8301,
      "Ġjustice": 8302,
      "Ġidentical": 8303,
      "Ġargues": 8304,
      "Ġtargets": 8305,
      "Ġmolecules": 8306,
      "oplus": 8307,
      "SWAP": 8308,
      "ĠMexico": 8309,
      "Ġdegrees": 8310,
      "Open": 8311,
      "Target": 8312,
      "kay": 8313,
      "rl": 8314,
      "Ġlaser": 8315,
      "iginal": 8316,
      "ĠMethod": 8317,
      "Ġrational": 8318,
      "ella": 8319,
      "ĠStr": 8320,
      "obe": 8321,
      "Ġintervention": 8322,
      "ymmet": 8323,
      "Ġrealize": 8324,
      "Ġprofession": 8325,
      "ĠFranc": 8326,
      "Ġessentially": 8327,
      "Ġsyndrome": 8328,
      "iology": 8329,
      "yer": 8330,
      "Ġwww": 8331,
      "ĠLie": 8332,
      "Ġclar": 8333,
      "),(": 8334,
      "Ġuniversity": 8335,
      "Ġdefic": 8336,
      "Ġsubs": 8337,
      "Stream": 8338,
      "Ġlocations": 8339,
      "Ġgrid": 8340,
      "Ġinitially": 8341,
      "ogenic": 8342,
      "Override": 8343,
      "Ġemotional": 8344,
      "TG": 8345,
      "Tem": 8346,
      "flu": 8347,
      "ih": 8348,
      "uan": 8349,
      "uke": 8350,
      "Ġped": 8351,
      "ĠSun": 8352,
      "ĠCr": 8353,
      "Ġconversion": 8354,
      "udio": 8355,
      "Ġcompact": 8356,
      "cked": 8357,
      "project": 8358,
      "Ġraw": 8359,
      "ĠAnother": 8360,
      "ĠIndeed": 8361,
      "Ġcritic": 8362,
      "Ġmetabolism": 8363,
      "BT": 8364,
      "DO": 8365,
      "overs": 8366,
      "ora": 8367,
      "Ġpix": 8368,
      "Ġban": 8369,
      "Ġlots": 8370,
      "Ġclients": 8371,
      "Ġadequ": 8372,
      "Ġ59": 8373,
      "Ġassault": 8374,
      "Ġemission": 8375,
      "Ġtrip": 8376,
      "Ġweekend": 8377,
      "Ġattacks": 8378,
      "Ġmerely": 8379,
      "Buffer": 8380,
      "EO": 8381,
      "mode": 8382,
      "uh": 8383,
      "Ġcav": 8384,
      "uscript": 8385,
      "Ġhero": 8386,
      "occul": 8387,
      "ĠJournal": 8388,
      "aked": 8389,
      "conv": 8390,
      "Ġclaimed": 8391,
      "Ġprediction": 8392,
      "Ġarticles": 8393,
      "Ġinstitutions": 8394,
      "Load": 8395,
      "Note": 8396,
      "gress": 8397,
      "ician": 8398,
      "vector": 8399,
      "ĠCap": 8400,
      "ĠMiss": 8401,
      "ĠRP": 8402,
      "ensus": 8403,
      "}}{\\": 8404,
      "Ġaccel": 8405,
      "Ġreads": 8406,
      "ĠSche": 8407,
      "Ġenhanced": 8408,
      "Ġbattery": 8409,
      "ĠSoftware": 8410,
      "dh": 8411,
      "alian": 8412,
      "Ġnarrow": 8413,
      "Ġluck": 8414,
      "ĠTown": 8415,
      "osh": 8416,
      "ĠWIT": 8417,
      "roups": 8418,
      "ĠUs": 8419,
      "apse": 8420,
      "Thank": 8421,
      "Ġexplore": 8422,
      "2006": 8423,
      "Ġopposite": 8424,
      "Ġemployer": 8425,
      "Ġsurrounding": 8426,
      "Ġexplanation": 8427,
      ")}$": 8428,
      "BM": 8429,
      "DNA": 8430,
      "dep": 8431,
      "Ġwood": 8432,
      "Ġfish": 8433,
      "Ġtoken": 8434,
      "oder": 8435,
      "Ġprotest": 8436,
      "ĠPT": 8437,
      "Ġkernel": 8438,
      "}}_{": 8439,
      "196": 8440,
      "Ġhelpful": 8441,
      "Ġeditor": 8442,
      "Ġhumans": 8443,
      "Ġdeaths": 8444,
      "Ġtwice": 8445,
      "Ġhonest": 8446,
      "Ġcrystal": 8447,
      "Ġcohort": 8448,
      "occulant": 8449,
      "$)": 8450,
      "BP": 8451,
      "Case": 8452,
      "Gu": 8453,
      "IA": 8454,
      "craft": 8455,
      "foot": 8456,
      "ua": 8457,
      "inant": 8458,
      "Ġtheore": 8459,
      "ashed": 8460,
      "etry": 8461,
      "access": 8462,
      "Ġseed": 8463,
      "Ġretire": 8464,
      "Ġcorner": 8465,
      "Ġ1996": 8466,
      "Ġcurves": 8467,
      "Param": 8468,
      "Ġantibodies": 8469,
      "Ġoscill": 8470,
      "isely": 8471,
      "edu": 8472,
      "Ġpor": 8473,
      "estic": 8474,
      "ĠBook": 8475,
      "Ġorth": 8476,
      "=\"../../": 8477,
      "Ġ63": 8478,
      "Ġmodify": 8479,
      "Ġbranch": 8480,
      "Ġencoun": 8481,
      "LookupKey": 8482,
      "TGenLookupKey": 8483,
      "American": 8484,
      "bool": 8485,
      "ĊĊĠĠĠĠĠĠĠĠĠĠĠĠĠĠĠ": 8486,
      "ĠĊĠĠĠĠĠĠĠĠĠĠĠ": 8487,
      "Ġnm": 8488,
      "Ġstret": 8489,
      "Ġ1000": 8490,
      "Ġwear": 8491,
      "ĠBill": 8492,
      "antic": 8493,
      "ĠNav": 8494,
      "Ġobesity": 8495,
      "Ġdesire": 8496,
      "Ġcellular": 8497,
      "Ġmatches": 8498,
      "Ġwrt": 8499,
      "Ġputting": 8500,
      "Column": 8501,
      "slangasek": 8502,
      ".**": 8503,
      "Even": 8504,
      "Mon": 8505,
      "wing": 8506,
      "Ġcaught": 8507,
      "Ġmouth": 8508,
      "Ġduk": 8509,
      "eli": 8510,
      "ĠCare": 8511,
      "Ġsegment": 8512,
      "Ġserendipity": 8513,
      "Ġabund": 8514,
      "weet": 8515,
      "arks": 8516,
      "ecut": 8517,
      "elfy": 8518,
      "Ġsupplement": 8519,
      "Ġfees": 8520,
      "\"})": 8521,
      "ĠReview": 8522,
      "Ġworry": 8523,
      "Ġexperts": 8524,
      "ĠIsland": 8525,
      "ĠPlaintiff": 8526,
      "Ġviolation": 8527,
      "Ġinstalled": 8528,
      "ĠJewish": 8529,
      "Action": 8530,
      "EY": 8531,
      "cel": 8532,
      "Ġsand": 8533,
      "Ġmapping": 8534,
      "ivered": 8535,
      "ĠER": 8536,
      "ĠEll": 8537,
      "Ġmanuscript": 8538,
      "Ġinstruction": 8539,
      "Ġreporting": 8540,
      "azine": 8541,
      "Ġobjective": 8542,
      "ĠOrder": 8543,
      "Ġamounts": 8544,
      "ĠCarol": 8545,
      "Ġmuscle": 8546,
      "Ġcompliance": 8547,
      "AGE": 8548,
      "Ġphosphory": 8549,
      "smallcaps": 8550,
      "Ġroute": 8551,
      "Ġprevalence": 8552,
      "BD": 8553,
      "MAS": 8554,
      "Ġcrow": 8555,
      "Ġfav": 8556,
      "Ġnorth": 8557,
      "ila": 8558,
      "ĠChem": 8559,
      "ĠDiv": 8560,
      "ĠLine": 8561,
      "Ġchair": 8562,
      "Ġmanage": 8563,
      "Ġrelax": 8564,
      "Ġinstructions": 8565,
      "170": 8566,
      "Ġcris": 8567,
      "Prov": 8568,
      "Ġperiods": 8569,
      "Listener": 8570,
      ")*(-": 8571,
      "Ġperspective": 8572,
      "Point": 8573,
      "diction": 8574,
      "files": 8575,
      "ĠTenn": 8576,
      "ellar": 8577,
      "Ġalloc": 8578,
      "Ġarms": 8579,
      "Input": 8580,
      "Ġ&=": 8581,
      "ighter": 8582,
      "Strict": 8583,
      "Ġsimultaneous": 8584,
      "Ġextend": 8585,
      "blank": 8586,
      "Ġrequested": 8587,
      "ĠMedical": 8588,
      "bro": 8589,
      "cas": 8590,
      "xc": 8591,
      "Ġtheorem": 8592,
      "Ġfellow": 8593,
      "ĠIR": 8594,
      "Ġvision": 8595,
      "Ġexceed": 8596,
      "ĠLife": 8597,
      "ĠJones": 8598,
      "Ġouter": 8599,
      "Ġ$\\{": 8600,
      "Thanks": 8601,
      "304": 8602,
      "Ġherein": 8603,
      "2009": 8604,
      "ĠClub": 8605,
      "Ġtreatments": 8606,
      "grad": 8607,
      "Ġautomatically": 8608,
      "ĠSecurity": 8609,
      "Ġdynamic": 8610,
      "Ġsupra": 8611,
      "ĠMuslim": 8612,
      "Function": 8613,
      "Util": 8614,
      "_,": 8615,
      "ati": 8616,
      "ilton": 8617,
      "idem": 8618,
      "adv": 8619,
      "acob": 8620,
      "Ġhell": 8621,
      "Ġbytes": 8622,
      "ĠHospital": 8623,
      "ĠHuman": 8624,
      "Ġ*)": 8625,
      "Ġleague": 8626,
      "claim": 8627,
      "Ġsurgical": 8628,
      "Ġinvolves": 8629,
      "III": 8630,
      "Ġinhibitor": 8631,
      "ski": 8632,
      "ĠDisney": 8633,
      "aturally": 8634,
      "ï¼Į": 8635,
      "Ġtalent": 8636,
      "FC": 8637,
      "Page": 8638,
      "life": 8639,
      "rb": 8640,
      "onical": 8641,
      "ĠmM": 8642,
      "icast": 8643,
      "ĠSil": 8644,
      "Ġconsole": 8645,
      "Ġiter": 8646,
      "ĠBig": 8647,
      "Ġadmin": 8648,
      "avas": 8649,
      "120": 8650,
      "Ġ99": 8651,
      "AST": 8652,
      "Ġincred": 8653,
      "Ġargued": 8654,
      "REE": 8655,
      "Ġimplemented": 8656,
      "Ġpieces": 8657,
      "Ġpolymer": 8658,
      "Ġapparently": 8659,
      "Ġobserve": 8660,
      "ĠVirgin": 8661,
      "rapeutic": 8662,
      "Find": 8663,
      "Write": 8664,
      "hash": 8665,
      "Â®": 8666,
      "utory": 8667,
      "lymp": 8668,
      "ĠCps": 8669,
      "ĠJose": 8670,
      "Ġdisput": 8671,
      "ictor": 8672,
      "Ġsubset": 8673,
      "Ġrelief": 8674,
      "Ġcontainer": 8675,
      "Ġpromote": 8676,
      "Ġcommittee": 8677,
      "athered": 8678,
      "ĠAttorney": 8679,
      "*/": 8680,
      "Ev": 8681,
      "Mode": 8682,
      "SION": 8683,
      "dri": 8684,
      "eper": 8685,
      "ko": 8686,
      "when": 8687,
      "Ġtor": 8688,
      "Ġbars": 8689,
      "asive": 8690,
      "step": 8691,
      "ĠRoman": 8692,
      "arden": 8693,
      "Ġretail": 8694,
      "Ġworst": 8695,
      "Ġlisten": 8696,
      "Ġconcerning": 8697,
      "Ġscreening": 8698,
      "'(": 8699,
      "Layout": 8700,
      "Right": 8701,
      "Using": 8702,
      "[**": 8703,
      "cS": 8704,
      "});": 8705,
      "åħ": 8706,
      "ellee": 8707,
      "ĠPRO": 8708,
      "Ġwaste": 8709,
      "opes": 8710,
      "ĠFA": 8711,
      "Ġanyway": 8712,
      "Ġ88": 8713,
      "Ġhelping": 8714,
      "386": 8715,
      "Ġtwenty": 8716,
      "Ġcustomer": 8717,
      "Ġsymmetry": 8718,
      "FO": 8719,
      "HP": 8720,
      "System": 8721,
      "bial": 8722,
      "mitting": 8723,
      "vial": 8724,
      "Ġast": 8725,
      "Ġcars": 8726,
      "ester": 8727,
      "Ġnative": 8728,
      "second": 8729,
      "ĠRT": 8730,
      "ĠNS": 8731,
      "perties": 8732,
      "ressing": 8733,
      "ĠThanks": 8734,
      "Ġknock": 8735,
      "Ġdepart": 8736,
      "ĠClinton": 8737,
      "tenance": 8738,
      "Ġtotally": 8739,
      "Ġresponsibility": 8740,
      "URL": 8741,
      "ĠRepublicans": 8742,
      "Ġhotel": 8743,
      "Ġconvergence": 8744,
      "Ġscenario": 8745,
      "subseteq": 8746,
      "ĠOhio": 8747,
      "People": 8748,
      "ĠWARRAN": 8749,
      "Other": 8750,
      "WAR": 8751,
      "ĠAS": 8752,
      "ĠMax": 8753,
      "ĠPeter": 8754,
      "conf": 8755,
      "Ġserial": 8756,
      "Ġelig": 8757,
      "2014": 8758,
      "\":**": 8759,
      "Ġsuperior": 8760,
      "Ġfacility": 8761,
      "Ġeducational": 8762,
      "Ġlaboratory": 8763,
      "Max": 8764,
      "]-": 8765,
      "Ġwarn": 8766,
      "Ġmic": 8767,
      "Ġgender": 8768,
      "Ġalign": 8769,
      "**\"": 8770,
      "ĠExt": 8771,
      "aped": 8772,
      "Ġdispl": 8773,
      "never": 8774,
      "ĠStat": 8775,
      "Ġunderstood": 8776,
      "Ġfeat": 8777,
      "Ġattend": 8778,
      "Ġminister": 8779,
      "}^{(": 8780,
      "number": 8781,
      "Ġrisks": 8782,
      "vo": 8783,
      "Ġaver": 8784,
      "ulp": 8785,
      "osity": 8786,
      "ĠWhere": 8787,
      "ĠLos": 8788,
      ".\"\"": 8789,
      "Ġ[]": 8790,
      "ĠJim": 8791,
      "reatment": 8792,
      "append": 8793,
      "Ġmeta": 8794,
      "Ġsignificance": 8795,
      "Ġpurs": 8796,
      "Another": 8797,
      "Ġearth": 8798,
      "Ġounces": 8799,
      "Ġconversation": 8800,
      "BG": 8801,
      "Det": 8802,
      "bound": 8803,
      "method": 8804,
      "tage": 8805,
      "ÃĹ": 8806,
      "itational": 8807,
      "alg": 8808,
      "Ġbits": 8809,
      "Ġbott": 8810,
      "ainer": 8811,
      "ĠRef": 8812,
      "Ġcomprehens": 8813,
      "next": 8814,
      "ICE": 8815,
      "Ġpayment": 8816,
      "Ġintegration": 8817,
      "ĠEducation": 8818,
      "$_": 8819,
      "020": 8820,
      "Because": 8821,
      "NN": 8822,
      "amination": 8823,
      "Ġalpha": 8824,
      "Ġinternet": 8825,
      "ymbol": 8826,
      "Ġfamous": 8827,
      "Ġlogic": 8828,
      "Ġpersons": 8829,
      "Ġdimensions": 8830,
      "layer": 8831,
      "Ġopportunities": 8832,
      "Ġtrigger": 8833,
      "YPE": 8834,
      "ĠKorea": 8835,
      "?âĢĿ": 8836,
      "cuss": 8837,
      "Ġpitch": 8838,
      "Ġmethyl": 8839,
      "ĠIg": 8840,
      "Ġplain": 8841,
      "ĠContin": 8842,
      "factory": 8843,
      "Ġdamages": 8844,
      "Ġcontributions": 8845,
      "Ġabsolutely": 8846,
      "EA": 8847,
      "GO": 8848,
      "phen": 8849,
      "split": 8850,
      "organ": 8851,
      "Ġmamm": 8852,
      "ĠAv": 8853,
      "ĠBoston": 8854,
      "Ġsector": 8855,
      "ĠFile": 8856,
      "ĠLew": 8857,
      "ĠGiven": 8858,
      "ĠUse": 8859,
      "Ġdiameter": 8860,
      "ĠCommon": 8861,
      "3333": 8862,
      "Ġsolve": 8863,
      "Ġmeasuring": 8864,
      "Ġbreath": 8865,
      "Ġstanding": 8866,
      "forward": 8867,
      "AAAA": 8868,
      "Ġdisclosed": 8869,
      "ĠAngeles": 8870,
      "ĠJeff": 8871,
      "Cons": 8872,
      "Client": 8873,
      "]\\": 8874,
      "dig": 8875,
      "push": 8876,
      "rent": 8877,
      "utch": 8878,
      "ĠDVD": 8879,
      "oster": 8880,
      "Ġplants": 8881,
      "Ġtransformation": 8882,
      "ACE": 8883,
      "Ġ1995": 8884,
      "Ġfitness": 8885,
      "Ġultimately": 8886,
      "Ġfundamental": 8887,
      "dw": 8888,
      "ady": 8889,
      "Ġplanned": 8890,
      "ĠVan": 8891,
      "Ġsubt": 8892,
      "ĠProte": 8893,
      "2001": 8894,
      "remove": 8895,
      "Ġdelivered": 8896,
      "Ġdriven": 8897,
      "Ġoriginally": 8898,
      "Ġcommitment": 8899,
      "Ġmixture": 8900,
      "Handler": 8901,
      "ui": 8902,
      "Ġtro": 8903,
      "isons": 8904,
      "Ġhidden": 8905,
      "Ġforg": 8906,
      "Ġyeah": 8907,
      "ĠĠĠĠĠĠĠĠĠĠĠĠĠĠĠĠĠĠĠĠĠĠĠĠĠĠ": 8908,
      "Ġ=\\": 8909,
      "ĠNever": 8910,
      "Ġlemon": 8911,
      "Ġ47": 8912,
      "Ġ53": 8913,
      "Ġpermission": 8914,
      "Ġscr": 8915,
      "InItem": 8916,
      "prod": 8917,
      "Ġinval": 8918,
      "Ġpractices": 8919,
      "692": 8920,
      "ijms": 8921,
      "Ġcopyright": 8922,
      "Ġmaintained": 8923,
      "ãĢĤ": 8924,
      "Ġcorporate": 8925,
      "600": 8926,
      "Fe": 8927,
      "Mr": 8928,
      "}_\\": 8929,
      "Ġbattle": 8930,
      "Ġmos": 8931,
      "Ġhorm": 8932,
      "oly": 8933,
      "uma": 8934,
      "ĠPak": 8935,
      "Ġrid": 8936,
      "bert": 8937,
      "Ġintervals": 8938,
      "icken": 8939,
      "Ġadvoc": 8940,
      "Ġrequests": 8941,
      "ĠSeries": 8942,
      "Ġmacro": 8943,
      "Ġbulk": 8944,
      "ĠTGenGroupByEnumerator": 8945,
      "friend": 8946,
      "DER": 8947,
      "Label": 8948,
      "Two": 8949,
      "_>": 8950,
      "nor": 8951,
      "sign": 8952,
      "ī¥": 8953,
      "Ġpseud": 8954,
      "Ġmiles": 8955,
      "else": 8956,
      "Ġprohib": 8957,
      "ĠDate": 8958,
      "ĠHarr": 8959,
      "Ġsharing": 8960,
      "Ġbeta": 8961,
      "Ġsubmitted": 8962,
      "everal": 8963,
      "Ġextreme": 8964,
      "Ġdecade": 8965,
      "ĠÂµ": 8966,
      "Ġoperate": 8967,
      "Ġrespective": 8968,
      "option": 8969,
      "private": 8970,
      "Ġmarketing": 8971,
      "Ġdisplayed": 8972,
      "Ġsatisfy": 8973,
      "Ġprinciples": 8974,
      "Ġrecommended": 8975,
      "Ġdynamics": 8976,
      "Ġhundreds": 8977,
      "Ġingred": 8978,
      "({\\": 8979,
      "Ġwaves": 8980,
      "ald": 8981,
      "anel": 8982,
      "entry": 8983,
      "ĠSpe": 8984,
      "ĠĠĠĠĠĠĠĠĠĠĠĠĠĠĠĠĠĠĠĠĠ": 8985,
      "Ġru": 8986,
      "Ġprev": 8987,
      "Ġpresents": 8988,
      "CTION": 8989,
      "Ġreviews": 8990,
      "Response": 8991,
      "ĠSpring": 8992,
      "Ġcloser": 8993,
      "Ġcollabor": 8994,
      "Ġwalking": 8995,
      "ĠGerman": 8996,
      "Ġchromos": 8997,
      "Ġsweet": 8998,
      "Ġcopies": 8999,
      "Ġneutral": 9000,
      "Ġvertical": 9001,
      "Ġrestaurant": 9002,
      "Ġenforcement": 9003,
      "ĠArmy": 9004,
      "ĠRichard": 9005,
      "Many": 9006,
      "}-\\": 9007,
      "onym": 9008,
      "Ġnod": 9009,
      "imb": 9010,
      "ĠGold": 9011,
      "Ġtruck": 9012,
      "aux": 9013,
      "Ġroy": 9014,
      "Ġsignature": 9015,
      "Ġflag": 9016,
      "Ġcounts": 9017,
      "................": 9018,
      "Ġtransferred": 9019,
      "Ġdedu": 9020,
      "Ġincubated": 9021,
      "Ġperipheral": 9022,
      "/]": 9023,
      "Every": 9024,
      "iams": 9025,
      "Ġsick": 9026,
      "eness": 9027,
      "Ġmes": 9028,
      "Ġhate": 9029,
      "riers": 9030,
      "unte": 9031,
      "ĠHel": 9032,
      "ophy": 9033,
      "android": 9034,
      "ĠUN": 9035,
      "Ġ58": 9036,
      "\\]),": 9037,
      "liament": 9038,
      "Ġinstant": 9039,
      "ĠProposition": 9040,
      "Ġdigit": 9041,
      "}.$$": 9042,
      "Ċĉĉĉĉĉ": 9043,
      "approx": 9044,
      "Ġarrested": 9045,
      "fortunately": 9046,
      "hex": 9047,
      "Ġgro": 9048,
      "ĠTor": 9049,
      "ĠBush": 9050,
      "plify": 9051,
      "Ġkick": 9052,
      "ĊĊĠĠ": 9053,
      "Ġpresum": 9054,
      "Ġbund": 9055,
      "Ġoptic": 9056,
      "fficients": 9057,
      "Ġposts": 9058,
      "Ġdebate": 9059,
      "Ġprogression": 9060,
      "Ġattempts": 9061,
      "Ġmatching": 9062,
      "Ġhypert": 9063,
      "Ġsynthesis": 9064,
      "filter": 9065,
      "Ġtransportation": 9066,
      "Ġcataly": 9067,
      "''": 9068,
      "cat": 9069,
      "orne": 9070,
      "Ġfant": 9071,
      "iley": 9072,
      "Ġspokes": 9073,
      "124": 9074,
      "Ġcolon": 9075,
      "Ġsupports": 9076,
      "Ġfamiliar": 9077,
      "Ġimplied": 9078,
      "Ġprinciple": 9079,
      "MD": 9080,
      "basic": 9081,
      "Ġë": 9082,
      "Ġtip": 9083,
      "Ġsin": 9084,
      "Ġcogn": 9085,
      "Ġwavelength": 9086,
      "stack": 9087,
      "Ġdisorder": 9088,
      "Ġenem": 9089,
      "Ġenzym": 9090,
      "Ġapart": 9091,
      "External": 9092,
      "2008": 9093,
      "dden": 9094,
      "ĠReport": 9095,
      "Ġrepeat": 9096,
      "avascript": 9097,
      "Dep": 9098,
      "FI": 9099,
      "Ġcord": 9100,
      "Ġpit": 9101,
      "Ġpaint": 9102,
      "âĢ¯": 9103,
      "Ġwealth": 9104,
      "ĠPet": 9105,
      "ocard": 9106,
      "ĠHome": 9107,
      "Ġneck": 9108,
      "plus": 9109,
      "outs": 9110,
      "values": 9111,
      "ĠDevelopment": 9112,
      "ticle": 9113,
      "Ġnegot": 9114,
      "itudes": 9115,
      "Ġhappening": 9116,
      "Ġleadership": 9117,
      "icensed": 9118,
      "OD": 9119,
      "she": 9120,
      "ĠSU": 9121,
      "ĠSocial": 9122,
      "aded": 9123,
      "Ġconform": 9124,
      "ĠMD": 9125,
      "Ġvul": 9126,
      "quir": 9127,
      "isting": 9128,
      "Ġsudden": 9129,
      "andon": 9130,
      "ĠNext": 9131,
      "ĠLast": 9132,
      "racellular": 9133,
      "Ġmodules": 9134,
      "then": 9135,
      "ERT": 9136,
      "putation": 9137,
      "Ġpointed": 9138,
      "ĠColl": 9139,
      "Ġorganizations": 9140,
      "Ġcalculate": 9141,
      "Ġmagnitude": 9142,
      "Ġnormally": 9143,
      "Ġjurisdiction": 9144,
      ")}{": 9145,
      "ju": 9146,
      "Ġwine": 9147,
      "Ġbin": 9148,
      "icle": 9149,
      "enter": 9150,
      "idents": 9151,
      "Ġgap": 9152,
      "ĠText": 9153,
      "ĠSolve": 9154,
      "Ġ110": 9155,
      "Ġcontem": 9156,
      "009": 9157,
      "Ġrig": 9158,
      "Ġsomewhat": 9159,
      "Ġoffering": 9160,
      "Ġstatistics": 9161,
      "addr": 9162,
      "Ġcharacteristic": 9163,
      "Ġopposition": 9164,
      "ĠAdditionally": 9165,
      "Ġcircle": 9166,
      "Ġcoupling": 9167,
      "Ġfoods": 9168,
      "ĠControl": 9169,
      "Ġconviction": 9170,
      "Ġtumors": 9171,
      "Ġstrategies": 9172,
      "ÂłÂłÂłÂł": 9173,
      "Ġloved": 9174,
      "Ġsucceed": 9175,
      "Bo": 9176,
      "Did": 9177,
      "Window": 9178,
      "aet": 9179,
      "aft": 9180,
      "Ġtheories": 9181,
      "owa": 9182,
      "-------": 9183,
      "Ġconnections": 9184,
      "Ġasympt": 9185,
      "Ġdepos": 9186,
      "ĠDonald": 9187,
      "allas": 9188,
      "=\"_": 9189,
      "ĠJes": 9190,
      "Ġ51": 9191,
      "neg": 9192,
      "Ġquit": 9193,
      "Ġ62": 9194,
      "Ġrealized": 9195,
      "Ġprofiles": 9196,
      "ĠColor": 9197,
      "grav": 9198,
      "Ġmechanical": 9199,
      "Ġfibers": 9200,
      "Ġintegrated": 9201,
      "Ġaudio": 9202,
      "Ġdrinks": 9203,
      "Ġmanufacture": 9204,
      "Ġdropped": 9205,
      "Output": 9206,
      "Before": 9207,
      "double": 9208,
      "yles": 9209,
      "Ġions": 9210,
      "ĠĊĠĠĠĠĠĠĠĠĠĠĠĠĠĠĠ": 9211,
      "etary": 9212,
      "Ġnom": 9213,
      "ĠDC": 9214,
      "Ġclassic": 9215,
      "Ġyounger": 9216,
      "ĠSimilarly": 9217,
      "ocytes": 9218,
      "Ġembodiment": 9219,
      "Filter": 9220,
      "Ġmonitoring": 9221,
      "Ġscalar": 9222,
      "MAC": 9223,
      "dl": 9224,
      "king": 9225,
      "Ġwat": 9226,
      "Ġhosp": 9227,
      "Ġgate": 9228,
      "olver": 9229,
      "Ġstabil": 9230,
      "ĠRoad": 9231,
      "ĠWho": 9232,
      "Ġ-\\": 9233,
      "ĠEp": 9234,
      ").$$": 9235,
      "Ġmedicine": 9236,
      "Ġauthent": 9237,
      "ĠWhich": 9238,
      "Ġdescribes": 9239,
      "Ġgrown": 9240,
      "Ġmarried": 9241,
      "Ġorganic": 9242,
      "Ġblocks": 9243,
      "Ġexamine": 9244,
      "Ġdrawn": 9245,
      "Ġhypothesis": 9246,
      "target": 9247,
      "inition": 9248,
      "Ġpray": 9249,
      "Ġbodies": 9250,
      "omething": 9251,
      "Ġisland": 9252,
      "ĠCard": 9253,
      "ĠNL": 9254,
      "Ġimpossible": 9255,
      "ĠThree": 9256,
      "ĠVis": 9257,
      "ĠVersion": 9258,
      "Ġaccused": 9259,
      "Rev": 9260,
      "ynomial": 9261,
      "Ġmarkets": 9262,
      "ĠTrue": 9263,
      "cribed": 9264,
      "Ġpractical": 9265,
      "Ġcoupled": 9266,
      "Ġadjacent": 9267,
      "ĠPolice": 9268,
      "Ġrounded": 9269,
      "Ġsubstantially": 9270,
      "Ġyesterday": 9271,
      "TGenGroupBy": 9272,
      "Ġadministrative": 9273,
      "Bar": 9274,
      "HS": 9275,
      "John": 9276,
      "fold": 9277,
      "ket": 9278,
      "pop": 9279,
      "äº": 9280,
      "Ġ----------------------------------------------------------------": 9281,
      "Ġtaste": 9282,
      "Ġcab": 9283,
      "Ġ$[": 9284,
      "ĠFire": 9285,
      "Ġrub": 9286,
      "ĠLong": 9287,
      "Ġapplying": 9288,
      "rolog": 9289,
      "Ġreader": 9290,
      "colon": 9291,
      "Ġauthorities": 9292,
      "Ġcalc": 9293,
      "urban": 9294,
      "Ġcoefficients": 9295,
      "TGenGroupByInItem": 9296,
      ",$$": 9297,
      "EM": 9298,
      "PRO": 9299,
      "bour": 9300,
      "vol": 9301,
      "Ġpip": 9302,
      "Ġvast": 9303,
      "Ġath": 9304,
      "0005": 9305,
      "Ġbuck": 9306,
      "Ġfinds": 9307,
      "Ġcarb": 9308,
      "ĠProcess": 9309,
      "ĠAsian": 9310,
      "ĠAnderson": 9311,
      "Ġprecisely": 9312,
      "Ġsemi": 9313,
      "Ġinnov": 9314,
      "Ã³n": 9315,
      "Ġguidelines": 9316,
      "abetes": 9317,
      "Cell": 9318,
      "fill": 9319,
      "Ġske": 9320,
      "Ġod": 9321,
      "Ġpet": 9322,
      "Ġfold": 9323,
      "Ġgar": 9324,
      "ĠMel": 9325,
      "Ġalignment": 9326,
      "ĠLord": 9327,
      "actor": 9328,
      "Ġhash": 9329,
      "property": 9330,
      "ONE": 9331,
      "Ġstatically": 9332,
      "agnetic": 9333,
      "Ġprogramming": 9334,
      "Description": 9335,
      "Ġcorrelated": 9336,
      "About": 9337,
      "Windows": 9338,
      "Ġ----------------": 9339,
      "Ġrows": 9340,
      "Ġsounds": 9341,
      "rot": 9342,
      "elly": 9343,
      "igan": 9344,
      "ĠAP": 9345,
      "ifold": 9346,
      "ĠPU": 9347,
      "ĠBru": 9348,
      "ĠBusiness": 9349,
      "ĠRiver": 9350,
      "ĠOp": 9351,
      "ĠOper": 9352,
      "avirus": 9353,
      "ringe": 9354,
      "Ġdescript": 9355,
      "Ġcoinc": 9356,
      "ARY": 9357,
      "Project": 9358,
      "Ġspeaking": 9359,
      "Also": 9360,
      "ĠÎ±": 9361,
      "ĠWarner": 9362,
      "Ġfighting": 9363,
      "ĠHistory": 9364,
      "Custom": 9365,
      "Gr": 9366,
      "His": 9367,
      "Root": 9368,
      "aa": 9369,
      "png": 9370,
      "Ġtough": 9371,
      "Ġfurn": 9372,
      "lections": 9373,
      "Ġongoing": 9374,
      "ĠFore": 9375,
      "ĠFox": 9376,
      "click": 9377,
      "connection": 9378,
      "}})": 9379,
      "Ġschem": 9380,
      "ishment": 9381,
      "buffer": 9382,
      "Ġprompt": 9383,
      "Ġcalculation": 9384,
      "ĠCorpor": 9385,
      "Ġvehicles": 9386,
      "xsd": 9387,
      "Ġrapidly": 9388,
      "ĠRosalind": 9389,
      "Ġdiagram": 9390,
      "Ġcitizens": 9391,
      "ERROR": 9392,
      "DX": 9393,
      "inical": 9394,
      "including": 9395,
      "Ġmask": 9396,
      "ĠSH": 9397,
      "ĠCivil": 9398,
      "Ġstores": 9399,
[...]
